<pad>	0
<unk>	0
<s>	0
</s>	0
<mask>	0
▁क	-0
▁स	-1
▁ह	-2
▁प	-3
▁म	-4
्र	-5
ार	-6
▁है	-7
ें	-8
▁ज	-9
▁अ	-10
▁के	-11
▁व	-12
या	-13
▁न	-14
▁ब	-15
▁उ	-16
▁त	-17
ों	-18
▁द	-19
▁ल	-20
▁औ	-21
ने	-22
▁और	-23
▁में	-24
र्	-25
▁र	-26
ता	-27
्य	-28
▁की	-29
▁कर	-30
ान	-31
▁कि	-32
▁प्र	-33
▁आ	-34
▁को	-35
िक	-36
▁से	-37
्त	-38
▁भ	-39
▁का	-40
ना	-41
▁इ	-42
▁ग	-43
ित	-44
▁(	-45
▁पर	-46
▁य	-47
ाल	-48
▁हो	-49
▁ए	-50
्व	-51
▁च	-52
ही	-53
न्	-54
▁लि	-55
▁श	-56
ते	-57
▁वि	-58
▁सं	-59
▁जा	-60
▁हैं	-61
▁इस	-62
▁उस	-63
के	-64
ला	-65
▁ख	-66
ोग	-67
था	-68
्ष	-69
ति	-70
ड़	-71
▁एक	-72
स्	-73
ुम	-74
िय	-75
▁लिए	-76
हा	-77
▁सम	-78
हीं	-79
्या	-80
ती	-81
▁फ	-82
्ट	-83
▁अप	-84
▁उन	-85
▁जो	-86
▁तो	-87
▁सा	-88
▁नहीं	-89
वा	-90
▁दे	-91
▁तुम	-92
▁नि	-93
▁हम	-94
रा	-95
से	-96
दा	-97
िया	-98
▁भी	-99
▁ने	-100
त्र	-101
का	-102
ल्	-103
सी	-104
▁रा	-105
▁जि	-106
▁या	-107
▁बा	-108
री	-109
कार	-110
गा	-111
नी	-112
क्ष	-113
▁किया	-114
ज़	-115
▁अन	-116
ास	-117
▁यह	-118
▁ही	-119
ले	-120
सा	-121
ष्ट	-122
की	-123
ेश	-124
ारा	-125
कर	-126
मा	-127
▁करने	-128
▁थ	-129
ंग	-130
▁अध	-131
▁मु	-132
त्	-133
▁लोग	-134
▁वह	-135
िर	-136
▁स्	-137
▁हु	-138
क्त	-139
▁कु	-140
कि	-141
▁दि	-142
▁कार	-143
▁रह	-144
ाम	-145
▁ड	-146
▁उप	-147
ारे	-148
ाह	-149
न्ह	-150
▁सक	-151
द्	-152
▁अपने	-153
ियों	-154
ारी	-155
▁वे	-156
मान	-157
▁था	-158
▁ले	-159
▁ऐ	-160
▁1	-161
िल	-162
स्त	-163
▁ध	-164
रे	-165
वि	-166
ूप	-167
्च	-168
गे	-169
▁पू	-170
▁सु	-171
्री	-172
▁भार	-173
भा	-174
▁जिस	-175
ंत	-176
▁आप	-177
में	-178
▁गया	-179
▁पह	-180
▁उन्ह	-181
ैं	-182
ओं	-183
ंध	-184
▁तथा	-185
▁वाल	-186
दि	-187
्ह	-188
▁कुछ	-189
ली	-190
▁छ	-191
▁किसी	-192
▁ख़	-193
▁द्व	-194
ीन	-195
▁तुम्ह	-196
ूल	-197
▁दो	-198
▁अनु	-199
▁स्व	-200
▁साथ	-201
ाप	-202
ुदा	-203
▁मे	-204
▁जब	-205
को	-206
देश	-207
▁घ	-208
म्	-209
▁रूप	-210
खा	-211
ोज	-212
▁चाह	-213
▁अधिक	-214
▁कोई	-215
▁निर्	-216
ंद	-217
ंड	-218
ाय	-219
ुर	-220
द्ध	-221
▁उनके	-222
▁विश	-223
गी	-224
▁ला	-225
ार्	-226
▁थे	-227
▁ट	-228
▁तक	-229
भी	-230
▁द्वारा	-231
न्द	-232
ढ़	-233
▁करें	-234
▁करते	-235
▁पा	-236
▁व्य	-237
▁राज	-238
▁प्रति	-239
गर	-240
▁लोगों	-241
▁भा	-242
ाना	-243
र्व	-244
▁बना	-245
▁दिया	-246
नों	-247
▁क्ष	-248
▁परि	-249
▁2	-250
क़	-251
▁वर्	-252
योग	-253
त्त	-254
▁जाए	-255
▁बह	-256
लाह	-257
ंत्र	-258
ुत	-259
▁कह	-260
▁भारत	-261
धार	-262
▁मा	-263
▁फिर	-264
जी	-265
ये	-266
ाद	-267
िए	-268
▁राष्ट	-269
▁तर	-270
▁अल्	-271
▁सि	-272
▁कार्य	-273
क्	-274
▁ये	-275
रण	-276
▁मैं	-277
ुन	-278
्ञ	-279
▁अव	-280
▁कहा	-281
क्र	-282
▁स्थ	-283
▁जाता	-284
बंध	-285
्छ	-286
▁रहे	-287
▁उसके	-288
क्ति	-289
▁क्या	-290
फ़	-291
▁"	-292
▁रख	-293
▁इन	-294
▁सब	-295
▁ई	-296
ष्	-297
ूर	-298
▁करना	-299
▁अल्लाह	-300
▁ज़	-301
ड़ा	-302
नि	-303
▁ख़ुदा	-304
▁अपनी	-305
▁थी	-306
द्य	-307
▁सर	-308
ंच	-309
ानी	-310
ब्	-311
जा	-312
न्न	-313
▁फ़	-314
▁मह	-315
च्छ	-316
त्य	-317
र्ण	-318
स्थ	-319
▁जी	-320
▁बात	-321
▁हुए	-322
मी	-323
्यों	-324
दी	-325
पर	-326
▁सू	-327
▁करता	-328
▁उन्हें	-329
▁विक	-330
▁सी	-331
्रे	-332
▁होता	-333
िन	-334
वाल	-335
श्च	-336
▁क़	-337
ेत्र	-338
▁ओ	-339
ोंने	-340
▁रहा	-341
ड़े	-342
▁सकता	-343
कृ	-344
िका	-345
▁उसे	-346
ाइ	-347
ाप्त	-348
चार	-349
▁हि	-350
▁दी	-351
▁बी	-352
र्थ	-353
▁जान	-354
बर	-355
च्च	-356
▁गु	-357
मे	-358
वर्	-359
ूस	-360
▁क्षेत्र	-361
▁मान	-362
▁देख	-363
टा	-364
▁बहुत	-365
▁समय	-366
▁राष्ट्र	-367
ड़ी	-368
ज्ञ	-369
▁मि	-370
दान	-371
00	-372
पू	-373
हर	-374
▁पु	-375
र्म	-376
▁जै	-377
▁बाद	-378
भि	-379
ोल	-380
▁पै	-381
शन	-382
वन	-383
▁आय	-384
ियम	-385
कों	-386
टी	-387
पति	-388
वे	-389
▁तरह	-390
▁सह	-391
▁बे	-392
▁वाले	-393
▁हुआ	-394
▁काम	-395
▁उन्होंने	-396
▁पास	-397
वी	-398
▁देश	-399
▁पहले	-400
▁अंत	-401
..	-402
ोक	-403
प्र	-404
▁हमने	-405
ेष	-406
चना	-407
▁उत्	-408
स्था	-409
्रीय	-410
▁ना	-411
▁होगा	-412
▁जिन	-413
ुल	-414
▁उनकी	-415
क्षा	-416
▁यदि	-417
▁तुम्हारे	-418
ौर	-419
▁गई	-420
झे	-421
▁बि	-422
▁गए	-423
ख़	-424
्रा	-425
▁प्राप्त	-426
धान	-427
▁सरकार	-428
▁अन्य	-429
▁संबंध	-430
▁दिन	-431
▁होने	-432
▁ओर	-433
▁हू	-434
▁वर्ष	-435
न्त	-436
▁पी	-437
▁सम्	-438
धि	-439
यों	-440
▁सभी	-441
▁कम	-442
एँ	-443
▁छो	-444
▁विश्व	-445
हां	-446
▁चु	-447
▁19	-448
▁ऐसे	-449
▁करो	-450
िक्ष	-451
▁हमारे	-452
गत	-453
लि	-454
▁राष्ट्रपति	-455
स्ता	-456
करण	-457
वं	-458
▁नाम	-459
▁प्रा	-460
दार	-461
▁झ	-462
▁निक	-463
श्य	-464
▁प्रकार	-465
▁बद	-466
ंक	-467
▁सकते	-468
एं	-469
टे	-470
▁साम	-471
▁ता	-472
भाव	-473
▁चाहिए	-474
सर	-475
िश	-476
ीय	-477
तीय	-478
▁s	-479
▁मिल	-480
▁इसके	-481
ग्र	-482
▁बु	-483
▁ऊ	-484
तर	-485
▁बढ़	-486
स्ट	-487
वर	-488
्स	-489
▁किए	-490
िप	-491
▁उसकी	-492
चा	-493
▁हर	-494
त्व	-495
▁जाने	-496
▁होती	-497
बा	-498
हाँ	-499
ंप	-500
जन	-501
▁अच्छ	-502
शा	-503
ोजना	-504
तिक	-505
ूम	-506
दर्	-507
▁नी	-508
▁ची	-509
▁'	-510
▁दूस	-511
▁रस	-512
माण	-513
▁ईमान	-514
रो	-515
▁ठ	-516
शी	-517
▁अगर	-518
▁करे	-519
पूर्ण	-520
यी	-521
बी	-522
मत	-523
िति	-524
▁ऐसा	-525
▁हों	-526
▁एवं	-527
ास्त	-528
गार	-529
▁राज्य	-530
द्योग	-531
▁समझ	-532
▁पहु	-533
▁कारण	-534
▁विकास	-535
सार	-536
पाद	-537
▁अब	-538
▁व्यक्ति	-539
▁लग	-540
▁भारतीय	-541
ची	-542
ात	-543
▁कृ	-544
्यू	-545
▁मो	-546
ेंगे	-547
ध्य	-548
▁मुझे	-549
वल	-550
त्म	-551
▁रसूल	-552
▁हुई	-553
▁(_	-554
ाली	-555
▁हा	-556
ुक्त	-557
ाइल	-558
द्र	-559
▁स्त	-560
वार	-561
टर	-562
ेज	-563
▁जन	-564
किन	-565
▁पूर्व	-566
धा	-567
यन	-568
▁व्या	-569
01	-570
ष्ठ	-571
ेल	-572
▁लगा	-573
ज़ा	-574
मु	-575
▁मूल	-576
तन	-577
▁दु	-578
▁क्यों	-579
▁उसने	-580
पी	-581
▁लेकिन	-582
▁दिखा	-583
▁लिया	-584
▁बन	-585
क्रम	-586
▁वा	-587
तः	-588
▁दोनों	-589
▁जाती	-590
on	-591
िम	-592
▁प्रश	-593
▁तुम्हें	-594
लों	-595
▁मौ	-596
▁सद	-597
▁क्र	-598
दे	-599
ोर	-600
▁वै	-601
▁अस	-602
लय	-603
▁अपना	-604
ाला	-605
▁उपयोग	-606
▁ऐसी	-607
वाद	-608
लग	-609
▁खा	-610
्ड	-611
▁आव	-612
▁विशेष	-613
▁जीवन	-614
▁चल	-615
▁होते	-616
▁3	-617
▁अभि	-618
हाय	-619
चे	-620
▁à	-621
▁ग्र	-622
▁प्रदान	-623
िंग	-624
धिक	-625
तों	-626
▁बारे	-627
▁रही	-628
▁बीच	-629
▁ढ	-630
▁बै	-631
व्य	-632
▁रु	-633
▁वाला	-634
▁मुख	-635
▁मन	-636
कारी	-637
▁बार	-638
फल	-639
▁भाग	-640
▁यु	-641
▁उत्त	-642
।"	-643
▁समा	-644
चित	-645
▁श्री	-646
▁खु	-647
काश	-648
▁शिक्ष	-649
me	-650
▁निय	-651
▁जैसे	-652
ेक	-653
▁सहाय	-654
▁वास्त	-655
▁स्था	-656
▁उसका	-657
ंभ	-658
▁ऑ	-659
तना	-660
▁आधार	-661
ठा	-662
ख्या	-663
डी	-664
िस	-665
वेश	-666
▁आज	-667
▁सेवा	-668
ti	-669
षण	-670
िला	-671
▁कै	-672
▁न्या	-673
कता	-674
▁जाएगा	-675
▁देने	-676
्ल	-677
हित	-678
षा	-679
▁केवल	-680
▁चीज़	-681
धन	-682
▁उनका	-683
▁दृ	-684
▁गा	-685
▁माल	-686
ल्प	-687
▁हमें	-688
▁प्रयोग	-689
▁मेरे	-690
ून	-691
▁रब	-692
ग़	-693
ार्थ	-694
▁आवश्य	-695
▁सो	-696
▁जिसमें	-697
ूद	-698
ज्ञान	-699
क्षण	-700
▁हूँ	-701
▁दर	-702
▁बो	-703
▁वही	-704
▁विचार	-705
▁सर्व	-706
रिक	-707
▁निश्च	-708
▁मार्	-709
▁स्थान	-710
ियां	-711
णी	-712
▁ताकि	-713
र्य	-714
▁स्प	-715
▁पैदा	-716
ित्र	-717
▁मै	-718
पित	-719
ुट	-720
▁वाली	-721
▁प्रत्य	-722
्न	-723
▁n	-724
न्तु	-725
▁सबसे	-726
▁इसे	-727
in	-728
▁बड़ा	-729
▁उसी	-730
िता	-731
रों	-732
ंस	-733
▁जाना	-734
▁निर्धार	-735
त्ता	-736
िनियम	-737
यास	-738
▁माम	-739
▁हमारी	-740
तु	-741
▁अथ	-742
▁विष	-743
▁पार	-744
▁अधिनियम	-745
लब्	-746
र्ष	-747
▁रो	-748
र्क	-749
▁धारा	-750
▁देता	-751
हार	-752
▁तब	-753
▁जाते	-754
▁अधिकार	-755
▁शु	-756
ेर	-757
▁इसमें	-758
▁दा	-759
▁राष्ट्रीय	-760
▁आर	-761
लिए	-762
ूत	-763
▁कंप	-764
▁डि	-765
भाग	-766
▁आस	-767
▁उपलब्	-768
▁योजना	-769
▁उत्पाद	-770
ियाँ	-771
ब्द	-772
▁जिसे	-773
पा	-774
▁व्यव	-775
ुनिया	-776
▁बस	-777
▁लिख	-778
▁अथवा	-779
an	-780
द्योगिक	-781
▁हे	-782
▁संदेश	-783
बे	-784
▁पश्च	-785
▁फ़ाइल	-786
▁सामान	-787
कृत	-788
ूह	-789
ताओं	-790
वरण	-791
▁परवर	-792
▁बल्	-793
▁शाम	-794
्यान	-795
▁उससे	-796
ंज	-797
दिगार	-798
मिक	-799
▁सूचना	-800
▁शुर	-801
▁क्योंकि	-802
▁दर्	-803
वान	-804
▁उनसे	-805
सं	-806
▁परवरदिगार	-807
भव	-808
क्रिया	-809
▁मार्ग	-810
▁ज्ञ	-811
▁पुर	-812
काल	-813
▁महत्व	-814
िट	-815
▁तै	-816
▁स्ट	-817
tion	-818
त्या	-819
श्व	-820
▁सकती	-821
▁बैं	-822
▁लो	-823
त्रा	-824
▁दौर	-825
धी	-826
▁संप	-827
▁मंत्र	-828
▁डाल	-829
▁करती	-830
डर	-831
▁शिक्षा	-832
▁अर्	-833
▁पहुँ	-834
▁व्याप	-835
यार	-836
▁उपलब्ध	-837
ुक	-838
▁मू	-839
ट्ट	-840
▁वृ	-841
कृति	-842
▁दूसरे	-843
▁मद	-844
▁स्थिति	-845
▁डा	-846
भिन्न	-847
ुष	-848
▁लोक	-849
▁योग	-850
▁इसलिए	-851
▁कें	-852
▁जर	-853
ंति	-854
ंजी	-855
▁संग	-856
▁बच्च	-857
▁पुन	-858
▁जिन्ह	-859
▁सहायता	-860
युक्त	-861
▁छोड़	-862
ोट	-863
नेवाल	-864
▁प्रभाव	-865
er	-866
▁उच्च	-867
ेद	-868
▁होना	-869
ंश	-870
तान	-871
▁बड़ी	-872
▁हाथ	-873
▁महा	-874
ष्टि	-875
▁जु	-876
▁वित	-877
▁उनमें	-878
▁उद्	-879
न्द्र	-880
▁अर्थ	-881
▁हूं	-882
ेट	-883
▁होगी	-884
इन	-885
क्ट	-886
एस	-887
ताब	-888
▁कभी	-889
स्तु	-890
ोप	-891
वाह	-892
▁मेरी	-893
...	-894
यं	-895
▁अधीन	-896
▁शामिल	-897
▁कई	-898
▁सके	-899
▁प्रण	-900
▁स्वा	-901
▁विभिन्न	-902
▁आया	-903
ूट	-904
र्ट	-905
्यालय	-906
▁अति	-907
ame	-908
ोह	-909
▁बल्कि	-910
▁बता	-911
ंट	-912
▁अंतर	-913
स्थान	-914
▁इससे	-915
▁दौरान	-916
▁लिये	-917
हत	-918
▁हाल	-919
▁5	-920
▁कहते	-921
▁सदस	-922
▁करके	-923
▁4	-924
तम	-925
▁किस	-926
त्मक	-927
▁आगे	-928
▁सुर	-929
▁यहाँ	-930
▁अनुस	-931
ण्ड	-932
▁ब्र	-933
रूप	-934
मुख	-935
ेम	-936
र्इ	-937
▁अनुसार	-938
▁पता	-939
कट	-940
▁दूर	-941
▁भाषा	-942
्ला	-943
▁बैठ	-944
▁कर्म	-945
▁अवसर	-946
सल	-947
▁जहां	-948
▁इसी	-949
▁अंग	-950
▁भूम	-951
▁विषय	-952
द्धि	-953
ेह	-954
▁अभ	-955
▁होंगे	-956
▁सूची	-957
▁शी	-958
ासन	-959
▁तरफ	-960
ोजन	-961
▁ग़	-962
ैन	-963
स्व	-964
▁उनको	-965
▁मुख्य	-966
▁t	-967
▁यही	-968
▁पड़	-969
▁(1	-970
▁पि	-971
दन	-972
फी	-973
▁अग	-974
शि	-975
▁याद	-976
ग्रह	-977
्म	-978
▁आई	-979
▁परिवर्	-980
▁लाभ	-981
▁सामने	-982
▁इसका	-983
pr	-984
यर	-985
▁शै	-986
जे	-987
▁जिसके	-988
मीन	-989
▁स्वी	-990
▁सामान्य	-991
▁१	-992
▁उठा	-993
▁पूरा	-994
▁प्रक्रिया	-995
ित्व	-996
और	-997
▁अनुम	-998
▁स्पष्ट	-999
▁करेगा	-1000
▁पूर्ण	-1001
▁देते	-1002
लो	-1003
कर्	-1004
▁चि	-1005
सम	-1006
▁201	-1007
▁शा	-1008
▁उसमें	-1009
▁‘	-1010
▁200	-1011
▁तैयार	-1012
▁संबंधित	-1013
▁ऋ	-1014
ियो	-1015
▁संख्या	-1016
▁पद	-1017
▁उत्तर	-1018
प्त	-1019
त्ति	-1020
▁संस्	-1021
▁चुन	-1022
▁घर	-1023
▁बाहर	-1024
▁बदल	-1025
▁जाएँ	-1026
es	-1027
▁अलग	-1028
▁जल	-1029
▁वास्तव	-1030
ंतु	-1031
▁निर्माण	-1032
जार	-1033
▁चाहते	-1034
▁लगे	-1035
▁बढ़ा	-1036
ज्य	-1037
▁प्रत्येक	-1038
सि	-1039
टना	-1040
▁भेज	-1041
हरा	-1042
लेख	-1043
▁कान	-1044
तंत्र	-1045
्श	-1046
▁आपको	-1047
▁पृ	-1048
▁कौ	-1049
ूँ	-1050
▁प्रौ	-1051
िये	-1052
▁पत्र	-1053
ंचा	-1054
ीक	-1055
▁त्र	-1056
▁नई	-1057
वास	-1058
हास	-1059
▁सुन	-1060
गम	-1061
▁रंग	-1062
्यादा	-1063
▁आद	-1064
▁पढ़	-1065
▁भर	-1066
▁अध्य	-1067
▁बनाने	-1068
▁तीन	-1069
संद	-1070
▁अने	-1071
▁शब्द	-1072
र्या	-1073
पि	-1074
▁बड़े	-1075
▁संर	-1076
▁अच्छा	-1077
ालन	-1078
▁पुस्त	-1079
▁जारी	-1080
आई	-1081
▁मौज	-1082
दर्श	-1083
ध्यम	-1084
▁गुण	-1085
ोल्	-1086
▁कार्यक्रम	-1087
छे	-1088
▁नियम	-1089
▁प्रार	-1090
ैर	-1091
▁पूरी	-1092
▁किताब	-1093
▁शुरू	-1094
▁शि	-1095
इट	-1096
▁स्वयं	-1097
▁प्रकाश	-1098
▁अत्य	-1099
▁तुम्हारी	-1100
▁आदि	-1101
▁शक्ति	-1102
बार	-1103
▁आपके	-1104
▁नीति	-1105
मंत्र	-1106
▁फै	-1107
▁प्रयास	-1108
al	-1109
▁रखा	-1110
▁प्रौद्योगिक	-1111
हम	-1112
▁रे	-1113
▁संस्था	-1114
▁पानी	-1115
ालय	-1116
दाय	-1117
▁चार	-1118
▁कॉ	-1119
ंब	-1120
टक	-1121
▁ऊपर	-1122
धे	-1123
▁निश्चय	-1124
▁गये	-1125
ज़ाब	-1126
टन	-1127
ियोजना	-1128
▁निर्धारित	-1129
पत्र	-1130
▁वस्तु	-1131
विद	-1132
▁ते	-1133
शत	-1134
▁मदद	-1135
▁खुदा	-1136
म्प	-1137
▁सौ	-1138
▁कल	-1139
▁ज्ञान	-1140
▁परिण	-1141
भार	-1142
हन	-1143
▁अनेक	-1144
▁मी	-1145
▁ली	-1146
▁परियोजना	-1147
▁a	-1148
▁तू	-1149
रती	-1150
स्थित	-1151
▁हेतु	-1152
▁मार	-1153
▁चाहता	-1154
ूं	-1155
▁सिवा	-1156
क्षित	-1157
▁जग	-1158
अप	-1159
▁गिर	-1160
▁दुनिया	-1161
ूरी	-1162
▁प्रधान	-1163
्रो	-1164
ेशक	-1165
▁धर्म	-1166
▁वी	-1167
▁गति	-1168
▁d	-1169
▁न्याया	-1170
▁करा	-1171
▁चला	-1172
▁रुप	-1173
▁बनाया	-1174
▁संघ	-1175
▁गयी	-1176
बन्	-1177
▁गो	-1178
▁महत्वपूर्ण	-1179
ृत	-1180
बाद	-1181
▁बैंक	-1182
▁उद्योग	-1183
▁स्तर	-1184
शील	-1185
▁बन्द	-1186
▁करनेवाल	-1187
▁आए	-1188
रु	-1189
र्ड	-1190
▁वित्त	-1191
षि	-1192
▁तुम्हारा	-1193
▁&	-1194
▁“	-1195
▁अन्त	-1196
▁बेह	-1197
▁जोड़	-1198
▁श्रे	-1199
▁स्क	-1200
पन	-1201
▁डर	-1202
▁प्रो	-1203
▁डे	-1204
▁जिसने	-1205
▁ध्यान	-1206
▁संस्थान	-1207
▁परिणाम	-1208
▁ज़र	-1209
▁भवन	-1210
▁मत	-1211
▁करेंगे	-1212
▁प्रमाण	-1213
▁विदेश	-1214
नीय	-1215
▁#	-1216
la	-1217
▁यहां	-1218
मित	-1219
▁देना	-1220
it	-1221
र्थिक	-1222
▁ठीक	-1223
▁बेशक	-1224
▁मैंने	-1225
▁बिना	-1226
▁समूह	-1227
▁देखा	-1228
तिहास	-1229
दिष्ट	-1230
लन	-1231
▁व्यक्त	-1232
▁नीचे	-1233
▁प्रबंध	-1234
▁प्रतिशत	-1235
निर्	-1236
ल्क	-1237
▁पो	-1238
ज़ी	-1239
▁अंतर्	-1240
ोन	-1241
▁आवश्यकता	-1242
▁जमा	-1243
▁क्षेत्रों	-1244
▁समाज	-1245
▁प्रमुख	-1246
⁄4	-1247
▁शरी	-1248
द्व	-1249
▁प्रौद्योगिकी	-1250
ोल्डर	-1251
ंख	-1252
▁सफल	-1253
▁लेख	-1254
▁बर	-1255
or	-1256
▁ज्यादा	-1257
श्	-1258
▁जिसका	-1259
ामी	-1260
▁लेकर	-1261
▁हिस्	-1262
▁झु	-1263
▁प्रय	-1264
वादी	-1265
▁पीछे	-1266
जिक	-1267
गू	-1268
▁माध्यम	-1269
विधा	-1270
स्या	-1271
▁पाठ	-1272
▁किन्तु	-1273
▁जबकि	-1274
इस	-1275
▁मगर	-1276
▁ज़मीन	-1277
क्स	-1278
भग	-1279
▁सीमा	-1280
▁सार	-1281
▁विश्वास	-1282
ख्त	-1283
▁समर्थ	-1284
म्बर	-1285
▁धरती	-1286
▁6	-1287
धारा	-1288
▁समान	-1289
▁लौ	-1290
स्प	-1291
▁दिए	-1292
▁मज	-1293
ल्म	-1294
▁कंपनी	-1295
दारी	-1296
वृ	-1297
▁ती	-1298
▁विस्त	-1299
▁अमे	-1300
▁अतः	-1301
▁खंड	-1302
▁होकर	-1303
▁केंद्र	-1304
शो	-1305
▁आर्थिक	-1306
ल्ली	-1307
▁पिछ	-1308
र्ति	-1309
▁कठ	-1310
▁विंड	-1311
ंह	-1312
▁कृषि	-1313
▁मूल्य	-1314
्यता	-1315
▁बरा	-1316
स्क	-1317
▁अम	-1318
▁उद्देश	-1319
▁इसकी	-1320
▁अज़ाब	-1321
▁आदेश	-1322
▁भे	-1323
▁चाहे	-1324
ic	-1325
ियन	-1326
▁लड़	-1327
▁कला	-1328
▁खोल	-1329
▁सुधार	-1330
उस	-1331
▁वाय	-1332
▁इनकार	-1333
गें	-1334
▁रखते	-1335
▁रोग	-1336
201	-1337
मता	-1338
▁जनता	-1339
▁तुमसे	-1340
▁भाव	-1341
▁जानकारी	-1342
▁निम्	-1343
▁श्र	-1344
▁विद्य	-1345
▁लगभग	-1346
▁उल्	-1347
विध	-1348
▁पर्या	-1349
▁बदला	-1350
▁आने	-1351
▁स्वीकार	-1352
▁जैसा	-1353
▁छा	-1354
▁अभी	-1355
ानों	-1356
▁अवधि	-1357
▁हिन्द	-1358
▁सारे	-1359
▁काफी	-1360
44	-1361
णा	-1362
ठन	-1363
बद्ध	-1364
▁चौ	-1365
▁रोक	-1366
्ले	-1367
▁समस्या	-1368
ेशन	-1369
▁लागू	-1370
▁नियंत्र	-1371
▁निश	-1372
र्फ	-1373
▁निकाल	-1374
▁साल	-1375
ॉल	-1376
▁मेरा	-1377
▁जानता	-1378
▁जगह	-1379
▁सहयोग	-1380
▁मिला	-1381
▁गण	-1382
ee	-1383
▁मंद	-1384
र्च	-1385
▁वहां	-1386
▁पक्ष	-1387
माजिक	-1388
▁तरी	-1389
▁गुना	-1390
▁अच्छे	-1391
▁सुविधा	-1392
▁k	-1393
▁विश्वविद	-1394
▁मध्य	-1395
▁मानव	-1396
▁वक्त	-1397
ूब	-1398
▁क़ौ	-1399
▁विभाग	-1400
▁धन	-1401
उन	-1402
▁ऋण	-1403
▁परिवर्तन	-1404
आर	-1405
▁खोज	-1406
▁मामले	-1407
▁लक्ष	-1408
▁विज्ञान	-1409
▁अच्छी	-1410
▁कोश	-1411
तें	-1412
▁क्रिया	-1413
▁फ़ोल्डर	-1414
▁सामाजिक	-1415
चान	-1416
पुर	-1417
▁यू	-1418
▁निकल	-1419
▁दें	-1420
▁व्यापार	-1421
▁प्रणाली	-1422
▁जाएगी	-1423
▁स्थापित	-1424
▁समाप्त	-1425
हरी	-1426
▁आम	-1427
▁अतिरिक	-1428
▁इं	-1429
डियो	-1430
ृत्य	-1431
▁चयन	-1432
▁कुल	-1433
▁पं	-1434
▁सभा	-1435
▁आवश्यक	-1436
▁निम्न	-1437
र्द	-1438
पाल	-1439
▁दक्ष	-1440
▁पहुंच	-1441
ht	-1442
▁दिल	-1443
▁फर	-1444
स्तुत	-1445
मंत्री	-1446
▁भु	-1447
▁कवि	-1448
¤3	-1449
¤3⁄4	-1450
▁घो	-1451
▁C	-1452
▁7	-1453
▁आध	-1454
▁आग	-1455
द्द	-1456
▁सिद्ध	-1457
▁यक़	-1458
▁वर्ग	-1459
मार	-1460
▁जीव	-1461
▁कहीं	-1462
▁जाओ	-1463
दर्शन	-1464
▁वेब	-1465
▁पूछ	-1466
्‍	-1467
तनी	-1468
ंव	-1469
ज़र	-1470
▁सुरक्षा	-1471
▁टे	-1472
▁बराबर	-1473
▁उसको	-1474
▁जानते	-1475
न्म	-1476
▁”	-1477
जि	-1478
राम	-1479
चन	-1480
तियों	-1481
लत	-1482
▁विवरण	-1483
▁प्रती	-1484
दम	-1485
चि	-1486
स्तान	-1487
▁कोर्इ	-1488
ान्त	-1489
हरण	-1490
जों	-1491
डा	-1492
ंदर	-1493
▁मर	-1494
▁चे	-1495
▁जिससे	-1496
▁18	-1497
▁स्थित	-1498
▁रहने	-1499
कु	-1500
पना	-1501
र्स	-1502
▁टी	-1503
िश्त	-1504
एम	-1505
ंधान	-1506
▁:	-1507
44;	-1508
▁#44;	-1509
▁निर्ण	-1510
धित	-1511
▁डी	-1512
▁अतिरिक्त	-1513
▁पे	-1514
बल	-1515
▁उदा	-1516
▁महिला	-1517
फा	-1518
▁रहते	-1519
▁देशों	-1520
▁क़ौम	-1521
बू	-1522
▁अल	-1523
▁विन	-1524
op	-1525
▁नया	-1526
▁आकार	-1527
▁8	-1528
▁नए	-1529
ीकरण	-1530
भर	-1531
जर	-1532
▁चुका	-1533
▁चुके	-1534
▁सन्	-1535
▁सच्च	-1536
▁अंतर्गत	-1537
▁तुमने	-1538
मि	-1539
ेंट	-1540
कृतिक	-1541
▁कहने	-1542
▁लेने	-1543
▁कर्	-1544
डे	-1545
▁संवि	-1546
पन्न	-1547
▁पड़े	-1548
वाई	-1549
▁राम	-1550
▁हिंद	-1551
¥	-1552
▁उत्पादन	-1553
▁सही	-1554
▁संस	-1555
ष्ट्रीय	-1556
▁लाए	-1557
▁रखने	-1558
ेशा	-1559
▁जाये	-1560
ab	-1561
▁अनुसंधान	-1562
▁मंदिर	-1563
▁आकाश	-1564
▁ज़ि	-1565
वेदन	-1566
▁एन	-1567
प्	-1568
▁तु	-1569
▁यातना	-1570
क्ता	-1571
▁अप्र	-1572
▁खेल	-1573
▁0	-1574
▁त्रुट	-1575
ट्टी	-1576
तार	-1577
▁नही	-1578
सित	-1579
▁इन्	-1580
रोध	-1581
ग्री	-1582
िष्ट	-1583
तमान	-1584
बो	-1585
▁उठ	-1586
पूर्व	-1587
▁बुरा	-1588
ंधी	-1589
▁%	-1590
ष्ण	-1591
▁उद्देश्य	-1592
en	-1593
▁महान	-1594
▁राशि	-1595
▁यात्रा	-1596
▁व्यवस्था	-1597
▁।	-1598
▁सां	-1599
▁माँ	-1600
क्षम	-1601
▁क्षमता	-1602
▁वालों	-1603
▁निवेश	-1604
▁S	-1605
▁बहु	-1606
▁भू	-1607
▁पृष्ठ	-1608
▁प्रदेश	-1609
▁निस्	-1610
▁पत्	-1611
हित्य	-1612
▁बाल	-1613
▁विधि	-1614
▁बचा	-1615
स्थ्य	-1616
▁परी	-1617
ठला	-1618
▁उपधारा	-1619
▁-	-1620
कर्ता	-1621
▁सदस्य	-1622
▁जिन्हें	-1623
▁निष्	-1624
▁परन्तु	-1625
▁एस	-1626
▁अधिकारी	-1627
▁संपर्क	-1628
▁प्रारंभ	-1629
ot	-1630
▁''	-1631
▁रि	-1632
▁मनुष	-1633
ूरत	-1634
▁समु	-1635
▁राह	-1636
▁वर्तमान	-1637
▁वर्षों	-1638
▁मूसा	-1639
क्म	-1640
ोस	-1641
▁बनाए	-1642
ोर्ट	-1643
त्मा	-1644
षित	-1645
▁विशिष्ट	-1646
श्र	-1647
▁युद्ध	-1648
▁इतिहास	-1649
▁वाप	-1650
▁सिर्फ	-1651
ज्	-1652
▁परिवार	-1653
ख़िर	-1654
▁स्वतंत्र	-1655
▁सत्य	-1656
▁थीं	-1657
▁आरंभ	-1658
▁निर्देश	-1659
यान	-1660
▁अर	-1661
▁कौन	-1662
दर	-1663
▁प्रस्तुत	-1664
धारण	-1665
▁तुमको	-1666
▁वर्ण	-1667
▁दूसरी	-1668
▁त्रुटि	-1669
▁न्याय	-1670
¤	-1671
¤°	-1672
▁_	-1673
▁न्यायालय	-1674
gm	-1675
▁सका	-1676
▁वहाँ	-1677
▁झुठला	-1678
▁साहित्य	-1679
थम	-1680
▁२	-1681
मिल	-1682
ांत	-1683
▁पेश	-1684
गल	-1685
▁दृष्टि	-1686
▁प्रशिक्ष	-1687
▁हमारा	-1688
▁स्वास्थ्य	-1689
भू	-1690
गु	-1691
जो	-1692
रिका	-1693
▁दिल्ली	-1694
▁चा	-1695
सलमान	-1696
▁हुक्म	-1697
जित	-1698
ii	-1699
▁आन	-1700
▁शहर	-1701
▁kgm	-1702
▁शरीर	-1703
le	-1704
तक	-1705
जरा	-1706
▁प्रधानमंत्री	-1707
▁शे	-1708
▁अपे	-1709
ानीय	-1710
००	-1711
▁देगा	-1712
ar	-1713
▁थो	-1714
▁10	-1715
▁लाख	-1716
▁देखते	-1717
▁रात	-1718
▁वास्ते	-1719
▁दक्षि	-1720
▁बच्चों	-1721
▁जिनके	-1722
▁विश्वविद्यालय	-1723
▁शिक	-1724
▁बेहतर	-1725
▁चित्र	-1726
कम	-1727
▁तौर	-1728
▁श्रेणी	-1729
ोजित	-1730
खित	-1731
नाथ	-1732
▁आसमान	-1733
झा	-1734
▁अंग्रे	-1735
▁निर	-1736
▁कैसे	-1737
ran	-1738
लू	-1739
रि	-1740
ंतिम	-1741
at	-1742
निश्च	-1743
▁घटना	-1744
बत	-1745
▁अमेरिका	-1746
▁(2	-1747
Name	-1748
क्षर	-1749
▁सम्बन्	-1750
्रिय	-1751
▁एक्स	-1752
तने	-1753
▁संसा	-1754
▁भि	-1755
ैस	-1756
वाब	-1757
▁शीर्ष	-1758
▁निर्णय	-1759
▁हमेशा	-1760
ुओं	-1761
▁विकसित	-1762
▁जिन्होंने	-1763
लाई	-1764
▁स्थानीय	-1765
▁सेट	-1766
-1	-1767
तो	-1768
▁तहत	-1769
संदेह	-1770
▁name	-1771
▁उदाहरण	-1772
▁भूमि	-1773
▁नौ	-1774
▁काल	-1775
),	-1776
ड़ों	-1777
▁प्रस्ता	-1778
▁रू	-1779
▁प्रस	-1780
ज्ञा	-1781
▁बंद	-1782
▁मिले	-1783
शिया	-1784
▁हाला	-1785
▁सर्	-1786
▁दया	-1787
रीब	-1788
▁अला	-1789
▁हक़	-1790
▁निर्धारण	-1791
▁विदेशी	-1792
शल	-1793
▁अनि	-1794
▁भेजा	-1795
▁बंग	-1796
मन	-1797
गति	-1798
▁प्रेम	-1799
ज़िल	-1800
▁दस्ता	-1801
▁बल	-1802
▁अंतिम	-1803
▁मौजूद	-1804
▁A	-1805
ष्य	-1806
▁चिक	-1807
▁अनुभव	-1808
र्जा	-1809
्याल	-1810
साय	-1811
▁उन्	-1812
▁पक	-1813
ंगा	-1814
▁परंतु	-1815
▁छोटे	-1816
▁प्रस्ताव	-1817
▁निश्चित	-1818
▁सार्व	-1819
▁रचना	-1820
वासी	-1821
▁संच	-1822
▁लगता	-1823
▁प्रवेश	-1824
000	-1825
▁भूमिका	-1826
▁मांग	-1827
च्छा	-1828
▁दिशा	-1829
▁प्राधिक	-1830
दू	-1831
▁जहाँ	-1832
फिर	-1833
राही	-1834
▁किये	-1835
▁गांधी	-1836
▁तत्व	-1837
▁इस्ला	-1838
▁लं	-1839
सू	-1840
¥	-1841
ोगे	-1842
▁बोल	-1843
▁रिप	-1844
▁अफ	-1845
ील	-1846
▁पहचान	-1847
▁रहता	-1848
▁निस्संदेह	-1849
▁सक्रिय	-1850
▁भाई	-1851
▁वाद	-1852
▁अनुमति	-1853
▁पाया	-1854
्रेस	-1855
यां	-1856
▁इंड	-1857
▁जन्म	-1858
▁छवि	-1859
▁संयुक्त	-1860
▁जिसकी	-1861
दारों	-1862
▁दुर्	-1863
ैंड	-1864
यात	-1865
ेंस	-1866
▁नव	-1867
▁इस्त	-1868
ोक्ता	-1869
▁आधारित	-1870
▁घा	-1871
▁माना	-1872
▁जह	-1873
▁विस्तार	-1874
हे	-1875
▁c	-1876
▁9	-1877
▁वार	-1878
▁नागर	-1879
▁पहुँच	-1880
▁राजनी	-1881
▁दस्तावे	-1882
▁नियंत्रण	-1883
▁जल्	-1884
▁कृप	-1885
▁विकल्प	-1886
▁निर्दिष्ट	-1887
▁संबंधी	-1888
▁लक्ष्य	-1889
लिखित	-1890
▁यक़ीन	-1891
िकों	-1892
एल	-1893
▁वित्तीय	-1894
स्म	-1895
दय	-1896
▁संक	-1897
▁संभव	-1898
ार्ड	-1899
option	-1900
▁हिस्सा	-1901
▁बाजार	-1902
▁मित्र	-1903
▁स्थापना	-1904
▁गर्	-1905
वरी	-1906
▁कमी	-1907
▁मंत्रालय	-1908
ुनिक	-1909
▁जांच	-1910
जह	-1911
मू	-1912
▁15	-1913
वस्था	-1914
्राम	-1915
वीं	-1916
▁अग्र	-1917
ृत्यु	-1918
▁सहायक	-1919
▁मनुष्य	-1920
▁तकनी	-1921
ंतर	-1922
▁सोच	-1923
न्ट	-1924
▁पहुँचा	-1925
▁I	-1926
्टी	-1927
▁पुकार	-1928
▁डाक	-1929
▁संविधान	-1930
▁बच	-1931
चल	-1932
▁गुम	-1933
▁सिंह	-1934
साइट	-1935
▁प्रथम	-1936
is	-1937
▁प्रगति	-1938
▁झू	-1939
▁वृद्धि	-1940
सान	-1941
ंगे	-1942
म्मे	-1943
▁फल	-1944
▁तंत्र	-1945
▁लेते	-1946
▁अधि	-1947
▁प्रबंधन	-1948
गि	-1949
▁नाज़िल	-1950
▁20	-1951
▁समिति	-1952
.201	-1953
▁दिनों	-1954
▁केन्द्र	-1955
घा	-1956
ंसा	-1957
गतान	-1958
▁पहली	-1959
▁अलावा	-1960
▁उपकरण	-1961
▁ट्र	-1962
निश्चित	-1963
rans	-1964
▁पिछले	-1965
यामत	-1966
▁मृत्यु	-1967
र्श	-1968
▁मॉ	-1969
ानि	-1970
▁शो	-1971
यु	-1972
स्थिति	-1973
▁लें	-1974
▁सहित	-1975
▁जाय	-1976
▁रखता	-1977
र्जी	-1978
▁कृपया	-1979
▁उत्पन्न	-1980
▁गुनाह	-1981
▁सेना	-1982
▁समर्थन	-1983
पट	-1984
▁भीतर	-1985
▁न्यू	-1986
ँच	-1987
▁खाता	-1988
▁विंडो	-1989
▁मही	-1990
▁पुस्तक	-1991
न्यास	-1992
पण	-1993
द्रा	-1994
▁अध्ययन	-1995
▁पूंजी	-1996
▁पुनः	-1997
▁हटा	-1998
▁प्रश्न	-1999
▁मंत्री	-2000
शाली	-2001
ransla	-2002
▁एम	-2003
▁देव	-2004
▁खे	-2005
ज़े	-2006
▁सुनिश्चित	-2007
▁12	-2008
▁मिटा	-2009
optional	-2010
▁चिकित	-2011
▁निशान	-2012
▁संभाव	-2013
▁प्रशिक्षण	-2014
▁सर्वर	-2015
िको	-2016
▁आत्म	-2017
▁199	-2018
▁भुगतान	-2019
ौती	-2020
्रोत	-2021
▁योग्य	-2022
▁फ़र	-2023
स्ती	-2024
▁ति	-2025
▁राजा	-2026
▁तुल	-2027
▁क्षमा	-2028
ापन	-2029
शु	-2030
▁अनुप	-2031
▁pr	-2032
▁ऊर्जा	-2033
▁मात्रा	-2034
बान	-2035
▁वास्तविक	-2036
▁दक्षिण	-2037
▁सफलता	-2038
▁समुदा	-2039
▁@	-2040
▁चाल	-2041
तुम	-2042
▁भावना	-2043
▁धार	-2044
्ष्	-2045
▁संग्रह	-2046
▁पौ	-2047
▁ख़ु	-2048
▁आदमी	-2049
▁हैः	-2050
▁लिखा	-2051
जनिक	-2052
स्कार	-2053
▁भिन्न	-2054
▁उपबंध	-2055
गाह	-2056
▁कांग	-2057
पु	-2058
▁सत्ता	-2059
▁आधुनिक	-2060
▁सरकारी	-2061
क्या	-2062
▁आख़िर	-2063
▁transla	-2064
ेमाल	-2065
?"	-2066
▁मुसलमान	-2067
▁हित	-2068
▁जाएँगे	-2069
ुआ	-2070
म्ब	-2071
▁इस्तेमाल	-2072
▁उनपर	-2073
वाले	-2074
▁बिल	-2075
▁11	-2076
▁पुरा	-2077
ण्श	-2078
त्सा	-2079
▁दाय	-2080
ऊण्श	-2081
्छ्ष्	-2082
ऊण्श्छ्ष्	-2083
▁फाइल	-2084
▁(1)	-2085
▁वेबसाइट	-2086
▁वापस	-2087
▁बच्चे	-2088
▁राज्यों	-2089
▁सिर	-2090
ियान	-2091
▁मुक़	-2092
▁रिपोर्ट	-2093
ँह	-2094
गो	-2095
ैल	-2096
▁जैसी	-2097
ly	-2098
▁चुनें	-2099
▁खुल	-2100
पे	-2101
स्ति	-2102
▁प्रे	-2103
▁युवा	-2104
re	-2105
वस	-2106
विष्य	-2107
▁खो	-2108
om	-2109
▁खाते	-2110
▁सम्मान	-2111
▁खुद	-2112
▁प्रदर्श	-2113
▁सार्वजनिक	-2114
▁सुना	-2115
▁कप	-2116
▁कट	-2117
▁क्ल	-2118
▁वन	-2119
▁वो	-2120
▁उम्	-2121
द्रीय	-2122
▁आक	-2123
▁मामलों	-2124
खी	-2125
▁हस्ता	-2126
▁पूरे	-2127
▁पुरुष	-2128
▁उद्य	-2129
भूत	-2130
▁दृश्य	-2131
▁रहो	-2132
▁कमा	-2133
ंथ	-2134
▁प्रकृति	-2135
▁अह	-2136
▁साफ	-2137
▁मश	-2138
▁अत्यन्त	-2139
▁जे	-2140
▁भविष्य	-2141
राह	-2142
निक	-2143
▁उल्लेख	-2144
▁यूर	-2145
▁निकट	-2146
ामीण	-2147
▁मालूम	-2148
▁कम्प	-2149
▁चले	-2150
▁खरी	-2151
▁संपाद	-2152
▁जहन्न	-2153
▁बातें	-2154
▁संगठन	-2155
▁शासन	-2156
▁संशो	-2157
▁शुभ	-2158
▁कोशिश	-2159
▁आत	-2160
्यूटर	-2161
▁यक़ीनन	-2162
ख्स	-2163
ायद	-2164
ग़म्बर	-2165
ारों	-2166
▁जरूरत	-2167
▁गुर	-2168
▁बातों	-2169
नाव	-2170
▁दिखाएँ	-2171
र्चा	-2172
त्त्व	-2173
▁खिला	-2174
▁लाल	-2175
ity	-2176
▁सत	-2177
तृ	-2178
फ्	-2179
▁डॉ	-2180
▁सदस्यों	-2181
ंडल	-2182
बूत	-2183
▁वैज्ञान	-2184
श्वर	-2185
▁संके	-2186
ob	-2187
▁पस	-2188
चर	-2189
▁करोड़	-2190
▁अन्	-2191
ारोह	-2192
▁शख्स	-2193
▁ढा	-2194
वाही	-2195
िब	-2196
▁ग्रामीण	-2197
▁विनिर्	-2198
.0	-2199
▁संसद	-2200
▁जिनमें	-2201
▁ऑफ	-2202
▁सक्षम	-2203
▁नदी	-2204
मय	-2205
लाइन	-2206
एक	-2207
▁सामग्री	-2208
चारी	-2209
▁कानून	-2210
▁छिप	-2211
▁अपेक्षा	-2212
एफ	-2213
म्भ	-2214
▁उचित	-2215
▁लॉ	-2216
▁पर्य	-2217
▁समझा	-2218
▁गी	-2219
//	-2220
ल्ल	-2221
▁देखने	-2222
▁प्रशासन	-2223
▁नेट	-2224
▁पहा	-2225
▁̧	-2226
ड़क	-2227
▁बने	-2228
▁तारी	-2229
वर्ष	-2230
दर्भ	-2231
▁कहो	-2232
▁अपरा	-2233
▁संरचना	-2234
र्ग	-2235
▁ईसा	-2236
▁रिक	-2237
गीत	-2238
▁जित	-2239
▁इतना	-2240
▁समारोह	-2241
काम	-2242
▁केंद्रीय	-2243
▁जवाब	-2244
▁बाज़	-2245
▁प्रकट	-2246
--	-2247
▁दिखाई	-2248
▁पश्चात	-2249
▁P	-2250
▁अध्यक्ष	-2251
▁M	-2252
¤¿	-2253
▁'%	-2254
he	-2255
▁स्कूल	-2256
▁व्यापक	-2257
▁पुरस्कार	-2258
▁देती	-2259
▁काफ़	-2260
▁प्रतिनि	-2261
▁री	-2262
▁संदर्भ	-2263
मह	-2264
▁रक्षा	-2265
▁बाप	-2266
प्रे	-2267
टल	-2268
▁हास	-2269
▁मुँह	-2270
वालों	-2271
▁टै	-2272
थमिक	-2273
▁तौ	-2274
च्छेद	-2275
ीप	-2276
▁दशा	-2277
▁रोज	-2278
▁प्रोत्सा	-2279
▁निर्यात	-2280
▁गांव	-2281
▁बयान	-2282
ृह	-2283
-#	-2284
://	-2285
▁खाद	-2286
▁बुला	-2287
▁इनमें	-2288
श्त	-2289
▁आँ	-2290
▁पड़ा	-2291
टों	-2292
पूर्वक	-2293
▁वजह	-2294
▁गैर	-2295
ोग्राम	-2296
बह	-2297
▁सहेज	-2298
सत	-2299
वधान	-2300
▁कांग्रेस	-2301
▁योगदान	-2302
▁औद्योगिक	-2303
▁बदले	-2304
बि	-2305
▁अधिका	-2306
▁मुद्रा	-2307
ंगी	-2308
ैक	-2309
▁do	-2310
▁दौ	-2311
▁शायद	-2312
▁मुझ	-2313
▁translation	-2314
▁प्राय	-2315
▁लौट	-2316
ख़ुदा	-2317
▁सर्वो	-2318
tp	-2319
ंकन	-2320
चीन	-2321
▁पथ	-2322
▁डिस्क	-2323
¤	-2324
कान	-2325
▁निजी	-2326
▁आवेदन	-2327
▁ठहरा	-2328
▁किंतु	-2329
▁प्राथमिक	-2330
▁आयु	-2331
▁स्वतंत्रता	-2332
▁पालन	-2333
▁चाहिये	-2334
ल्पना	-2335
▁शर्	-2336
eed	-2337
वर्ती	-2338
▁रखना	-2339
▁केन्द	-2340
▁not	-2341
▁रहेंगे	-2342
ैतिक	-2343
▁̈	-2344
एन	-2345
▁रखो	-2346
▁प्रतिक	-2347
▁आतंक	-2348
▁आयतों	-2349
राज	-2350
▁लेखा	-2351
▁ध्व	-2352
▁यूरोप	-2353
▁उल	-2354
▁रखे	-2355
रुद्ध	-2356
्वी	-2357
▁एशिया	-2358
▁चयनित	-2359
http	-2360
▁संस्कृति	-2361
▁रेल	-2362
▁अर्था	-2363
दृ	-2364
▁भग	-2365
रल	-2366
▁संगीत	-2367
▁आयात	-2368
र्न	-2369
घु	-2370
▁इस्लाम	-2371
▁need	-2372
▁प्रभा	-2373
वत	-2374
▁किन	-2375
▁व्यक्तियों	-2376
▁लागत	-2377
▁अवश्य	-2378
क्रमण	-2379
▁T	-2380
▁सृ	-2381
ूदा	-2382
▁तय	-2383
▁बोर्ड	-2384
▁आशा	-2385
▁उद्यम	-2386
▁रकम	-2387
ृति	-2388
पक	-2389
खंड	-2390
वर्क	-2391
▁राय	-2392
▁इब	-2393
लिस	-2394
न्व	-2395
ड़ाई	-2396
▁निदेश	-2397
लब	-2398
▁कार्यालय	-2399
▁आयोजित	-2400
▁आवा	-2401
▁बज	-2402
▁विधान	-2403
सिक	-2404
▁दश	-2405
▁शता	-2406
ोलन	-2407
▁पांच	-2408
▁तत्	-2409
फर	-2410
▁ढंग	-2411
▁प्रभावित	-2412
▁सकें	-2413
लाम	-2414
▁डाला	-2415
मेल	-2416
नेवाला	-2417
िकी	-2418
मो	-2419
▁दल	-2420
▁पर्याप्त	-2421
▁बंगाल	-2422
▁प्रकाशित	-2423
▁भौ	-2424
्सा	-2425
सन	-2426
▁अध्या	-2427
▁निधि	-2428
▁http	-2429
▁दूसरा	-2430
st	-2431
▁अवस्था	-2432
▁मुक्त	-2433
▁स्रोत	-2434
▁समुदाय	-2435
इयों	-2436
▁असम	-2437
▁व्यवहार	-2438
▁शांति	-2439
▁निर्धारिती	-2440
सु	-2441
▁does	-2442
मक	-2443
ably	-2444
परी	-2445
▁prob	-2446
▁झूठ	-2447
थि	-2448
▁probably	-2449
nt	-2450
▁196	-2451
▁पाल	-2452
▁ब्या	-2453
▁देंगे	-2454
नेवाले	-2455
▁राजनीतिक	-2456
▁विभा	-2457
▁नर	-2458
िल्म	-2459
▁हल	-2460
▁सलाह	-2461
ड्ड	-2462
▁हासिल	-2463
ुता	-2464
माज़	-2465
द्यपि	-2466
▁चुकी	-2467
फ्त	-2468
स्‍	-2469
▁बनी	-2470
▁पर्यावरण	-2471
▁मुखर्जी	-2472
▁प्रभ	-2473
नो	-2474
कला	-2475
क्का	-2476
राष्ट्रीय	-2477
ol	-2478
▁चर	-2479
▁दिवस	-2480
ou	-2481
▁रक्त	-2482
▁गि	-2483
▁निम्नलिखित	-2484
रीय	-2485
ग्	-2486
▁असफल	-2487
▁अनुप्र	-2488
स्पर	-2489
City	-2490
▁संय	-2491
▁सुरक्षित	-2492
कत	-2493
राज्य	-2494
▁तीस	-2495
षद	-2496
नेट	-2497
▁केन्द्रीय	-2498
▁लाने	-2499
▁भारी	-2500
▁पदार्थ	-2501
):	-2502
▁दृष्ट	-2503
्टर	-2504
▁चर्चा	-2505
▁सेवाओं	-2506
▁संरक्षण	-2507
ालिम	-2508
कल	-2509
▁̧à	-2510
▁धी	-2511
ियर	-2512
क्षक	-2513
डिया	-2514
मीद	-2515
▁समझौ	-2516
▁तेल	-2517
▁आपकी	-2518
▁यद्यपि	-2519
धाई	-2520
पो	-2521
घ्र	-2522
फ्ट	-2523
▁सीधे	-2524
स्त्र	-2525
▁क्रम	-2526
▁बैठक	-2527
▁प्रमाणपत्र	-2528
ंद्र	-2529
कारा	-2530
ैव	-2531
्यो	-2532
▁कहना	-2533
▁इका	-2534
▁अनुक	-2535
▁विशाल	-2536
▁शब्दों	-2537
▁बाग़	-2538
वत्ता	-2539
▁डेटा	-2540
▁आत्मा	-2541
दूस	-2542
▁साह	-2543
▁आता	-2544
▁दिख	-2545
se	-2546
▁दू	-2547
▁फरमा	-2548
▁बधाई	-2549
▁आयोग	-2550
-2	-2551
भाल	-2552
हाद	-2553
▁नगर	-2554
भीर	-2555
▁पेट	-2556
ंबर	-2557
▁तरीके	-2558
बाह	-2559
िक्	-2560
▁यथा	-2561
▁सिद्धांत	-2562
व्यवस्था	-2563
▁भागी	-2564
हीन	-2565
▁कदम	-2566
▁उत	-2567
▁पंजी	-2568
त्तर	-2569
▁विरुद्ध	-2570
कीय	-2571
▁ख़बर	-2572
क्शन	-2573
▁बढ	-2574
▁संसाधन	-2575
▁उपस्थित	-2576
of	-2577
क्टर	-2578
▁क़ुर	-2579
ंदा	-2580
णि	-2581
▁पल	-2582
▁सच	-2583
▁छोटी	-2584
▁पैग़म्बर	-2585
यल	-2586
▁p	-2587
▁D	-2588
▁दस	-2589
दो	-2590
धनों	-2591
▁गिरोह	-2592
यक	-2593
षणा	-2594
▁अनिवार	-2595
भूति	-2596
▁एह	-2597
ज्ञात	-2598
▁बैठे	-2599
▁अत्या	-2600
▁पृथ	-2601
▁ज़ालिम	-2602
▁प्रदर्शन	-2603
▁छोड़कर	-2604
▁मशीन	-2605
▁गुणवत्ता	-2606
▁पसंद	-2607
▁प्राकृतिक	-2608
किंग	-2609
ार्मिक	-2610
▁जिला	-2611
▁भंड	-2612
▁रखी	-2613
लिम	-2614
▁स्म	-2615
▁१९	-2616
▁विविध	-2617
▁छात्र	-2618
▁नेटवर्क	-2619
▁{	-2620
न्दर	-2621
▁जाति	-2622
उट	-2623
प्ता	-2624
▁प्रभावी	-2625
चक	-2626
▁प्राचीन	-2627
▁सम्बन्ध	-2628
यह	-2629
▁25	-2630
वाला	-2631
वेयर	-2632
▁बताया	-2633
न्स	-2634
▁अंक	-2635
▁सख्त	-2636
.1	-2637
▁आते	-2638
ल्लाह	-2639
▁नमाज़	-2640
▁अता	-2641
▁लघु	-2642
▁पकड़	-2643
her	-2644
▁उपाय	-2645
▁पर्व	-2646
ब्दी	-2647
ल्ड	-2648
▁अधिकांश	-2649
▁प्रसन्न	-2650
▁भोजन	-2651
▁पश्चिम	-2652
▁मेहर	-2653
▁इच्छा	-2654
त्री	-2655
▁इला	-2656
▁विद्यार्थ	-2657
▁तुलना	-2658
▁आंद	-2659
चारियों	-2660
▁बौ	-2661
रज़	-2662
▁समृ	-2663
▁हट	-2664
मेलन	-2665
▁अगले	-2666
धिकार	-2667
▁महारा	-2668
▁ज़रूर	-2669
फे	-2670
nic	-2671
▁अनिवार्य	-2672
▁गतिविध	-2673
▁शिकाय	-2674
▁धार्मिक	-2675
▁b	-2676
¤2	-2677
▁वर्णन	-2678
▁16	-2679
▁गर्इ	-2680
कारों	-2681
▁रखें	-2682
वह	-2683
▁(19	-2684
ंकि	-2685
▁वैज्ञानिक	-2686
थर	-2687
▁वायु	-2688
▁195	-2689
जूद	-2690
न्दा	-2691
▁परीक्षा	-2692
्ब	-2693
▁प्रोग्राम	-2694
▁हस्ताक्षर	-2695
▁बनाना	-2696
▁कंप्यूटर	-2697
▁ऊँ	-2698
▁समाधान	-2699
▁मना	-2700
ह्न	-2701
▁बन्दों	-2702
▁F	-2703
▁शक	-2704
▁हृ	-2705
▁लेना	-2706
एगा	-2707
▁पश्चा	-2708
▁लगी	-2709
▁वीडियो	-2710
▁अधिकारियों	-2711
▁[	-2712
▁ग्रह	-2713
il	-2714
दायत	-2715
▁ब्याज	-2716
▁विज	-2717
▁जोड़ें	-2718
▁अक	-2719
याँ	-2720
स्य	-2721
▁आपका	-2722
ल्स	-2723
रित	-2724
▁मुह	-2725
खे	-2726
▁मोह	-2727
▁मिली	-2728
ेप	-2729
▁खड़े	-2730
▁संभावना	-2731
▁कूट	-2732
्रीन	-2733
▁सम्मेलन	-2734
▁अक्	-2735
▁ईश्वर	-2736
▁मिलता	-2737
यें	-2738
▁कुंजी	-2739
▁तुमपर	-2740
▁उन्हीं	-2741
▁संस्थानों	-2742
नाम	-2743
▁शीघ्र	-2744
▁आख़िरत	-2745
▁जल्दी	-2746
▁पाने	-2747
▁दबा	-2748
राहीम	-2749
▁वाक़	-2750
▁संपत्ति	-2751
▁पद्ध	-2752
झी	-2753
साथ	-2754
ंपरा	-2755
रू	-2756
ज़ार	-2757
्वा	-2758
ल्कुल	-2759
▁सात	-2760
▁शैली	-2761
▁दर्शा	-2762
▁मजबूत	-2763
रान	-2764
▁तुममें	-2765
▁198	-2766
▁उम्मीद	-2767
न्नत	-2768
स्लिम	-2769
▁आती	-2770
▁चीज	-2771
▁करनी	-2772
औन	-2773
▁उपभ	-2774
▁B	-2775
▁प्रणब	-2776
ाई	-2777
संग	-2778
▁बर्	-2779
ोजनों	-2780
ार्क	-2781
▁तारीख	-2782
▁G	-2783
▁वैश्व	-2784
िकोण	-2785
▁हिन्दी	-2786
▁पुनर्	-2787
वों	-2788
▁कविता	-2789
ेगा	-2790
स्टम	-2791
▁संसार	-2792
▁समझते	-2793
▁छु	-2794
▁ब्रिट	-2795
¤1	-2796
स्टर	-2797
▁चिकित्सा	-2798
▁खरीद	-2799
▁श्रेणीः	-2800
ॉप	-2801
▁कने	-2802
▁जरूरी	-2803
िश्ते	-2804
▁हालत	-2805
▁रहती	-2806
▁कार्यों	-2807
et	-2808
▁एज	-2809
▁पहल	-2810
,000	-2811
स्वरूप	-2812
▁गं	-2813
▁खर्च	-2814
▁सम्मिल	-2815
ँकि	-2816
▁डरा	-2817
▁दिलों	-2818
▁स्त्र	-2819
धियों	-2820
मेंट	-2821
▁अंश	-2822
▁इन्ह	-2823
▁विद	-2824
▁मानते	-2825
▁पुलिस	-2826
▁हिदायत	-2827
▁सित	-2828
▁रहना	-2829
्प	-2830
ठित	-2831
्वेष	-2832
▁सीमित	-2833
बु	-2834
जली	-2835
▁पिता	-2836
ठी	-2837
कालीन	-2838
▁तथ	-2839
▁निर्भर	-2840
विक	-2841
▁अनुप्रयोग	-2842
ww	-2843
▁सैन	-2844
▁निर्मित	-2845
-#-#	-2846
ालित	-2847
▁ब्रिटिश	-2848
▁सारी	-2849
▁हजार	-2850
▁भंडार	-2851
▁जहन्नुम	-2852
▁फेर	-2853
▁युग	-2854
शय	-2855
▁विफल	-2856
▁वार्ष	-2857
सिद्ध	-2858
ब्र	-2859
▁परंपरा	-2860
▁साधारण	-2861
▁रास्त	-2862
▁करनेवालों	-2863
▁बिल्कुल	-2864
▁पहुंचा	-2865
▁दुख	-2866
▁इबराहीम	-2867
▁नो	-2868
▁प्रवि	-2869
देव	-2870
▁अपील	-2871
▁आपने	-2872
▁भगवान	-2873
htm	-2874
दर्शी	-2875
▁छोटा	-2876
▁अर्थव्यवस्था	-2877
▁गलत	-2878
▁बख	-2879
▁m	-2880
▁शाखा	-2881
▁संकेत	-2882
▁शताब्दी	-2883
▁ताल	-2884
▁संशोधन	-2885
▁परिच	-2886
राब	-2887
▁भ्र	-2888
डल	-2889
तया	-2890
मीर	-2891
▁आदर्श	-2892
▁13	-2893
▁194	-2894
▁नसी	-2895
अपने	-2896
्राष्ट्रीय	-2897
▁किसानों	-2898
▁शेष	-2899
म्म	-2900
▁अभिलेख	-2901
▁R	-2902
▁विरोध	-2903
▁सच्चे	-2904
्यालयों	-2905
▁विचारों	-2906
▁तरफ़	-2907
▁शैतान	-2908
▁प्रतिष्ठ	-2909
▁हवा	-2910
▁प्रदर्शित	-2911
वृत्ति	-2912
▁व्यक्तिगत	-2913
▁खुलती	-2914
▁मौजूदा	-2915
▁अंदर	-2916
▁एव	-2917
▁अत्यंत	-2918
भूम	-2919
स्कृतिक	-2920
▁निर्वा	-2921
▁समुद्र	-2922
कात	-2923
▁महीने	-2924
ंगल	-2925
म्र	-2926
▁आंदोलन	-2927
▁प्रयोजनों	-2928
ध्या	-2929
▁संघर्ष	-2930
धर	-2931
▁197	-2932
▁इंटर	-2933
▁अप्रैल	-2934
▁विंडों	-2935
▁फी	-2936
▁शक़	-2937
▁सम्मिलित	-2938
▁14	-2939
▁निगम	-2940
▁अंग्रेजी	-2941
्‍य	-2942
वै	-2943
दूसरे	-2944
▁नेता	-2945
▁सत्या	-2946
सब	-2947
▁विद्व	-2948
ब्ल	-2949
▁कीमत	-2950
▁कठिन	-2951
▁f	-2952
▁L	-2953
लग्न	-2954
▁मुस्लिम	-2955
ताल	-2956
कुल	-2957
▁काट	-2958
▁नागरिक	-2959
िना	-2960
▁स्थायी	-2961
▁̈à	-2962
▁सदैव	-2963
▁विवाह	-2964
▁बढ़ाने	-2965
▁घट	-2966
तरा	-2967
ल्ला	-2968
▁चरण	-2969
्रेड	-2970
▁1.	-2971
▁बुद्धि	-2972
ेक्ट	-2973
▁इंडिया	-2974
▁चढ़	-2975
हरे	-2976
▁लगाया	-2977
परि	-2978
▁फैला	-2979
ष्ट्र	-2980
िमी	-2981
▁महत्त्व	-2982
ियत	-2983
▁आकाशों	-2984
▁तेजी	-2985
▁नोट	-2986
▁रहेगा	-2987
जनक	-2988
▁जोर	-2989
न्त्र	-2990
▁जिम्मे	-2991
▁झग	-2992
गिज़	-2993
्यान्व	-2994
▁शुल्क	-2995
ार्म	-2996
▁मार्च	-2997
▁मिट्टी	-2998
▁घोषणा	-2999
aà	-3000
▁पहला	-3001
di	-3002
ment	-3003
▁N	-3004
▁<	-3005
▁जाँच	-3006
▁खास	-3007
▁संत	-3008
▁अनुच्छेद	-3009
▁मिस	-3010
▁एल	-3011
▁भली	-3012
मैं	-3013
▁कार्यान्व	-3014
▁(2)	-3015
▁जिसको	-3016
▁हालाँकि	-3017
▁प्रत्यक्ष	-3018
▁आंक	-3019
दाता	-3020
साद	-3021
▁लेखक	-3022
▁दृष्टिकोण	-3023
▁नये	-3024
▁निशानियाँ	-3025
▁कहेंगे	-3026
ra	-3027
▁व्यय	-3028
▁U	-3029
▁सज़ा	-3030
▁फिल	-3031
▁परिषद	-3032
▁दायित्व	-3033
ाब	-3034
भूमि	-3035
▁चुनाव	-3036
▁सॉ	-3037
▁अस्त	-3038
▁बढ़ावा	-3039
▁परिवर्त	-3040
भाषा	-3041
▁बाव	-3042
इड	-3043
▁चलते	-3044
▁प्	-3045
▁सरल	-3046
नु	-3047
▁17	-3048
▁संस्कृत	-3049
▁बीमा	-3050
बाहरी	-3051
यण	-3052
▁मालिक	-3053
▁अफ्री	-3054
साब	-3055
ंबई	-3056
्वाह	-3057
्यूशन	-3058
▁गवाह	-3059
▁पाक	-3060
▁पंजा	-3061
फार	-3062
▁फे	-3063
▁गंभीर	-3064
▁पड़ता	-3065
▁ग्राह	-3066
ोने	-3067
रिया	-3068
▁देखें	-3069
▁असा	-3070
▁ड्र	-3071
▁सांस्कृतिक	-3072
▁इनके	-3073
फ़ार	-3074
कृष्ट	-3075
जीव	-3076
▁कानू	-3077
▁रहें	-3078
शाला	-3079
▁रुपये	-3080
▁लेता	-3081
▁तर्क	-3082
▁बौद्ध	-3083
▁उपयुक्त	-3084
सभा	-3085
▁अधिस	-3086
▁आपस	-3087
▁वैश्विक	-3088
अल्लाह	-3089
▁नसीहत	-3090
▁तकनीकी	-3091
▁30	-3092
ितीय	-3093
▁भूल	-3094
ंचे	-3095
दूर	-3096
प्ताह	-3097
क्षेत्र	-3098
दना	-3099
▁पाए	-3100
▁वस्तुओं	-3101
▁बनाकर	-3102
▁पश्चात्	-3103
▁H	-3104
▁कार्र	-3105
▁दोष	-3106
▁लोड	-3107
▁सत्र	-3108
▁रोजगार	-3109
▁सश	-3110
मारी	-3111
वृत्त	-3112
▁घरों	-3113
▁पात्र	-3114
▁गाय	-3115
▁मिलने	-3116
▁अंतरराष्ट्रीय	-3117
▁खुश	-3118
▁प्राण	-3119
ढ़ी	-3120
ख़्श	-3121
▁प्रतीक	-3122
▁क्षेत्रीय	-3123
▁मस	-3124
▁बनाई	-3125
▁प्रयासों	-3126
▁महिलाओं	-3127
नियों	-3128
▁देखो	-3129
▁खूब	-3130
भारत	-3131
▁जिनका	-3132
सूस	-3133
▁हृदय	-3134
एँगे	-3135
ादी	-3136
क्ष्म	-3137
▁नियुक्त	-3138
▁बुरी	-3139
मर	-3140
▁साझी	-3141
▁पत्थर	-3142
▁विनिर्दिष्ट	-3143
▁प्रसार	-3144
▁टुक	-3145
▁जादू	-3146
▁नाटक	-3147
▁प्रभार	-3148
▁मज़	-3149
▁E	-3150
▁शास्त	-3151
▁खाद्य	-3152
▁व्याख्या	-3153
खर	-3154
▁भय	-3155
ुमार	-3156
िकाओं	-3157
▁अधिकतर	-3158
▁अनुवाद	-3159
▁कठोर	-3160
ूंगा	-3161
▁भरो	-3162
▁दिखाया	-3163
कामना	-3164
▁संदे	-3165
▁अधिसू	-3166
▁स्वरूप	-3167
▁दिये	-3168
प्रिय	-3169
▁उत्तम	-3170
▁पद्धति	-3171
ूँगा	-3172
▁विस्तृत	-3173
▁शास	-3174
▁बिजली	-3175
▁समाचार	-3176
▁एच	-3177
धानी	-3178
▁अधिकतम	-3179
▁प्लग	-3180
चित्र	-3181
▁अनुसू	-3182
▁सिस्टम	-3183
▁संस्करण	-3184
बूल	-3185
▁व्याव	-3186
▁ज़ु	-3187
▁खोलें	-3188
▁गुजरा	-3189
▁कहानी	-3190
नर	-3191
▁इजरा	-3192
▁स्वामी	-3193
▁नियत	-3194
▁समक्ष	-3195
▁बख्श	-3196
▁इतनी	-3197
''	-3198
▁सरक	-3199
▁शक्त	-3200
▁बावजूद	-3201
कद	-3202
व्र	-3203
▁अंध	-3204
▁वाक़ि	-3205
▁दीर्	-3206
▁शिव	-3207
▁मार्गदर्शन	-3208
▁ग्राम	-3209
▁पार्टी	-3210
▁प्रयुक्त	-3211
▁अरब	-3212
▁प्रेर	-3213
वें	-3214
▁वाता	-3215
▁इंज	-3216
▁सीख	-3217
▁क़यामत	-3218
▁शुभकामना	-3219
्रिया	-3220
▁शेयर	-3221
▁माह	-3222
▁आतंकवाद	-3223
▁कटौती	-3224
बूद	-3225
▁हालांकि	-3226
िक्री	-3227
▁बुनिया	-3228
मल	-3229
▁(3	-3230
द्धा	-3231
▁करनेवाला	-3232
▁पश्चिमी	-3233
▁मूल्या	-3234
ंटे	-3235
▁त्व	-3236
▁विनि	-3237
लिंग	-3238
▁अनुकूल	-3239
▁फैस	-3240
▁निरंतर	-3241
▁पाय	-3242
▁चिह्न	-3243
▁सज	-3244
ुत्व	-3245
▁फाय	-3246
तृत्व	-3247
▁परस्पर	-3248
▁विमान	-3249
वहन	-3250
▁मोड	-3251
भाष	-3252
)।	-3253
ॉन	-3254
▁w	-3255
न्ना	-3256
▁छिपा	-3257
▁मेल	-3258
▁रोज़ी	-3259
र्र	-3260
त्न	-3261
▁दर्शन	-3262
▁सामना	-3263
▁स्पष्टीकरण	-3264
▁मास	-3265
त्‍	-3266
▁खाली	-3267
▁सबको	-3268
▁सम्प	-3269
▁विध	-3270
▁डाटा	-3271
दों	-3272
सों	-3273
▁अवै	-3274
▁प्रच	-3275
▁परिस्थित	-3276
▁दीवार	-3277
खिल	-3278
▁एफ	-3279
▁वार्षिक	-3280
▁संचार	-3281
▁मिशन	-3282
▁वायदा	-3283
▁the	-3284
▁गहरा	-3285
▁गतिविधियों	-3286
▁हार	-3287
अपनी	-3288
▁रेखा	-3289
▁कल्या	-3290
▁मिलकर	-3291
▁वातावरण	-3292
▁प्रसिद्ध	-3293
▁विल	-3294
▁सकेगा	-3295
▁पूर्ववर्ष	-3296
▁हाथों	-3297
बादत	-3298
▁आसान	-3299
्ति	-3300
▁मुसलमानों	-3301
▁यंत्र	-3302
▁संलग्न	-3303
▁ऑन	-3304
▁सचि	-3305
20	-3306
▁जानवर	-3307
जिए	-3308
▁अके	-3309
▁राजन	-3310
वासियों	-3311
▁खड़ा	-3312
▁अना	-3313
ोल्यूशन	-3314
▁चलता	-3315
पास	-3316
▁बॉ	-3317
▁कार्ड	-3318
▁तला	-3319
▁द्वार	-3320
▁नियमों	-3321
स्वी	-3322
▁समर्	-3323
▁e	-3324
ट्र	-3325
▁हिन्दू	-3326
नेवालों	-3327
▁लिखने	-3328
यत	-3329
िज	-3330
ोकन	-3331
▁नियमित	-3332
जु	-3333
दिक	-3334
▁टाइ	-3335
▁इत्या	-3336
ून्य	-3337
▁अपराध	-3338
▁कर्मचारियों	-3339
▁क्लिक	-3340
▁करनेवाले	-3341
▁आरो	-3342
▁करी	-3343
▁सूक्ष्म	-3344
▁नामक	-3345
किस्तान	-3346
भु	-3347
ेंशन	-3348
▁अवि	-3349
▁संपूर्ण	-3350
▁मंज	-3351
पुट	-3352
▁खी	-3353
▁महसूस	-3354
▁फ़ैस	-3355
¤¤	-3356
ंकर	-3357
▁स्वागत	-3358
▁वेतन	-3359
▁भला	-3360
ँव	-3361
किल	-3362
▁मतलब	-3363
▁अभिव्य	-3364
▁हानि	-3365
वाली	-3366
▁ग्रहण	-3367
▁अनुमान	-3368
▁स्त्री	-3369
टिल	-3370
▁मल	-3371
लोड	-3372
ंखला	-3373
▁परीक्षण	-3374
▁सुझा	-3375
▁शिकायत	-3376
▁रौ	-3377
ंका	-3378
▁अंड	-3379
▁स्‍	-3380
▁आंत	-3381
▁तमा	-3382
▁बंध	-3383
▁माँग	-3384
▁सारा	-3385
▁हाँ	-3386
▁विश्ले	-3387
▁दीन	-3388
▁चैन	-3389
▁अफ्रीका	-3390
बरी	-3391
ंचाई	-3392
▁पैर	-3393
▁सदन	-3394
▁हरगिज़	-3395
▁उपचार	-3396
▁कथ	-3397
▁वर	-3398
▁अस्प	-3399
▁दावा	-3400
▁अद्य	-3401
▁झुठलाया	-3402
▁पंच	-3403
▁g	-3404
▁x	-3405
▁24	-3406
▁सर्वा	-3407
▁कार्रवाई	-3408
▁अवैध	-3409
▁देकर	-3410
▁बनाएँ	-3411
▁प्रेष	-3412
▁हिसाब	-3413
ाक	-3414
▁–	-3415
▁स्वच्छ	-3416
पों	-3417
▁माता	-3418
▁पंक्ति	-3419
▁बजा	-3420
▁बाहरी	-3421
हि	-3422
▁अद	-3423
ताव	-3424
▁अक्सर	-3425
▁साम्रा	-3426
....	-3427
▁इन्हें	-3428
टेड	-3429
▁in	-3430
▁आये	-3431
▁मूर्ति	-3432
▁शुभकामनाएं	-3433
el	-3434
र्त	-3435
▁भरोसा	-3436
▁टन	-3437
▁इबादत	-3438
▁जाएं	-3439
▁प्रावधान	-3440
ष्क	-3441
▁भौतिक	-3442
▁सूर्य	-3443
▁वाह	-3444
▁प्राप्ति	-3445
ँति	-3446
▁परा	-3447
▁मात्र	-3448
▁कल्याण	-3449
▁सहेजें	-3450
▁कारबार	-3451
▁जिनकी	-3452
▁तौबा	-3453
▁दंड	-3454
▁चम	-3455
▁उपय	-3456
▁पीठ	-3457
▁पेज	-3458
▁जीवित	-3459
▁O	-3460
▁समस्याओं	-3461
▁h	-3462
▁पाठ्य	-3463
▁खाने	-3464
▁जनवरी	-3465
▁प्रसन्नता	-3466
रेट	-3467
▁आयुक्त	-3468
▁कल्पना	-3469
▁शख़्श	-3470
▁अंतर्राष्ट्रीय	-3471
तिहासिक	-3472
▁पत्त	-3473
▁आकर्ष	-3474
▁सुंदर	-3475
▁संकल्प	-3476
ंघ	-3477
▁खाना	-3478
▁उद	-3479
▁बढ़कर	-3480
▁ब्रा	-3481
▁व्यवसाय	-3482
▁फा	-3483
▁फॉ	-3484
▁भेजे	-3485
▁अनुमो	-3486
▁हिस्से	-3487
▁खेती	-3488
नांक	-3489
दिन	-3490
▁50	-3491
▁क्रा	-3492
▁कितने	-3493
▁मिलती	-3494
शब्द	-3495
पान	-3496
वट	-3497
▁कथा	-3498
▁उत्स	-3499
▁मौसम	-3500
लाल	-3501
धीन	-3502
▁खुशी	-3503
▁मानसिक	-3504
▁माबूद	-3505
▁ढूं	-3506
▁भलाई	-3507
▁लगाने	-3508
▁पुराने	-3509
न्‍	-3510
▁बू	-3511
▁वितरण	-3512
▁कार्यक्रमों	-3513
्वे	-3514
▁ज़रुर	-3515
▁परियोजनाओं	-3516
▁प्रजा	-3517
बारा	-3518
▁आयोजन	-3519
▁क्षति	-3520
▁संबो	-3521
ियार	-3522
▁छुट	-3523
दु	-3524
क्ट्र	-3525
▁शुरुआ	-3526
ायक	-3527
▁दूध	-3528
▁नेतृत्व	-3529
ce	-3530
▁तिथि	-3531
▁प्रार्थ	-3532
रार	-3533
▁धो	-3534
ृंखला	-3535
▁दस्तावेज	-3536
▁बदलें	-3537
▁चलो	-3538
पै	-3539
चीत	-3540
▁जून	-3541
▁जानी	-3542
▁जायेगा	-3543
▁गणराज्य	-3544
क्षेप	-3545
▁पंचा	-3546
▁मनो	-3547
▁एवोल्यूशन	-3548
▁"%	-3549
▁चै	-3550
▁कदा	-3551
ूर्ति	-3552
▁विवाद	-3553
▁दोस्त	-3554
▁न्यून	-3555
pres	-3556
▁धीरे	-3557
▁आइ	-3558
▁बोझ	-3559
▁उसपर	-3560
▁द्र	-3561
▁सप्ताह	-3562
जू	-3563
अलग	-3564
लम	-3565
▁ब्रह	-3566
वान्वेष	-3567
▁अल्प	-3568
▁ज़ुल्म	-3569
श्म	-3570
▁शत्र	-3571
वित्र	-3572
▁मुद्द	-3573
▁हस्त	-3574
▁हिंदू	-3575
ाले	-3576
▁कुफ्	-3577
▁इत्यादि	-3578
क्षी	-3579
▁कितनी	-3580
ut	-3581
ूबर	-3582
णु	-3583
▁प्ले	-3584
▁उड़	-3585
▁दयाल	-3586
वर्तन	-3587
▁यूनि	-3588
वक	-3589
लील	-3590
▁शून्य	-3591
▁अभियान	-3592
▁निरा	-3593
दुनिया	-3594
्यार	-3595
त्मिक	-3596
▁उपन्यास	-3597
▁कराने	-3598
▁काफ़िर	-3599
▁कोड	-3600
▁निभा	-3601
▁निर्देशिका	-3602
▁क़सम	-3603
▁ख़र्च	-3604
छा	-3605
यम	-3606
ियल	-3607
▁तट	-3608
▁अनुसरण	-3609
▁जुड़े	-3610
िक़	-3611
▁100	-3612
▁मूल्यांकन	-3613
फ्र	-3614
▁उत्कृष्ट	-3615
▁खुले	-3616
मंडल	-3617
▁तकली	-3618
▁मध	-3619
▁आउट	-3620
▁मुला	-3621
▁३	-3622
ंता	-3623
▁आँख	-3624
▁पत्नी	-3625
▁पर्यटन	-3626
पादन	-3627
शक्ति	-3628
▁बजे	-3629
▁प्रार्थना	-3630
णिज्य	-3631
▁अंतरण	-3632
▁लम्	-3633
▁बनाते	-3634
▁संस्थाओं	-3635
▁पराम	-3636
▁होनी	-3637
▁सुख	-3638
▁प्रयोजन	-3639
न्दगी	-3640
▁पट्टी	-3641
▁शुद्ध	-3642
मीटर	-3643
▁संगण	-3644
id	-3645
गण	-3646
▁आनंद	-3647
▁कमांड	-3648
▁बातचीत	-3649
▁अस्तित्व	-3650
म्मद	-3651
्याग	-3652
िकाना	-3653
▁विशेषता	-3654
▁कर्मचारी	-3655
ुप	-3656
क़यामत	-3657
▁गुरु	-3658
▁डरते	-3659
▁फूल	-3660
▁आस्ति	-3661
▁हद	-3662
▁बेटे	-3663
▁मिटाएँ	-3664
▁ऐतिहासिक	-3665
▁तेरे	-3666
▁अत्यधिक	-3667
▁नवान्वेष	-3668
▁प्रेरित	-3669
श्मीर	-3670
घाटन	-3671
▁इजरायल	-3672
▁विद्यार्थियों	-3673
धीश	-3674
रक	-3675
▁पंचांग	-3676
▁फ़ॉ	-3677
▁विद्युत	-3678
ूक	-3679
ंटी	-3680
मानी	-3681
▁लक्षण	-3682
▁मान्यता	-3683
▁गंगा	-3684
▁साब	-3685
ent	-3686
ओगे	-3687
▁मामला	-3688
▁निशानी	-3689
्ठा	-3690
▁इकाई	-3691
▁उदार	-3692
▁आध्या	-3693
क्सी	-3694
▁गुप्त	-3695
▁बुराई	-3696
फ़र	-3697
▁गैस	-3698
▁तुर	-3699
▁प्रारूप	-3700
▁मानक	-3701
वीय	-3702
▁शुक्र	-3703
मान्य	-3704
ोम	-3705
▁शीर्षक	-3706
▁संबंधों	-3707
▁मुक़ाब	-3708
▁विवे	-3709
▁बिक्री	-3710
▁स्क्रीन	-3711
परिक	-3712
▁तेज	-3713
वां	-3714
▁इकट	-3715
▁देखभाल	-3716
▁साधन	-3717
▁सौंप	-3718
िश्तों	-3719
▁कक्ष	-3720
▁आयतें	-3721
ुस	-3722
राई	-3723
▁दुआ	-3724
▁बैंकों	-3725
▁चारों	-3726
्वर	-3727
्ता	-3728
▁बाह	-3729
▁फसल	-3730
▁लाया	-3731
▁दिला	-3732
▁वादा	-3733
▁सुबह	-3734
▁काव्य	-3735
▁प्रतिक्रिया	-3736
लोग	-3737
▁स्तंभ	-3738
▁बुनियादी	-3739
▁खिलाफ	-3740
▁ईमानदारों	-3741
▁इरा	-3742
▁वाणिज्य	-3743
▁प्रोट	-3744
िनी	-3745
▁ख़ास	-3746
▁नष्ट	-3747
▁प्रभुत्व	-3748
र्ज	-3749
▁किसान	-3750
▁पाकिस्तान	-3751
▁मछ	-3752
ुमा	-3753
▁टिप	-3754
▁लोकप्रिय	-3755
▁फिल्म	-3756
▁निदेशक	-3757
▁छूट	-3758
▁विरा	-3759
▁मंच	-3760
▁मानो	-3761
▁स्थिर	-3762
▁कहता	-3763
करी	-3764
omment	-3765
िक्स	-3766
▁गृह	-3767
▁हराम	-3768
▁विशेषज्ञ	-3769
जोर	-3770
मार्	-3771
▁करार	-3772
▁ठिकाना	-3773
ॉकि	-3774
▁आठ	-3775
▁फ्ल	-3776
▁कुशल	-3777
लेज	-3778
▁गरीब	-3779
संख्या	-3780
▁स्थल	-3781
मात्र	-3782
▁चेह	-3783
▁प्रचार	-3784
▁लॉग	-3785
▁किरा	-3786
▁पुत्र	-3787
▁दिनांक	-3788
▁ग़रज़	-3789
▁समी	-3790
▁भाषण	-3791
▁लोकतंत्र	-3792
▁2.	-3793
▁फ़ैसला	-3794
▁स्थानों	-3795
ed	-3796
▁परहे	-3797
▁गोप	-3798
▁कौशल	-3799
आन	-3800
▁घरे	-3801
▁विषयों	-3802
क्षिक	-3803
ानु	-3804
▁अक्ष	-3805
uk	-3806
▁ख्याल	-3807
▁सामर्थ	-3808
▁माइ	-3809
▁सवाल	-3810
▁रास्ता	-3811
▁लगातार	-3812
खिम	-3813
▁समस्त	-3814
▁परहेज़	-3815
▁193	-3816
▁आख	-3817
▁बरसा	-3818
▁पहाड़	-3819
▁आध्यात्मिक	-3820
▁इतने	-3821
▁अमेरिक	-3822
▁उपयोक्ता	-3823
ec	-3824
क्रिय	-3825
तुम्ह	-3826
▁सीधा	-3827
▁सेवाएं	-3828
▁बनने	-3829
▁अर्थात्	-3830
▁न्यूनतम	-3831
▁कृत	-3832
ैसे	-3833
कालिक	-3834
▁पढ़ने	-3835
क्यों	-3836
▁लेन	-3837
▁अद्यतन	-3838
▁ग्रंथ	-3839
▁21	-3840
▁मिश्र	-3841
▁प्रोत्साहन	-3842
जात	-3843
▁सभ	-3844
▁रद्द	-3845
भेद	-3846
▁लु	-3847
4)	-3848
▁अदा	-3849
▁नाट	-3850
▁अभिप्रे	-3851
वर्ड	-3852
▁एका	-3853
▁२००	-3854
▁उम्र	-3855
▁संगठ	-3856
र्वा	-3857
▁थोड़ा	-3858
▁परामर्श	-3859
▁सुल	-3860
▁दूरी	-3861
▁असमर्थ	-3862
▁इंजीन	-3863
▁पवित्र	-3864
▁पूजा	-3865
▁नहर	-3866
▁साइ	-3867
▁स्त्रियों	-3868
▁आग्रह	-3869
▁प्रायः	-3870
▁नजर	-3871
▁गुमराही	-3872
विल	-3873
माने	-3874
▁विजय	-3875
▁विरो	-3876
▁जहा	-3877
शास्त	-3878
▁पारित	-3879
▁मेहरबान	-3880
▁संसाधनों	-3881
▁विनियम	-3882
▁गवाही	-3883
व्या	-3884
▁कठिना	-3885
रणा	-3886
▁मंड	-3887
▁एकत्र	-3888
डि	-3889
ालत	-3890
कड़ी	-3891
स्तियों	-3892
▁आंतरिक	-3893
▁नेहर	-3894
▁मज़ा	-3895
▁मिन	-3896
▁अमरी	-3897
चलित	-3898
▁तभी	-3899
▁अन्तर्	-3900
▁नागरिकों	-3901
▁अज	-3902
▁बेच	-3903
▁उतार	-3904
▁प्रदू	-3905
▁घरेलू	-3906
ूसु	-3907
▁इले	-3908
▁हथ	-3909
▁तीव्र	-3910
▁विज्ञ	-3911
▁महत्त्वपूर्ण	-3912
▁ध्वनि	-3913
▁वृक्ष	-3914
ालिब	-3915
▁शाह	-3916
▁तरीका	-3917
▁भागों	-3918
▁समन्व	-3919
▁मीडिया	-3920
कें	-3921
▁इंग	-3922
▁गीत	-3923
▁मुंबई	-3924
▁आज़	-3925
▁विधे	-3926
▁देखकर	-3927
शे	-3928
▁बाँ	-3929
▁शुरुआत	-3930
▁बीज	-3931
▁माप	-3932
▁डाउन	-3933
कीम	-3934
▁निपट	-3935
लाद	-3936
▁रुपए	-3937
▁देवी	-3938
▁जाएंगे	-3939
यू	-3940
▁गल	-3941
▁आदम	-3942
णों	-3943
िक्र	-3944
▁सर्वे	-3945
क़ी	-3946
▁हालॉकि	-3947
▁जोखिम	-3948
देन	-3949
▁भागीदारी	-3950
लाभ	-3951
िकल	-3952
▁युक्त	-3953
▁आपूर्ति	-3954
▁उद्घाटन	-3955
▁मोमि	-3956
▁संवर्	-3957
▁दयावान	-3958
भाँति	-3959
▁ऑनलाइन	-3960
▁रास्ते	-3961
▁अभिप्रेत	-3962
▁परिस्थितियों	-3963
▁ख़ुद	-3964
▁पूछा	-3965
▁भारती	-3966
नल	-3967
▁कोल	-3968
▁जल्द	-3969
▁संचालन	-3970
▁भाषाओं	-3971
तल	-3972
ज़त	-3973
:%	-3974
▁ढूंढ	-3975
▁नृत्य	-3976
▁तमाम	-3977
▁सर्वोच्च	-3978
▁अका	-3979
!"	-3980
▁u	-3981
दीय	-3982
▁तुझे	-3983
▁आसानी	-3984
▁बदलाव	-3985
▁सहकारी	-3986
▁गुजरात	-3987
बन्ध	-3988
▁दृढ़	-3989
▁ज्ञापन	-3990
शनल	-3991
▁बाबत	-3992
▁दूसरों	-3993
सायन	-3994
▁लंबा	-3995
▁नज़र	-3996
▁लड़के	-3997
▁सिवाय	-3998
विज्ञान	-3999
▁राज्यपाल	-4000
डु	-4001
▁...	-4002
▁करीब	-4003
▁साम्राज्य	-4004
इश	-4005
▁गठन	-4006
▁स्वतः	-4007
▁पुस्तिका	-4008
ac	-4009
▁ख़ूब	-4010
▁सामर्थ्य	-4011
▁मई	-4012
▁बोले	-4013
▁26	-4014
▁शिश	-4015
▁दयालुता	-4016
्रांस	-4017
html	-4018
▁अगस्त	-4019
▁स्मृति	-4020
▁कानूनी	-4021
▁पॉ	-4022
▁प्रि	-4023
ड़ने	-4024
वियों	-4025
▁लोगो	-4026
▁प्रका	-4027
ail	-4028
महिम	-4029
▁काफिर	-4030
▁उपयोगी	-4031
भाग्य	-4032
▁दीर्घ	-4033
▁देखता	-4034
▁लड़ाई	-4035
▁न्यायाधीश	-4036
▁सदा	-4037
▁मीटर	-4038
▁अधिकारों	-4039
▁तमिल	-4040
क्षीय	-4041
▁घोषित	-4042
▁निर्वाचन	-4043
म्स	-4044
िस्ट	-4045
▁फैसला	-4046
▁रजि	-4047
▁लाइ	-4048
▁पढ़ा	-4049
▁किनारे	-4050
▁मैदान	-4051
▁दस्तावेज़	-4052
▁तथ्य	-4053
ॉक	-4054
▁जरूर	-4055
द्री	-4056
कर्ताओं	-4057
नन	-4058
शाह	-4059
▁मां	-4060
▁द्वीप	-4061
▁संबोधित	-4062
50	-4063
ौल	-4064
▁औष	-4065
▁वाद्य	-4066
▁कॉन्	-4067
न्दी	-4068
▁पशु	-4069
iv	-4070
ीनी	-4071
▁चेतना	-4072
▁जितना	-4073
▁आश्च	-4074
▁कलक	-4075
▁काग	-4076
▁प्राथमिकता	-4077
▁चलने	-4078
▁अज्ञात	-4079
▁नक़	-4080
▁रीति	-4081
▁फोन	-4082
धित्व	-4083
▁ग़ालिब	-4084
▁छह	-4085
वंश	-4086
▁वैध	-4087
▁विन्यास	-4088
फारिश	-4089
शेष	-4090
भाषित	-4091
▁मुना	-4092
▁नु	-4093
▁लिखी	-4094
▁करेगी	-4095
▁समृद्ध	-4096
िव	-4097
संगत	-4098
▁ज़ाह	-4099
▁हिंदी	-4100
दत्त	-4101
▁सूर	-4102
▁कर्त	-4103
▁उत्पादों	-4104
घात	-4105
फ़ा	-4106
मिन	-4107
▁गुज़र	-4108
▁संवाद	-4109
ऊँ	-4110
ंदी	-4111
▁जटिल	-4112
▁महामहिम	-4113
गोल	-4114
यदि	-4115
▁एकल	-4116
▁अन्दर	-4117
▁उठाने	-4118
▁ख्वाह	-4119
दित	-4120
परीत	-4121
ैर्य	-4122
▁यून	-4123
▁अनुरूप	-4124
▁आक्रमण	-4125
▁उपबंधों	-4126
-201	-4127
▁विश्लेषण	-4128
षक	-4129
▁क़ि	-4130
▁जाओगे	-4131
▁संकट	-4132
▁तस	-4133
बाइल	-4134
▁बजाय	-4135
▁होंगी	-4136
▁बीमारी	-4137
▁ताप	-4138
▁लाइन	-4139
▁नेहरू	-4140
▁31	-4141
▁निरी	-4142
▁सरदार	-4143
र्रर	-4144
▁औरतों	-4145
▁कृष्ण	-4146
▁नैतिक	-4147
▁अनुरोध	-4148
▁परिणामस्वरूप	-4149
▁खुला	-4150
▁सिफारिश	-4151
▁मौत	-4152
▁विपरीत	-4153
▁जंग	-4154
▁तार	-4155
कारात्मक	-4156
वली	-4157
कालय	-4158
▁उतर	-4159
▁क़ा	-4160
लोगों	-4161
▁बुद्ध	-4162
▁साबित	-4163
▁अध्याय	-4164
▁झा	-4165
▁हिम	-4166
▁बीमार	-4167
वाना	-4168
▁आनन्द	-4169
▁लेंगे	-4170
आप	-4171
▁प्रतिनिधित्व	-4172
▁वचन	-4173
▁बन्दगी	-4174
▁आश्चर्य	-4175
▁यक़ीनी	-4176
▁मैने	-4177
▁त्याग	-4178
▁विद्यमान	-4179
▁वर्षा	-4180
▁सॉफ्ट	-4181
▁मुक़ाबले	-4182
▁चीन	-4183
रस	-4184
ंजन	-4185
मेन	-4186
▁पोर्ट	-4187
धक	-4188
▁चक्र	-4189
▁कूटशब्द	-4190
▁प्रकाशन	-4191
▁सर्वाधिक	-4192
muk	-4193
्राफ	-4194
▁क़ु	-4195
▁पलट	-4196
▁एकता	-4197
▁प्रतीत	-4198
▁सरकारों	-4199
▁एंड	-4200
▁समझौता	-4201
▁दवा	-4202
▁आरम्भ	-4203
▁दरवा	-4204
▁पंजाब	-4205
▁प्रतिभा	-4206
▁जनसंख्या	-4207
▁नूह	-4208
▁फ़िर	-4209
▁चीज़ों	-4210
▁पृथ्वी	-4211
फ़्र	-4212
शासन	-4213
▁लौटा	-4214
▁प्रशंसा	-4215
▁शारी	-4216
▁कितना	-4217
▁जिनको	-4218
लेट	-4219
त्तम	-4220
pran	-4221
▁नेक	-4222
▁भेद	-4223
▁सर्वेक्षण	-4224
दरत	-4225
बीर	-4226
▁दर्ज	-4227
▁अक्षम	-4228
ing	-4229
▁हल्	-4230
jee	-4231
▁आवाज़	-4232
▁प्रिय	-4233
abmuk	-4234
▁जाकर	-4235
herjee	-4236
pranabmuk	-4237
pranabmukherjee	-4238
▁जमीन	-4239
▁सिखा	-4240
▁करवा	-4241
▁समाप्ति	-4242
▁खुली	-4243
▁डाले	-4244
▁पहुँचे	-4245
▁कोवि	-4246
▁वहीं	-4247
▁पूर्वा	-4248
वायु	-4249
▁ज़िम्मे	-4250
prh	-4251
गढ़	-4252
▁परम	-4253
▁उठाए	-4254
▁उपक्रम	-4255
▁ब्ल	-4256
▁अस्थ	-4257
▁28	-4258
▁आओ	-4259
▁धैर्य	-4260
▁दशक	-4261
▁वैसे	-4262
▁आज्ञा	-4263
▁हैंः	-4264
▁राजनैतिक	-4265
▁अस्था	-4266
▁पूर्वी	-4267
जिस	-4268
▁संगठनों	-4269
▁पसन्द	-4270
▁मुझसे	-4271
▁आवास	-4272
▁उधार	-4273
▁प्राधिकारी	-4274
▁पाई	-4275
▁सच्चा	-4276
▁सशक्त	-4277
▁नबी	-4278
▁टा	-4279
▁दाह	-4280
▁पंजीकरण	-4281
पथ	-4282
▁इन्कार	-4283
▁l	-4284
▁जय	-4285
▁(%	-4286
▁22	-4287
लीय	-4288
ंठ	-4289
ज़ल	-4290
▁अर्थात	-4291
अर	-4292
▁काफ़ी	-4293
▁प्रेरणा	-4294
▁उद्योगों	-4295
▁निकाय	-4296
ूदी	-4297
▁साफ़	-4298
▁उत्सा	-4299
▁शिकार	-4300
▁कार्यान्वयन	-4301
▁ऑफ़	-4302
▁पाते	-4303
▁प्रतीक्षा	-4304
यो	-4305
▁23	-4306
▁अत	-4307
ित्त	-4308
▁शारीरिक	-4309
कभी	-4310
ष्‍	-4311
प्रति	-4312
▁उपभोक्ता	-4313
प्ति	-4314
▁शहरी	-4315
ष्टा	-4316
▁पड़ी	-4317
▁अहम	-4318
त्कार	-4319
▁अधिसूचना	-4320
▁प्ल	-4321
▁किलो	-4322
▁जागर	-4323
▁लिखित	-4324
▁औसत	-4325
▁चुने	-4326
▁सृजन	-4327
ri	-4328
▁मुश्	-4329
▁निहित	-4330
▁मुद्र	-4331
▁निगर	-4332
ंडी	-4333
▁बाग	-4334
धों	-4335
▁मुद्दों	-4336
अमत	-4337
▁किस्म	-4338
▁इलेक्ट्र	-4339
अत	-4340
▁धु	-4341
▁गौर	-4342
▁टीम	-4343
▁27	-4344
▁तल	-4345
▁औलाद	-4346
▁उठाया	-4347
इल	-4348
▁सजा	-4349
▁सन्तान	-4350
▁डाय	-4351
▁नमू	-4352
▁उच्चतम	-4353
ंगिक	-4354
▁सुविधाओं	-4355
▁पाठ्यक्रम	-4356
▁यूसु	-4357
▁सुभाष	-4358
▁अमेरिकी	-4359
▁टेली	-4360
▁तूने	-4361
▁जिनसे	-4362
श्रम	-4363
▁शैक्षिक	-4364
सायिक	-4365
▁चुनौती	-4366
रात	-4367
▁Name	-4368
▁परेश	-4369
जब	-4370
थे	-4371
ुस्तान	-4372
्लो	-4373
▁साथी	-4374
पालिका	-4375
▁घटा	-4376
▁सहज	-4377
▁आंख	-4378
▁सिक्	-4379
स्तिष्क	-4380
▁of	-4381
थी	-4382
▁मिनट	-4383
▁हत्या	-4384
▁डाउनलोड	-4385
▁तकनीक	-4386
ड़ते	-4387
चारिक	-4388
समय	-4389
▁मस्	-4390
▁आबाद	-4391
▁परिवहन	-4392
▁प्रोत्साहित	-4393
▁घंटे	-4394
▁श्रम	-4395
कीन	-4396
▁आश	-4397
▁जनजा	-4398
▁सड़क	-4399
▁श्रृंखला	-4400
▁फें	-4401
▁गणना	-4402
▁सराह	-4403
▁सेटिंग	-4404
दास	-4405
▁नयी	-4406
▁आकर	-4407
▁ईमानदार	-4408
▁पति	-4409
▁आना	-4410
▁देर	-4411
क्ष्य	-4412
▁पेंशन	-4413
▁कार्यवाही	-4414
▁अगला	-4415
▁कहाँ	-4416
▁हमसे	-4417
क़्त	-4418
▁छात्रों	-4419
ेंज	-4420
▁छाप	-4421
शीलता	-4422
्यवाद	-4423
▁स्ना	-4424
▁जैव	-4425
▁कब	-4426
संस्	-4427
▁सें	-4428
▁पूज्य	-4429
▁अन्यथा	-4430
▁निगरानी	-4431
▁बिहार	-4432
5)	-4433
दंड	-4434
कुछ	-4435
तीत	-4436
▁रेलवे	-4437
▁क़ुरान	-4438
▁ज़िन्दगी	-4439
▁समीक्षा	-4440
▁परिवर्तित	-4441
क़रीब	-4442
▁बहुते	-4443
▁घड़ी	-4444
▁बदलने	-4445
ंदन	-4446
ंदु	-4447
केट	-4448
▁समर्पित	-4449
र्ती	-4450
ैनिक	-4451
गारों	-4452
▁कनेक्शन	-4453
▁रहमत	-4454
▁संयंत्र	-4455
▁केरल	-4456
▁फिरऔन	-4457
▁आलो	-4458
टेन	-4459
न्द्रनाथ	-4460
▁कलकत्ता	-4461
▁सै	-4462
▁जिले	-4463
▁इंटरनेट	-4464
ुक्ति	-4465
िड	-4466
▁मिलेगा	-4467
टो	-4468
▁विधेयक	-4469
▁विरोधी	-4470
▁कहान	-4471
▁नवीन	-4472
▁लगते	-4473
▁स्मार	-4474
ेरत	-4475
ंपरिक	-4476
▁तस्वी	-4477
▁महाराष्ट्र	-4478
न्ड	-4479
▁इसको	-4480
ME	-4481
▁धारण	-4482
▁शिखर	-4483
चानक	-4484
▁उत्तरा	-4485
▁ज़ाहिर	-4486
ase	-4487
▁अकबर	-4488
▁सचिव	-4489
▁चालू	-4490
▁नक़ल	-4491
▁लाते	-4492
▁लिंक	-4493
▁एड	-4494
▁नुक	-4495
▁चो	-4496
▁अनुपात	-4497
▁सुदृ	-4498
▁सचे	-4499
▁जेल	-4500
▁होम	-4501
▁समग्र	-4502
मार्ग	-4503
▁आसपास	-4504
▁मुक़र्रर	-4505
वधि	-4506
्यूट	-4507
▁जरिए	-4508
▁रौशन	-4509
▁तथापि	-4510
▁प्रारंभिक	-4511
▁आर्	-4512
▁तिर	-4513
▁देय	-4514
▁क़ाय	-4515
▁सूत्र	-4516
ंटर	-4517
मियान	-4518
▁पृष्ठभूमि	-4519
▁भेजें	-4520
▁मिसाल	-4521
▁शहरों	-4522
▁गुफा	-4523
▁सॉफ्टवेयर	-4524
नाह	-4525
▁अचानक	-4526
।-	-4527
:-	-4528
जल	-4529
▁उपा	-4530
▁टैग	-4531
▁बटन	-4532
▁हवाई	-4533
मेट	-4534
▁शरीक	-4535
▁सुझाव	-4536
▁श्रेष्ठ	-4537
▁बग	-4538
▁जलवायु	-4539
ाये	-4540
▁”-	-4541
▁इनका	-4542
▁जुलाई	-4543
▁मूल्यों	-4544
वण	-4545
ढ़ा	-4546
▁हार्	-4547
▁कदापि	-4548
▁महात्मा	-4549
▁(3)	-4550
ष्ठा	-4551
▁गोल	-4552
▁अभिय	-4553
ड़ियों	-4554
▁निष्क्रिय	-4555
लैंड	-4556
▁विभाजन	-4557
▁W	-4558
चालित	-4559
▁खींच	-4560
▁कीट	-4561
प्राप्त	-4562
▁मोबाइल	-4563
▁प्रयत्न	-4564
▁गें	-4565
पार	-4566
मतौर	-4567
ोबार	-4568
iii	-4569
▁मुश	-4570
▁लंबे	-4571
▁शौ	-4572
▁शोध	-4573
▁रोकने	-4574
▁दरमियान	-4575
▁अभिव्यक्ति	-4576
▁प्राधिकरण	-4577
मोह	-4578
ोजी	-4579
▁परमाण	-4580
▁मं	-4581
▁इसने	-4582
ंत्रिक	-4583
vi	-4584
भ्र	-4585
रत	-4586
▁सजदा	-4587
▁नाथ	-4588
▁Y	-4589
ेय	-4590
गामी	-4591
विधि	-4592
शुदा	-4593
▁घाटे	-4594
▁द्वितीय	-4595
कां	-4596
ियामत	-4597
▁ग्राहक	-4598
▁नेताओं	-4599
▁विश्वविद्यालयों	-4600
ur	-4601
नाश	-4602
▁विशेषकर	-4603
▁करोगे	-4604
▁चिंता	-4605
▁इकट्ठा	-4606
ॉट	-4607
ायी	-4608
▁रसूलों	-4609
एच	-4610
▁निच	-4611
▁मांस	-4612
▁योजनाओं	-4613
▁पारंपरिक	-4614
▁सिल	-4615
शास्त्र	-4616
म्मत	-4617
▁मर्द	-4618
▁चलाने	-4619
▁ज्ञात	-4620
▁फ़ॉन्ट	-4621
▁समर्थित	-4622
▁पेड़	-4623
क्रिप	-4624
▁प्रतिनिधि	-4625
▁शान	-4626
▁चुनौ	-4627
▁युक्ति	-4628
▁अनुदान	-4629
▁पुरानी	-4630
▁ज़्यादा	-4631
▁क्षमाशील	-4632
ूर्ण	-4633
▁आकर्षित	-4634
▁मुश्किल	-4635
▁सफ	-4636
िकेट	-4637
▁साझा	-4638
▁नुकसान	-4639
▁मुलाकात	-4640
▁उक्त	-4641
▁कंपनियों	-4642
न्या	-4643
द्वीप	-4644
ow	-4645
▁मौल	-4646
▁आमतौर	-4647
▁कामना	-4648
▁राजनीति	-4649
क्रो	-4650
▁जोड़ने	-4651
ंतरण	-4652
लिया	-4653
▁आराम	-4654
प्रदाय	-4655
▁दाखिल	-4656
▁घटनाओं	-4657
▁आफ	-4658
▁खान	-4659
▁अनक़रीब	-4660
ठे	-4661
बानी	-4662
▁जर्म	-4663
▁कम्पनी	-4664
hi	-4665
▁देखे	-4666
▁संदेह	-4667
▁नियंत्रित	-4668
▁नस्	-4669
▁प्रविष्ट	-4670
▁वाक़िफ	-4671
▁लै	-4672
▁अपमान	-4673
▁भंडारण	-4674
▁जड़	-4675
▁दिखाता	-4676
▁बिलकुल	-4677
क़ा	-4678
▁औप	-4679
▁नंबर	-4680
▁सुदृढ़	-4681
▁लकड़ी	-4682
▁चन्द्र	-4683
मण	-4684
▁इनकी	-4685
▁कराया	-4686
▁आमंत्र	-4687
मै	-4688
▁80	-4689
तावनी	-4690
▁अवज्ञा	-4691
साफ़	-4692
▁ईमेल	-4693
▁समित	-4694
▁192	-4695
भाविक	-4696
▁कमजोर	-4697
▁प्रशासनिक	-4698
▁नाग	-4699
▁बख्शने	-4700
ज्ज	-4701
▁फरवरी	-4702
▁समावेश	-4703
▁तत्वदर्शी	-4704
www	-4705
मती	-4706
>>	-4707
िटी	-4708
दायी	-4709
▁मुद्	-4710
▁सब्र	-4711
▁नेअमत	-4712
▁उत्तरी	-4713
कर्ष	-4714
आख़िर	-4715
▁पट्ट	-4716
▁कुफ्फ़ार	-4717
ार्थी	-4718
▁मस्तिष्क	-4719
▁मध्यम	-4720
ूंकि	-4721
▁संविदा	-4722
▁काला	-4723
▁दुखद	-4724
▁संसदीय	-4725
▁मुकद	-4726
▁राजस्थान	-4727
ोटो	-4728
ुरान	-4729
▁आवाज	-4730
).	-4731
▁सौर	-4732
▁ज़िन्दा	-4733
ग्रस्त	-4734
▁नहरें	-4735
▁संतुल	-4736
▁उपस्थिति	-4737
▁शक्तियों	-4738
न्दु	-4739
▁चेतावनी	-4740
नीन	-4741
▁बढ़ती	-4742
खो	-4743
▁चुना	-4744
ेंसी	-4745
▁2000	-4746
▁कुफ़्र	-4747
ॉल्ट	-4748
▁संपादक	-4749
-0	-4750
▁मारे	-4751
▁सागर	-4752
▁थोड़े	-4753
▁शत्रु	-4754
▁विनिमय	-4755
▁समझने	-4756
▁1961	-4757
▁सलाम	-4758
▁ढांचे	-4759
▁कोशिका	-4760
▁व्यावसायिक	-4761
▁ब्राह	-4762
ॉँ	-4763
▁द्विप	-4764
▁अपेक्षित	-4765
fo	-4766
▁रण	-4767
▁खड़ी	-4768
▁मुसी	-4769
▁आकृति	-4770
▁देखना	-4771
▁बस्ती	-4772
नेवालो	-4773
▁सभ्यता	-4774
बीह	-4775
अज़ाब	-4776
▁बहुम	-4777
▁फ़रमा	-4778
▁५	-4779
सोस	-4780
▁शुरु	-4781
▁प्रभुत्वशाली	-4782
▁साझे	-4783
em	-4784
▁चूंकि	-4785
ाइन	-4786
▁टिक	-4787
0}	-4788
▁सबके	-4789
थान	-4790
माल	-4791
पेक्ष	-4792
▁भेंट	-4793
▁खोलने	-4794
ंचित	-4795
▁चली	-4796
सारिक	-4797
▁दादा	-4798
स्फ	-4799
▁मृ	-4800
▁जानने	-4801
घर	-4802
भावना	-4803
▁नेकी	-4804
स्थापित	-4805
▁हटकर	-4806
11	-4807
▁रिया	-4808
▁ईमानवालों	-4809
▁नद	-4810
▁कड़ी	-4811
▁परमाणु	-4812
पह	-4813
▁दोहरा	-4814
▁मस्जि	-4815
▁स्वाम	-4816
▁गिरफ्त	-4817
वेद	-4818
▁विरासत	-4819
▁अन्ततः	-4820
▁सांसारिक	-4821
ातु	-4822
▁महल	-4823
▁मिट	-4824
▁लिखे	-4825
▁कही	-4826
▁रहेगी	-4827
▁आह	-4828
▁संबद्ध	-4829
▁प्रतिबद्ध	-4830
▁रवी	-4831
▁चीनी	-4832
▁अन्तर	-4833
▁निवास	-4834
▁४	-4835
▁अभाव	-4836
▁परिसर	-4837
▁दोबारा	-4838
तरित	-4839
▁राजधानी	-4840
ख्ते	-4841
घटना	-4842
▁गांवों	-4843
▁गुमराह	-4844
▁वंश	-4845
▁तोड़	-4846
▁मिलेगी	-4847
▁युवाओं	-4848
▁प्रान्त	-4849
नीति	-4850
▁सतह	-4851
▁सुनने	-4852
स्पर्	-4853
▁पारि	-4854
▁मिलते	-4855
▁बाह्य	-4856
▁सम्पूर्ण	-4857
▁पैग़म्बरों	-4858
▁स्वर	-4859
फ़ि	-4860
▁सम्बन्धी	-4861
तरी	-4862
नाटक	-4863
▁/	-4864
▁परिचय	-4865
▁सिविल	-4866
▁चरित्र	-4867
▁संग्र	-4868
जिट	-4869
▁रोगी	-4870
▁40	-4871
▁लंबी	-4872
▁न्यास	-4873
▁बारगाह	-4874
og	-4875
साइ	-4876
▁अश	-4877
▁तेरी	-4878
्याद	-4879
मति	-4880
िप्त	-4881
▁उल्ल	-4882
व्यव	-4883
ॉर्ड	-4884
▁तस्वीर	-4885
▁एकमात्र	-4886
▁अभिक	-4887
▁चेहरे	-4888
▁हिंसा	-4889
▁वीर	-4890
▁इंच	-4891
▁प्रबंधक	-4892
▁निः	-4893
▁कैसा	-4894
▁तयशुदा	-4895
रचना	-4896
▁दाख़	-4897
▁विनष्ट	-4898
चरण	-4899
धर्म	-4900
▁नारा	-4901
▁नियुक्ति	-4902
जाम	-4903
▁ठहर	-4904
▁लेखन	-4905
▁संगम	-4906
बेस	-4907
ाइड	-4908
▁अं	-4909
▁प्री	-4910
▁अदालत	-4911
▁अवतरित	-4912
▁मिलियन	-4913
▁अस्थायी	-4914
dia	-4915
▁()	-4916
▁थोड़ी	-4917
सीसी	-4918
▁याच	-4919
▁पुष्टि	-4920
▁अनुग्रह	-4921
पत	-4922
▁जला	-4923
▁कच	-4924
▁तलाश	-4925
▁बाकी	-4926
▁सकेंगे	-4927
▁खण्ड	-4928
▁बिगा	-4929
▁भेजने	-4930
बरा	-4931
िकमत	-4932
▁कुरान	-4933
▁इल्म	-4934
▁लाइस	-4935
▁सन्द	-4936
▁अस्वी	-4937
▁रिक्त	-4938
▁विविधता	-4939
▁खि	-4940
▁हँ	-4941
▁डरो	-4942
▁फैल	-4943
ेन	-4944
त्स	-4945
्लि	-4946
▁समझौते	-4947
रूद्ध	-4948
▁मानवीय	-4949
▁वर्गों	-4950
▁पुस्तकालय	-4951
काब	-4952
मिटेड	-4953
▁आहार	-4954
▁क़ियामत	-4955
▁फ़ाइलें	-4956
पक्ष	-4957
्यु	-4958
▁आयी	-4959
▁मेन	-4960
▁उन्न	-4961
पंथ	-4962
बाज	-4963
▁गेंद	-4964
▁पालने	-4965
्मण	-4966
ंध्र	-4967
info	-4968
▁कॉल	-4969
▁तुरंत	-4970
ंडा	-4971
▁इमार	-4972
▁दर्श	-4973
▁दाख़िल	-4974
▁शर्तों	-4975
▁ऑडियो	-4976
▁ड्राइ	-4977
▁प्रतियोग	-4978
▁गिन	-4979
▁मूर्	-4980
▁प्रथा	-4981
▁बनाता	-4982
र्की	-4983
▁सुविधाएं	-4984
▁चुप	-4985
▁भले	-4986
▁दिखाने	-4987
▁सफेद	-4988
▁ब्राउ	-4989
त्ल	-4990
ीकृत	-4991
▁जाल	-4992
▁टैब	-4993
▁मुर्	-4994
▁जिम्मेदारी	-4995
टका	-4996
lease	-4997
▁सराहना	-4998
▁लिमिटेड	-4999
▁विभाजित	-5000
30	-5001
्पणी	-5002
चार्य	-5003
▁दोनो	-5004
▁निकाला	-5005
ोष	-5006
कृष्ण	-5007
▁अनुसूचित	-5008
निंग	-5009
्यास	-5010
▁क़ायम	-5011
▁स्कीम	-5012
▁सर्वोत्तम	-5013
▁समुद्री	-5014
यिक	-5015
▁क़िस्म	-5016
▁गुनाहों	-5017
▁वरि	-5018
▁डिजा	-5019
▁बनाये	-5020
▁हिकमत	-5021
▁निरीक्षण	-5022
ॉलर	-5023
▁अवधार	-5024
▁शिक्षक	-5025
फ़ी	-5026
साम	-5027
¤1⁄4	-5028
▁तारा	-5029
▁ऑंख	-5030
▁कार्	-5031
▁संपादित	-5032
▁स्वीकृति	-5033
▁नवान्वेषण	-5034
क्य	-5035
▁पत	-5036
निष्ठ	-5037
▁पार्	-5038
▁फिली	-5039
▁जुड़ा	-5040
▁बच्चा	-5041
जैसे	-5042
्रेट	-5043
▁डिफ़	-5044
▁संध्या	-5045
पणन	-5046
संबर	-5047
▁मॉडल	-5048
▁सितंबर	-5049
नात्मक	-5050
ंछ	-5051
▁पाँच	-5052
ैत	-5053
▁क्ला	-5054
गन	-5055
▁भरा	-5056
▁स्वस्थ	-5057
वलोकन	-5058
▁ख़ुश	-5059
गमन	-5060
्यूब	-5061
\\	-5062
▁3.	-5063
▁अनुमोदन	-5064
▁उपखंड	-5065
▁कश्मीर	-5066
वर्त	-5067
▁ठोस	-5068
▁हार्दिक	-5069
▁ताकत	-5070
▁प्ला	-5071
▁वस्त्र	-5072
▁दबाव	-5073
▁आवश्यकताओं	-5074
▁खराब	-5075
▁वार्	-5076
नेवाली	-5077
श्वास	-5078
▁क़ुरआन	-5079
▁संपादन	-5080
▁जम्	-5081
▁बुरे	-5082
▁मोदी	-5083
▁लाइसेंस	-5084
▁प्रतिष्ठित	-5085
AN	-5086
▁खत्म	-5087
▁प्रदूषण	-5088
▁हड्ड	-5089
▁समृद्धि	-5090
न्ध	-5091
▁दैनिक	-5092
▁विहित	-5093
मगर	-5094
▁अपरि	-5095
▁भावी	-5096
▁नीतियों	-5097
▁संग्रहालय	-5098
वश	-5099
▁अभिलाभ	-5100
अल	-5101
हो	-5102
िने	-5103
▁राहत	-5104
▁चौड़ाई	-5105
▁प्रतिभूति	-5106
सेट	-5107
▁पर्	-5108
मुसलमान	-5109
▁प्लगइन	-5110
▁हक	-5111
ख्यात	-5112
▁सुनते	-5113
▁प्रवाह	-5114
ज़िर	-5115
▁अली	-5116
▁समूहों	-5117
▁प्रचलित	-5118
▁द्विपक्षीय	-5119
▁गौ	-5120
▁चिप	-5121
▁स्वचालित	-5122
ैरह	-5123
▁मृत	-5124
▁नाते	-5125
वादियों	-5126
ग्ध	-5127
▁यो	-5128
हिता	-5129
स्ट्र	-5130
▁सोचा	-5131
▁सुनता	-5132
▁अफ़	-5133
▁ऊपरी	-5134
▁जोड़ा	-5135
60	-5136
▁पैके	-5137
▁विक्र	-5138
▁2016	-5139
▁परिभाषित	-5140
▁बिंदु	-5141
▁उन्होने	-5142
क़त	-5143
▁आदान	-5144
याय	-5145
▁भरे	-5146
हाल	-5147
स्कट	-5148
▁उतना	-5149
▁कू	-5150
▁अग्रणी	-5151
दीक	-5152
▁द्वि	-5153
मंड	-5154
▁सावधान	-5155
-19	-5156
ist	-5157
▁मछली	-5158
▁स्वाभाविक	-5159
उंड	-5160
▁कब्	-5161
▁बारी	-5162
▁सरकशी	-5163
▁जहन्नम	-5164
ome	-5165
▁सप	-5166
धारी	-5167
ार्ज	-5168
▁टूट	-5169
▁दान	-5170
▁उन्नत	-5171
▁विपणन	-5172
ायर	-5173
▁मौजि	-5174
▁उगा	-5175
▁हरि	-5176
▁बोली	-5177
▁संक्रमण	-5178
)...	-5179
▁चिह्नित	-5180
▁भारतीयों	-5181
12	-5182
▁डो	-5183
स्को	-5184
ूहिक	-5185
▁फ़िल	-5186
▁रोज़	-5187
▁श्रद्धा	-5188
ag	-5189
▁छि	-5190
▁रेश	-5191
▁गर्म	-5192
▁चैनल	-5193
▁बहुतेरे	-5194
▁समझे	-5195
▁परे	-5196
▁नेपाल	-5197
▁बाधा	-5198
▁लेती	-5199
▁साइट	-5200
▁कपड़े	-5201
सागर	-5202
▁जन्नत	-5203
▁दिसंबर	-5204
फोन	-5205
▁मक	-5206
▁लानेवालो	-5207
ट्	-5208
क्क	-5209
हाई	-5210
▁अँ	-5211
रीबी	-5212
▁चतु	-5213
▁रिज	-5214
Comment	-5215
▁मंदिरों	-5216
▁ज़ालिमों	-5217
दल	-5218
फो	-5219
रेखा	-5220
स्तर	-5221
▁वकी	-5222
▁हुक	-5223
▁ज़रा	-5224
▁मुंह	-5225
▁अर्ध	-5226
▁उतारा	-5227
▁असर	-5228
-2018	-5229
▁ट्रे	-5230
▁भेजी	-5231
▁आजादी	-5232
▁उत्साह	-5233
▁टिप्पणी	-5234
▁डिफ़ॉल्ट	-5235
लक	-5236
▁कैं	-5237
▁2013	-5238
▁गिरा	-5239
▁यूनिट	-5240
▁वर्गी	-5241
▁कृतज्ञ	-5242
▁मुसीबत	-5243
▁लाओ	-5244
कार्य	-5245
▁छुपा	-5246
▁कर्नाटक	-5247
▁साहित्यिक	-5248
▁देखी	-5249
▁ऊंचाई	-5250
▁अवसरों	-5251
बाल	-5252
पात	-5253
▁सन	-5254
▁छाया	-5255
▁कर्तव्य	-5256
-8	-5257
▁प्रविष्टि	-5258
▁गू	-5259
▁बन्दे	-5260
▁मानना	-5261
▁अस्पताल	-5262
▁६	-5263
जान	-5264
ेंद्र	-5265
▁y	-5266
▁टॉ	-5267
▁दुर	-5268
▁लगाए	-5269
्यादती	-5270
▁समझता	-5271
राईल	-5272
▁कुमार	-5273
▁पर्वत	-5274
▁स्ट्र	-5275
us	-5276
तिश	-5277
पिता	-5278
माना	-5279
▁फ्र	-5280
क्रिप्ट	-5281
उप	-5282
▁दह	-5283
▁खाओ	-5284
▁चाहा	-5285
▁घटक	-5286
▁सीधी	-5287
▁फ़िल्म	-5288
दरा	-5289
मेरे	-5290
▁क्रो	-5291
▁महीनों	-5292
▁संवर्धन	-5293
▁क़दम	-5294
▁दुः	-5295
▁ट्रै	-5296
▁विद्र	-5297
▁हितों	-5298
▁सामूहिक	-5299
▁सदी	-5300
▁जिहाद	-5301
▁डेस्कट	-5302
शिष्ट	-5303
▁35	-5304
ड़ित	-5305
▁दुर्घटना	-5306
▁V	-5307
ष्णु	-5308
▁भक्ति	-5309
▁धन्यवाद	-5310
य्य	-5311
▁बोस	-5312
क्षिप्त	-5313
▁मकान	-5314
▁चाहें	-5315
▁स्वर्ण	-5316
▁प्रतिस्पर्	-5317
ंची	-5318
▁रूस	-5319
▁सचेत	-5320
ंटा	-5321
तौर	-5322
ार्ट	-5323
▁अरबी	-5324
▁बादशाह	-5325
तियां	-5326
्मा	-5327
▁क़त्ल	-5328
▁सत्यापन	-5329
▁गहरी	-5330
▁यूरोपीय	-5331
▁अन्तर्गत	-5332
दूरी	-5333
▁जवा	-5334
▁उद्ध	-5335
प्रदान	-5336
▁दिव्य	-5337
मूल	-5338
▁वरिष्ठ	-5339
सीन	-5340
▁to	-5341
कोश	-5342
▁भरी	-5343
▁डिजिट	-5344
▁अग्रिम	-5345
▁फर्म	-5346
uot	-5347
▁कारणों	-5348
▁सीमाओं	-5349
राव	-5350
रेख	-5351
ॉनिक	-5352
▁गार	-5353
▁आएगा	-5354
▁समानता	-5355
दर्शिता	-5356
▁पक्षों	-5357
▁जानवरों	-5358
ंघन	-5359
्यूल	-5360
▁पीढ़ी	-5361
ेश्वर	-5362
▁आरोप	-5363
▁देवता	-5364
▁पैमाने	-5365
▁फु	-5366
मर्श	-5367
▁लूत	-5368
हमारे	-5369
▁त्वचा	-5370
▁बैक	-5371
▁पासवर्ड	-5372
▁संरक्षक	-5373
▁सदस्यता	-5374
शाही	-5375
िकता	-5376
▁करु	-5377
▁मक्	-5378
▁अक्षर	-5379
▁बाध्य	-5380
▁पत्रिका	-5381
▁दौड़	-5382
▁ब्रि	-5383
▁सहमत	-5384
▁उल्लेखनीय	-5385
संप	-5386
▁ऊँचा	-5387
▁सीडी	-5388
क्तूबर	-5389
▁साव	-5390
▁मुकाब	-5391
▁शिक्षण	-5392
▁चाहेंगे	-5393
▁यूसुफ	-5394
▁अनुज्ञात	-5395
ण्य	-5396
िमा	-5397
▁तत्काल	-5398
▁साथियों	-5399
▁डेस्कटॉप	-5400
▁60	-5401
▁रवि	-5402
▁चीजों	-5403
▁नौकरी	-5404
▁अपनाया	-5405
▁प्रतिबंध	-5406
न्थ	-5407
▁जम्मू	-5408
▁चिकित्स	-5409
▁विनिर्माण	-5410
▁ग़ौर	-5411
▁हमको	-5412
▁मोमिनीन	-5413
ुरी	-5414
▁जितनी	-5415
▁दर्दना	-5416
▁मिलाकर	-5417
▁i	-5418
▁उड़ा	-5419
▁दर्द	-5420
▁पहलू	-5421
▁अंतरिक्ष	-5422
▁उभ	-5423
▁कच्च	-5424
▁इसराईल	-5425
▁पूर्वो	-5426
▁विद्या	-5427
संच	-5428
ेरे	-5429
▁घु	-5430
▁पुष्	-5431
▁बांग	-5432
धिकारी	-5433
▁चेक	-5434
▁प्रारम्भ	-5435
▁आंध्र	-5436
क्योंकि	-5437
▁डिजाइन	-5438
▁टू	-5439
▁कोय	-5440
▁32	-5441
▁>>	-5442
▁कष्ट	-5443
▁तुम्हे	-5444
▁रेडियो	-5445
कू	-5446
फू	-5447
▁असाधारण	-5448
▁क्रिकेट	-5449
▁विरूद्ध	-5450
▁खिस	-5451
▁मजदूर	-5452
▁पूर्ति	-5453
▁यथास्थिति	-5454
डो	-5455
िरो	-5456
▁तकलीफ़	-5457
▁पूर्वावलोकन	-5458
जाल	-5459
▁चोट	-5460
▁नाप	-5461
▁डॉलर	-5462
▁फ़िरऔन	-5463
▁बिगाड़	-5464
▁29	-5465
▁शोक	-5466
▁अहले	-5467
▁चंद्र	-5468
▁नेशनल	-5469
▁याचिका	-5470
काता	-5471
श्री	-5472
म्परा	-5473
.2	-5474
AT	-5475
अनु	-5476
ंगों	-5477
▁एक्	-5478
▁बुल	-5479
▁हिमा	-5480
▁हला	-5481
▁सम्भव	-5482
▁अर्जित	-5483
▁तंग	-5484
▁पुस्तकों	-5485
▁दावे	-5486
▁तीसरे	-5487
▁तत्वों	-5488
▁निष्कर्ष	-5489
▁उपयोगकर्ता	-5490
▁प्रतियोगिता	-5491
and	-5492
▁वस	-5493
▁यूँ	-5494
▁यौ	-5495
▁दर्दनाक	-5496
▁यथ	-5497
▁पौधों	-5498
as	-5499
▁कठिनाई	-5500
ंख्य	-5501
▁चाय	-5502
▁अंतः	-5503
▁फ़रिश्ते	-5504
▁गहन	-5505
▁ब्य	-5506
india	-5507
▁2006	-5508
▁प्रेस	-5509
▁घाटी	-5510
▁समाय	-5511
▁बजट	-5512
▁पैरा	-5513
▁बांध	-5514
▁संहिता	-5515
▁निशानियों	-5516
नान	-5517
▁पाइ	-5518
▁रिस	-5519
▁हरे	-5520
▁इंडियन	-5521
▁पंजीकृत	-5522
ब्ब	-5523
▁काली	-5524
▁बचाव	-5525
▁क्रांति	-5526
ion	-5527
ैया	-5528
त्ते	-5529
▁राजस्व	-5530
▁अक्तूबर	-5531
SL	-5532
द्दी	-5533
ानिक	-5534
्रोल	-5535
▁दास	-5536
▁साँ	-5537
▁बारह	-5538
▁दुश्म	-5539
▁प्रेषित	-5540
पूर	-5541
किसी	-5542
ुसार	-5543
▁ख़ौ	-5544
▁पाद	-5545
▁फि	-5546
▁गरीबी	-5547
ात्मक	-5548
▁उपकरणों	-5549
मुसलमानों	-5550
▁कहे	-5551
▁छोड़ा	-5552
▁त्रुटिः	-5553
ad	-5554
रुप	-5555
ation	-5556
▁कनेक्ट	-5557
कल्प	-5558
पश्च	-5559
▁उपर	-5560
▁कहला	-5561
▁कॉन्फ़ि	-5562
ड़िया	-5563
▁खतरा	-5564
▁बाबू	-5565
▁सांस	-5566
▁मूलभूत	-5567
▁केंद्रित	-5568
सेस	-5569
▁काउ	-5570
▁नज़	-5571
जनन	-5572
ंडित	-5573
सनीय	-5574
▁परस	-5575
▁गठित	-5576
▁कहेगा	-5577
▁पैकेज	-5578
▁वार्ता	-5579
▁आब	-5580
▁धातु	-5581
▁बल्ले	-5582
▁अधिकरण	-5583
▁मैत्री	-5584
▁शक्तिशाली	-5585
दायक	-5586
निवेश	-5587
.5	-5588
▁ईसाई	-5589
▁लाना	-5590
oc	-5591
ंकित	-5592
▁बैठा	-5593
▁जायें	-5594
▁फायदा	-5595
ढ़े	-5596
etail	-5597
प्रभु	-5598
.)	-5599
िली	-5600
▁चू	-5601
्नों	-5602
▁शेय	-5603
▁सरकश	-5604
▁व्यक्तित्व	-5605
ate	-5606
▁अग्	-5607
▁बैंकिंग	-5608
ज़ोर	-5609
यंती	-5610
▁क्व	-5611
अच्छा	-5612
14	-5613
▁आलोचना	-5614
▁उद्यान	-5615
▁प्रस्तु	-5616
काय	-5617
शांत	-5618
▁औरत	-5619
▁सहमति	-5620
स्ट्री	-5621
▁समन्वय	-5622
▁काफ़िरों	-5623
टि	-5624
▁</	-5625
▁2017	-5626
▁वाणिज्यिक	-5627
OR	-5628
बेह	-5629
ुत्	-5630
वंबर	-5631
ादिर	-5632
▁देगें	-5633
▁जम	-5634
▁अकाद	-5635
▁जवाहर	-5636
▁काफिरों	-5637
▁नार	-5638
▁अब्द	-5639
▁फ़िल्टर	-5640
शः	-5641
▁मरा	-5642
▁सद्	-5643
▁ढांचा	-5644
▁संवेदन	-5645
तू	-5646
▁1,	-5647
▁2007	-5648
▁माने	-5649
▁लगती	-5650
▁कामों	-5651
▁संदाय	-5652
▁बौद्धिक	-5653
▁परिवारों	-5654
▁ग्री	-5655
▁कोविन्द	-5656
AP	-5657
▁v	-5658
▁उर्व	-5659
▁शान्त	-5660
▁निर्मा	-5661
▁प्रणाल	-5662
▁भटक	-5663
▁मुक्ति	-5664
▁मनुष्यों	-5665
वानी	-5666
▁धारणा	-5667
▁टो	-5668
▁सल	-5669
▁पाब	-5670
▁फार्म	-5671
▁नेत्र	-5672
▁तैय	-5673
press	-5674
▁जोड़े	-5675
▁शरण	-5676
▁जिम्मेदार	-5677
▁मादा	-5678
▁प्रोज	-5679
▁मोमिन	-5680
िरी	-5681
स्पति	-5682
▁सैनिक	-5683
▁उल्लंघन	-5684
▁विद्यालय	-5685
▁चुनौतियों	-5686
धानिक	-5687
सो	-5688
▁कागज	-5689
▁पड़ती	-5690
▁रूपांत	-5691
▁शिशु	-5692
▁सकाः	-5693
▁जायेगी	-5694
▁रहस्य	-5695
▁औपचारिक	-5696
▁मॉड	-5697
▁गवर्	-5698
▁श्रमिक	-5699
ंजलि	-5700
जीवन	-5701
▁मुगल	-5702
▁पड़ेगा	-5703
▁बनकर	-5704
▁रोका	-5705
▁साहस	-5706
▁निवासी	-5707
▁ब्रह्म	-5708
▁विद्वान	-5709
▁फ़रिश्तों	-5710
ुरा	-5711
▁बेटा	-5712
स्ट्रे	-5713
▁लिंग	-5714
ध्यक्ष	-5715
▁कक्षा	-5716
▁प्रभाग	-5717
▁परम्परा	-5718
▁1961-2018	-5719
ैम	-5720
ियाई	-5721
▁चीज़े	-5722
▁कारोबार	-5723
सीय	-5724
▁फेंक	-5725
▁चाहती	-5726
▁सुसंगत	-5727
▁संक्षिप्त	-5728
िश्र	-5729
▁सेल	-5730
▁नवंबर	-5731
▁चिंत	-5732
▁ध्वज	-5733
▁टुकड़े	-5734
▁2014	-5735
▁अकेले	-5736
▁तमिलना	-5737
▁प्रवृत्ति	-5738
16	-5739
▁r	-5740
▁लगाना	-5741
▁वकील	-5742
▁पहन	-5743
▁पैरवी	-5744
▁वंचित	-5745
▁प्रत्या	-5746
▁निष्पादन	-5747
▁अम्	-5748
क्षणिक	-5749
▁बढ़ने	-5750
▁दक्षिणी	-5751
▁इक	-5752
वारी	-5753
▁जयंती	-5754
▁जिसपर	-5755
▁निकले	-5756
पेट	-5757
▁प्रसंस्	-5758
▁संभावित	-5759
▁बस्तियों	-5760
▁कॉन्फ़िगर	-5761
काने	-5762
▁अंतराल	-5763
▁क़ुबूल	-5764
▁बाग़ों	-5765
▁स्वामित्व	-5766
नाक	-5767
▁बढा	-5768
कर्षण	-5769
▁2005	-5770
पूर्ति	-5771
▁चीजें	-5772
▁प्यार	-5773
▁गै	-5774
▁बेल	-5775
ident	-5776
▁परसतिश	-5777
पल	-5778
▁गर	-5779
स्तानी	-5780
गों	-5781
्वान	-5782
▁हिमालय	-5783
▁इस्लामी	-5784
▁पदार्थों	-5785
वती	-5786
▁छू	-5787
▁कॉलेज	-5788
त्ती	-5789
▁यहूदी	-5790
▁पिछली	-5791
▁विद्यार्थी	-5792
ूली	-5793
▁आल	-5794
स्थल	-5795
▁अभिन	-5796
▁खतर	-5797
▁हाथी	-5798
▁समुचित	-5799
▁उपलब्धि	-5800
19	-5801
ल्‍	-5802
▁अगली	-5803
▁तंत्रिका	-5804
सूर	-5805
▁‘‘	-5806
ब्रे	-5807
▁ज़ोर	-5808
▁लेगा	-5809
▁आबादी	-5810
▁साध	-5811
▁नोड	-5812
ofindia	-5813
▁पहुंचे	-5814
▁संचालित	-5815
▁प्रवृत्त	-5816
▁सब्	-5817
▁ताला	-5818
▁for	-5819
▁इजा	-5820
▁गहराई	-5821
ख्तेयार	-5822
डकर	-5823
▁फोटो	-5824
president	-5825
र्ज़	-5826
▁उभर	-5827
▁देशी	-5828
▁मस्जिद	-5829
▁प्रोटोक	-5830
्द	-5831
धीरे	-5832
▁पैसे	-5833
ङ्	-5834
release	-5835
ंभव	-5836
वित	-5837
▁पीने	-5838
▁छुटकारा	-5839
▁शिक्षकों	-5840
▁खिल	-5841
ग्रहण	-5842
▁पेशे	-5843
▁रिजर्व	-5844
▁स्टेशन	-5845
▁रिकार्ड	-5846
▁सम्पर्क	-5847
▁गिरफ्तार	-5848
presidentofindia	-5849
ुम्ब	-5850
▁जुड़ी	-5851
ch	-5852
▁स्वीकृत	-5853
दिरा	-5854
▁अमल	-5855
▁घूम	-5856
▁समाह	-5857
▁सरपर	-5858
दराबाद	-5859
detail	-5860
▁आनु	-5861
▁पोषण	-5862
▁सवार	-5863
▁कराना	-5864
▁सामान्यतः	-5865
▁चन्द	-5866
▁मनोर	-5867
क्ताओं	-5868
▁रवीन्द्रनाथ	-5869
▁सफलतापूर्वक	-5870
मों	-5871
▁पच	-5872
▁मिथ	-5873
▁आसमानों	-5874
▁ब्रिटेन	-5875
▁आमंत्रित	-5876
▁हॉ	-5877
▁इनसे	-5878
▁जीवा	-5879
▁कोलकाता	-5880
▁उद्देश्यों	-5881
न्य	-5882
डिंग	-5883
दस्त	-5884
कीर्ण	-5885
ग़रज़	-5886
▁गर्व	-5887
▁गोया	-5888
▁रहमान	-5889
",	-5890
लभ	-5891
▁UR	-5892
▁रुचि	-5893
ंसिल	-5894
कांक्षा	-5895
▁प्रसंग	-5896
ex	-5897
▁कथन	-5898
▁जनरल	-5899
▁टर्म	-5900
▁पूछो	-5901
▁विष्णु	-5902
िन्त	-5903
▁इसपर	-5904
▁योग्यता	-5905
▁गौरव	-5906
▁ग्राफ	-5907
▁अर्ज़	-5908
▁आज़मा	-5909
▁कर्ता	-5910
▁प्रकाशना	-5911
ंशिक	-5912
▁रानी	-5913
ूष	-5914
प्न	-5915
क्सा	-5916
▁सहन	-5917
▁दिलच	-5918
▁प्रास	-5919
▁संस्थापित	-5920
▁छत	-5921
▁स्मरण	-5922
▁स्थाना	-5923
▁प्राधिकार	-5924
्मी	-5925
▁नै	-5926
ड़ना	-5927
▁आपसे	-5928
▁त्रि	-5929
क़ुरान	-5930
प्ट	-5931
शंकर	-5932
▁जीन	-5933
▁डिजिटल	-5934
खन	-5935
▁अन्तिम	-5936
▁निकलने	-5937
▁“%	-5938
▁माध्य	-5939
▁मशीनरी	-5940
▁पहुंचने	-5941
am	-5942
▁गर्भ	-5943
▁वैसा	-5944
▁उत्तरदायी	-5945
IN	-5946
ार्इ	-5947
▁किलोमीटर	-5948
▁सिद्धांतों	-5949
शनी	-5950
▁इलाज	-5951
▁आरंभिक	-5952
▁क्षण	-5953
▁घुमा	-5954
राष्ट्र	-5955
▁बांग्ला	-5956
▁इलेक्ट्रॉनिक	-5957
AR	-5958
▁नान	-5959
▁दिमा	-5960
बै	-5961
▁आचरण	-5962
▁रसायन	-5963
▁पड	-5964
▁ज़कात	-5965
▁जानकर	-5966
▁ट्रैक	-5967
▁पार्क	-5968
पादित	-5969
▁पहाड़ी	-5970
▁स्वभाव	-5971
▁संशोधित	-5972
▁प्रयोगशाला	-5973
/-	-5974
▁पंख	-5975
▁चट्ट	-5976
▁मानी	-5977
▁पंडित	-5978
▁जातियों	-5979
शित	-5980
▁इम	-5981
▁पोत	-5982
▁बचत	-5983
▁वाक़िफ़	-5984
▁कमरे	-5985
▁डराने	-5986
तोष	-5987
▁(4)	-5988
ao	-5989
अब	-5990
बूती	-5991
▁पांड	-5992
▁बाहम	-5993
▁वारिस	-5994
▁अनुसूची	-5995
▁नक	-5996
ज़ाम	-5997
▁अनुपालन	-5998
▁मित्रों	-5999
तरे	-6000
नें	-6001
▁अलब	-6002
▁परो	-6003
▁ईमानवाले	-6004
गारी	-6005
▁आउटपुट	-6006
▁तापमान	-6007
▁तह	-6008
▁खनि	-6009
▁मासिक	-6010
▁एयर	-6011
ंजा	-6012
पट्टी	-6013
▁दरिया	-6014
▁पुरुषों	-6015
खु	-6016
▁पौधे	-6017
▁संवे	-6018
▁हैदराबाद	-6019
दृश्य	-6020
▁बढ़ते	-6021
▁सम्रा	-6022
डन	-6023
लै	-6024
याद	-6025
▁जहाज	-6026
▁निवार	-6027
▁भर्ती	-6028
▁मददगार	-6029
खाव	-6030
▁झुक	-6031
▁अत्याचार	-6032
▁पिला	-6033
▁बुलाया	-6034
▁इंजीनिय	-6035
▁आश्व	-6036
▁फ्लै	-6037
▁मातृ	-6038
▁वर्णित	-6039
ज़ि	-6040
समें	-6041
▁जीत	-6042
ख़बरी	-6043
▁अत्याचारी	-6044
▁परिक	-6045
▁पोजी	-6046
▁देगी	-6047
▁सोने	-6048
▁लड़की	-6049
▁इसीलिए	-6050
▁एकीकृत	-6051
▁सरपरस्त	-6052
▁अख	-6053
ख़ेरत	-6054
▁गहरे	-6055
▁बचाने	-6056
▁रूपों	-6057
्लैंड	-6058
▁संतु	-6059
▁इनपुट	-6060
▁पंचाय	-6061
▁लोकता	-6062
▁वापसी	-6063
▁तमिलनाडु	-6064
बूझ	-6065
▁बहा	-6066
ब्लिक	-6067
▁फज़ल	-6068
▁सकेगी	-6069
बूर	-6070
▁काश	-6071
▁नती	-6072
▁वास	-6073
न्हीं	-6074
▁मंडल	-6075
▁मानवता	-6076
▁न्यायिक	-6077
है	-6078
चिक	-6079
▁१८	-6080
क्की	-6081
पानी	-6082
▁विनाश	-6083
▁शिल्प	-6084
▁फ्रांस	-6085
▁महाराजा	-6086
▁उपे	-6087
▁श्व	-6088
▁समाहित	-6089
लित	-6090
राशि	-6091
▁चमक	-6092
्रोतों	-6093
▁क़रीब	-6094
▁सिंचाई	-6095
हु	-6096
याल	-6097
रीन	-6098
ोजक	-6099
ोनें	-6100
बोर्ड	-6101
▁काले	-6102
▁कार्ब	-6103
▁लिखें	-6104
▁तुर्की	-6105
▁दूरस्थ	-6106
▁हिंदुस्तान	-6107
▁उच्चतर	-6108
▁तैयारी	-6109
-#-#-#-#	-6110
▁सम्मानित	-6111
ub	-6112
ौरन	-6113
▁बहाद	-6114
▁मुख़	-6115
टाई	-6116
ानत	-6117
ंतिक	-6118
▁आमाल	-6119
▁परिवेश	-6120
▁#-#-#-#-#	-6121
▁प्रोजेक्ट	-6122
अच्छ	-6123
▁2015	-6124
▁आबंट	-6125
▁जापान	-6126
सूची	-6127
▁जायेंगे	-6128
ंबित	-6129
▁दाम	-6130
▁ज़रिए	-6131
व्यवहार	-6132
▁व्युत्	-6133
▁शैक्षणिक	-6134
▁समितियों	-6135
▁१५	-6136
▁फिट	-6137
▁फीस	-6138
▁अकार	-6139
▁अनाज	-6140
▁पोस्ट	-6141
ia	-6142
▁पट	-6143
▁बहस	-6144
▁सिंध	-6145
▁इन्सान	-6146
▁परिभाषा	-6147
▁साक्ष्य	-6148
▁re	-6149
▁फ्रे	-6150
पंथी	-6151
बाजी	-6152
▁सकी	-6153
संरचना	-6154
▁अकेला	-6155
▁सावधानी	-6156
संघ	-6157
पोषण	-6158
श्रे	-6159
▁अग्नि	-6160
▁जादूगर	-6161
▁नवा	-6162
▁सम्बंध	-6163
गरी	-6164
▁झि	-6165
निर्भर	-6166
▁डालें	-6167
▁मानता	-6168
▁धम	-6169
▁अवय	-6170
▁मौलिक	-6171
शोथ	-6172
▁उन्म	-6173
▁रखकर	-6174
▁संदेय	-6175
▁अमरीकी	-6176
विचार	-6177
▁महाभारत	-6178
▁बीस	-6179
▁इच्छ	-6180
कलापों	-6181
▁कुफ्र	-6182
▁वैज्ञानिकों	-6183
सलों	-6184
सेना	-6185
▁com	-6186
▁कोष	-6187
▁खून	-6188
▁सहारा	-6189
▁नवम्बर	-6190
▁अभिदाता	-6191
क्‍	-6192
▁नस्ल	-6193
▁तरीकों	-6194
▁पोजीशन	-6195
जिन	-6196
▁जू	-6197
▁चाँ	-6198
▁गाँव	-6199
▁वरीय	-6200
▁लंबाई	-6201
▁व्यस्त	-6202
▁शानदार	-6203
स्ट्रेलिया	-6204
▁दीक्षा	-6205
▁निकालने	-6206
फाई	-6207
▁परत	-6208
.2014	-6209
▁उपास	-6210
▁कीजिए	-6211
▁हस्तक्षेप	-6212
ng	-6213
ंतरित	-6214
▁सैन्य	-6215
▁झुका	-6216
▁संतोष	-6217
▁विद्रोह	-6218
▁सतत	-6219
च्छिक	-6220
▁श्वे	-6221
तुम्हारे	-6222
निस	-6223
लास	-6224
▁चिन्ह	-6225
▁दरबार	-6226
▁हटाएँ	-6227
▁पुकारा	-6228
दाताओं	-6229
▁इंजीनियर	-6230
▁अट	-6231
र्दू	-6232
▁उठे	-6233
▁दलील	-6234
▁पदों	-6235
▁ढूंढें	-6236
▁प्रसंस्करण	-6237
▁प्रक्रियाओं	-6238
ंधन	-6239
ज़ख़	-6240
ेंडर	-6241
▁पान	-6242
▁पाप	-6243
देशों	-6244
▁कायम	-6245
▁गुजर	-6246
▁लाएँ	-6247
विमर्श	-6248
▁बोलते	-6249
क्कर	-6250
देशक	-6251
लयों	-6252
▁फार	-6253
▁औरतें	-6254
▁पथभ्र	-6255
▁मुद्दे	-6256
हारिक	-6257
▁उतनी	-6258
▁रामा	-6259
▁शर्त	-6260
▁विक्रय	-6261
▁गाँ	-6262
▁कॉपी	-6263
▁तकलीफ	-6264
▁अवधारणा	-6265
▁सकारात्मक	-6266
वस्तु	-6267
▁प्रतिकूल	-6268
प्रद	-6269
▁तिल	-6270
▁दाहिने	-6271
▁प्रतिफल	-6272
▁एल्	-6273
▁2012	-6274
▁बंदर	-6275
▁संतुलन	-6276
▁व्यवस्थित	-6277
▁कमज़ोर	-6278
▁वनस्पति	-6279
▁निष्ठा	-6280
्यक	-6281
▁खात	-6282
▁अंकित	-6283
▁उल्लिखित	-6284
▁190	-6285
▁वसू	-6286
द्दीन	-6287
▁2001	-6288
▁कोशिकाओं	-6289
▁समुदायों	-6290
चन्द	-6291
स्‍त	-6292
पत्ति	-6293
▁एजेंस	-6294
▁टर्मिन	-6295
▁प्रसाद	-6296
ंदगी	-6297
▁जाह	-6298
▁सरी	-6299
▁दर्जे	-6300
▁प्रतिदिन	-6301
▁क्रियान्व	-6302
▁आकलन	-6303
रखाव	-6304
▁भंग	-6305
▁सच्ची	-6306
तापूर्वक	-6307
पीएस	-6308
▁कारक	-6309
▁दुर्भाग्य	-6310
▁विश्वसनीय	-6311
केल	-6312
▁डालते	-6313
▁वस्तुत	-6314
खों	-6315
▁पाता	-6316
▁याची	-6317
▁दर्शाता	-6318
ट्स	-6319
▁स्वप्न	-6320
सम्बर	-6321
▁परिचित	-6322
्रेडिट	-6323
देशी	-6324
▁अभिगम	-6325
▁प्रको	-6326
▁प्रांत	-6327
ग्न	-6328
षद्	-6329
ैंक	-6330
उसके	-6331
कलाप	-6332
क्राम	-6333
▁2019	-6334
▁नामः	-6335
▁हलाल	-6336
▁मंजूरी	-6337
▁क्लि	-6338
▁आँखों	-6339
ay	-6340
ंसी	-6341
▁अफग	-6342
▁झों	-6343
▁मिश्रण	-6344
▁ग्राहकों	-6345
तन्य	-6346
वीडी	-6347
▁आखिर	-6348
▁क्रमा	-6349
स्टी	-6350
▁आँक	-6351
▁बडी	-6352
▁2008	-6353
▁यानी	-6354
▁रखती	-6355
▁स्तरों	-6356
▁जमी	-6357
▁शोर	-6358
▁हमला	-6359
▁कामया	-6360
▁विभेद	-6361
▁निकाले	-6362
▁अलबत्ता	-6363
▁गांधीजी	-6364
टेल	-6365
▁यथार्थ	-6366
▁हमे	-6367
▁विनय	-6368
▁मक्का	-6369
▁पीड़ित	-6370
बारी	-6371
वाहित	-6372
▁राजक	-6373
▁स्टेट	-6374
▁प्रश्नों	-6375
गोलिक	-6376
▁गुणा	-6377
▁लानत	-6378
▁आह्वान	-6379
ov	-6380
मुच	-6381
▁नाइ	-6382
▁हाज़िर	-6383
-3	-6384
▁कर्ण	-6385
▁पाकी	-6386
बों	-6387
▁औजार	-6388
▁सीखने	-6389
▁क्रमशः	-6390
ld	-6391
कन	-6392
फेसर	-6393
धारित	-6394
▁जुड़	-6395
▁गुणों	-6396
▁संभाल	-6397
▁बेट	-6398
▁खतरे	-6399
▁कलाकार	-6400
▁विभागों	-6401
▁व्यापारी	-6402
▁सम्पत्ति	-6403
13	-6404
ण्ट	-6405
▁पढ	-6406
▁मान्य	-6407
▁बोला	-6408
▁श्रीमती	-6409
िद	-6410
▁पोल	-6411
▁जितने	-6412
▁गतिविधि	-6413
चु	-6414
सिंह	-6415
▁कहां	-6416
▁मधुम	-6417
▁क़ाबू	-6418
▁आदमियों	-6419
भौ	-6420
ूकता	-6421
▁भूत	-6422
▁बिता	-6423
पैग़म्बर	-6424
▁रिकॉर्ड	-6425
णिक	-6426
पाई	-6427
▁रोगों	-6428
▁डिग्री	-6429
दादा	-6430
▁घनिष्ठ	-6431
▁विवरणी	-6432
मुझे	-6433
▁अहं	-6434
▁असली	-6435
▁गुरू	-6436
▁राहे	-6437
▁स्वि	-6438
▁लगाते	-6439
▁अमरीका	-6440
▁एजेंसी	-6441
▁संभवतः	-6442
▁पुस्तकें	-6443
▁जर्मनी	-6444
▁अनुमोदित	-6445
▁प्रासंगिक	-6446
डीई	-6447
▁अक्ट	-6448
▁सूचित	-6449
▁प्रतिलि	-6450
tr	-6451
कर्म	-6452
स्परिक	-6453
▁लेखकों	-6454
▁क्रेडिट	-6455
▁प्रभार्य	-6456
▁न्यायालयों	-6457
▁डूब	-6458
▁नरे	-6459
र्वेद	-6460
▁कैसी	-6461
▁हार्ड	-6462
षे	-6463
ind	-6464
▁सिद्धान्त	-6465
▁गंत	-6466
▁उग्र	-6467
▁जंगल	-6468
▁चलाया	-6469
▁प्रजनन	-6470
ार्थियों	-6471
छो	-6472
उनकी	-6473
▁औषध	-6474
▁गुज़	-6475
▁तीर्थ	-6476
▁संपन्न	-6477
▁पुकारते	-6478
▁फौ	-6479
र्जन	-6480
▁सिं	-6481
▁चैतन्य	-6482
▁सम्बन्धित	-6483
लांग	-6484
▁115	-6485
▁माय	-6486
▁लार	-6487
▁मुताब	-6488
▁उपायों	-6489
▁क़ादिर	-6490
▁किन्हीं	-6491
▁कट्ट	-6492
▁चावल	-6493
▁साहब	-6494
▁मिस्र	-6495
▁घुट	-6496
▁नवी	-6497
▁निधन	-6498
▁संपदा	-6499
▁प्रशांत	-6500
▁भौगोलिक	-6501
▁विद्वानों	-6502
▁करम	-6503
लियों	-6504
ल्य	-6505
▁धा	-6506
▁पक्षी	-6507
▁ग्रस्त	-6508
▁अंग्रेज	-6509
th	-6510
AME	-6511
ल्लम	-6512
वेशन	-6513
▁अमान	-6514
▁तात्	-6515
▁शांत	-6516
ब्रेरी	-6517
▁जवाहरलाल	-6518
तब	-6519
ाफ	-6520
▁नास	-6521
पोर्ट	-6522
▁राजभाषा	-6523
▁ईरान	-6524
▁कृति	-6525
▁शराब	-6526
▁सर्वि	-6527
विष्ट	-6528
▁एकदम	-6529
▁ज़बर	-6530
▁तसबीह	-6531
▁प्रशास	-6532
ीदा	-6533
नहीं	-6534
ायें	-6535
कियों	-6536
▁आश्र	-6537
um	-6538
कना	-6539
▁खज	-6540
काया	-6541
भक्त	-6542
▁उतारी	-6543
▁आरक्षित	-6544
मौ	-6545
वाँ	-6546
विन	-6547
▁दार्	-6548
▁अर्पित	-6549
▁लोकतांत्रिक	-6550
▁or	-6551
▁कस	-6552
▁तम	-6553
न्तर	-6554
▁डिब	-6555
▁कृपा	-6556
▁भरें	-6557
▁रिज़	-6558
▁उर्दू	-6559
▁लिखते	-6560
▁वरीयता	-6561
▁प्रोफेसर	-6562
▁टाल	-6563
▁आंशिक	-6564
▁सचमुच	-6565
▁हजारों	-6566
▁प्रतिमा	-6567
▁प्रस्तावित	-6568
▁रॉ	-6569
▁तत्त्व	-6570
▁भगवान्	-6571
जीवी	-6572
▁ज्यो	-6573
▁मज़बूत	-6574
काएँ	-6575
केंड	-6576
▁टेक्	-6577
▁दुःख	-6578
▁दुकान	-6579
▁वर्मा	-6580
▁संलग्नक	-6581
▁फलस्वरूप	-6582
आरए	-6583
व्यों	-6584
▁डाली	-6585
▁प्राप	-6586
▁वसूली	-6587
▁अक्टूबर	-6588
▁संगणना	-6589
▁जॉ	-6590
▁पूज	-6591
▁बरस	-6592
▁टाइप	-6593
▁गर्मी	-6594
ोक्ताओं	-6595
▁कम्प्यूटर	-6596
ष्कार	-6597
▁उठाना	-6598
▁लिखना	-6599
दायित्व	-6600
हारी	-6601
▁con	-6602
▁मक़	-6603
▁जाया	-6604
▁अभ्यास	-6605
▁शेयरों	-6606
▁पथभ्रष्ट	-6607
एमई	-6608
लेखन	-6609
▁ज्व	-6610
▁अद्व	-6611
▁नदियों	-6612
▁सेक्टर	-6613
▁अधिकारिता	-6614
▁करेंः	-6615
▁ष	-6616
गुण	-6617
बिल	-6618
▁आपसी	-6619
▁दीजिए	-6620
▁अपराधी	-6621
ेड	-6622
▁खबर	-6623
▁किले	-6624
▁प्लस	-6625
▁आंकड़ा	-6626
▁पुराना	-6627
▁पारस्परिक	-6628
उसकी	-6629
▁अहि	-6630
▁जैन	-6631
▁झूठे	-6632
▁मोटर	-6633
▁सेंट	-6634
▁दशकों	-6635
▁आधारभूत	-6636
▁इकाइयों	-6637
▁वास्तविकता	-6638
ेस	-6639
नेह	-6640
▁मेह	-6641
▁जागरूकता	-6642
शोधन	-6643
▁पड़ो	-6644
▁शासक	-6645
▁दुश्मन	-6646
▁तृ	-6647
▁अमर	-6648
▁2002	-6649
▁अर्ज	-6650
▁अर्जन	-6651
▁निगाह	-6652
▁विवेक	-6653
▁अतीत	-6654
▁चलती	-6655
▁फायदे	-6656
▁लड़का	-6657
▁रामायण	-6658
▁हिमाचल	-6659
चेंज	-6660
्‍या	-6661
▁उपज	-6662
▁वेद	-6663
▁वैदिक	-6664
▁देशवासियों	-6665
ter	-6666
ener	-6667
▁भांति	-6668
▁वैकल्प	-6669
ानिस्तान	-6670
समा	-6671
सास	-6672
इयां	-6673
▁पनाह	-6674
▁होगे	-6675
▁बेटों	-6676
▁दिसम्बर	-6677
▁पूर्ववर्ती	-6678
पद	-6679
▁आपदा	-6680
▁लिपि	-6681
▁उत्पादक	-6682
हक़	-6683
्रीम	-6684
▁घेर	-6685
▁बनना	-6686
▁भक्त	-6687
▁फोल्डर	-6688
▁दिखायें	-6689
-200	-6690
क्तियों	-6691
▁सहयोगी	-6692
▁पसंदीदा	-6693
▁व्यावहारिक	-6694
ख्वाह	-6695
▁अखिल	-6696
▁तीनों	-6697
▁दूँगा	-6698
▁होगें	-6699
▁प्रोटोकॉल	-6700
बाई	-6701
▁90	-6702
▁गईं	-6703
ालयों	-6704
▁ग्रे	-6705
▁विजे	-6706
▁हलाक	-6707
▁संगठित	-6708
▁सम्राट	-6709
▁वैकल्पिक	-6710
▁अलं	-6711
▁आशय	-6712
▁रहम	-6713
▁उत्तेज	-6714
▁विज्ञप्ति	-6715
▁लिप	-6716
▁सिक	-6717
▁कहें	-6718
10	-6719
▁अरु	-6720
▁डालने	-6721
▁अधिसूचित	-6722
▁आतंकवादी	-6723
▁प्रतिष्ठा	-6724
▁प्रयोक्ता	-6725
साइटी	-6726
्रेता	-6727
▁फसलों	-6728
गीय	-6729
साई	-6730
▁तद	-6731
▁नज	-6732
भूषण	-6733
लामी	-6734
▁आएँ	-6735
ब्ल्यू	-6736
▁साधनों	-6737
▁योजनाएं	-6738
▁उपलब्धता	-6739
पेश	-6740
▁आधा	-6741
▁समू	-6742
▁सिरे	-6743
▁उन्होनें	-6744
eat	-6745
▁अजी	-6746
▁झील	-6747
▁पृथक	-6748
▁इंत	-6749
▁ख़ा	-6750
ड़ीसा	-6751
▁अंग्रेजों	-6752
वही	-6753
▁मण	-6754
भाषण	-6755
▁आएगी	-6756
▁प्लेट	-6757
▁कार्यरत	-6758
ेंड	-6759
जनों	-6760
▁चढ़ा	-6761
▁अंततः	-6762
▁हटाने	-6763
od	-6764
्टा	-6765
▁सकल	-6766
▁गद्य	-6767
▁अपनाने	-6768
▁सत्यापित	-6769
/2	-6770
▁पैसा	-6771
▁बनता	-6772
▁चुकता	-6773
▁गारंटी	-6774
बाही	-6775
ुमान	-6776
▁एहसान	-6777
▁गढ़	-6778
▁सड़	-6779
नीतिक	-6780
बरदार	-6781
▁चीज़ें	-6782
▁प्रतिबि	-6783
▁शास्त्र	-6784
०००	-6785
▁असल	-6786
▁प्रॉ	-6787
▁वन्य	-6788
▁समूद	-6789
▁गंतव्य	-6790
▁दक्षता	-6791
▁देखोगे	-6792
▁यहीं	-6793
▁जीवों	-6794
▁2020	-6795
▁बताता	-6796
▁भरपूर	-6797
▁माइक्रो	-6798
▁प्रमाणित	-6799
▁प्रावधानों	-6800
वत्	-6801
▁सूच	-6802
▁मारा	-6803
▁सोसाइटी	-6804
ंक्शन	-6805
▁भरने	-6806
▁साक्षी	-6807
RAN	-6808
▁तेरा	-6809
▁तीसरा	-6810
▁पहलुओं	-6811
▁कार्यालयों	-6812
▁75	-6813
क्तिक	-6814
▁संधि	-6815
▁हथियार	-6816
ंबे	-6817
▁हकदार	-6818
▁व्यष्टि	-6819
▁क्रांतिक	-6820
आत	-6821
▁मुल्क	-6822
▁सम्पन्न	-6823
▁4.	-6824
हरों	-6825
▁बडे	-6826
▁फरमाया	-6827
▁प्रभावशाली	-6828
उनके	-6829
▁इरादा	-6830
दनी	-6831
▁परिवर्तनों	-6832
----	-6833
▁क़समें	-6834
▁तथ्यों	-6835
▁दोज़ख़	-6836
▁तुझ	-6837
▁कट्टर	-6838
▁सन्देह	-6839
▁सुन्दर	-6840
▁आस्तियों	-6841
ap	-6842
ारण	-6843
बहुत	-6844
▁डिप	-6845
▁1999	-6846
▁ईंधन	-6847
चाह	-6848
र्ता	-6849
▁झूठा	-6850
▁वाहन	-6851
▁शंकर	-6852
तन्त्र	-6853
▁राष्ट्रों	-6854
जत	-6855
ण्	-6856
▁ढूँ	-6857
▁मतभेद	-6858
▁लाभों	-6859
▁बहादुर	-6860
os	-6861
थित	-6862
▁हां	-6863
त्रिम	-6864
वास्त	-6865
▁जानना	-6866
▁दार्शन	-6867
▁प्रतिदान	-6868
आउट	-6869
लाइ	-6870
▁कचरा	-6871
▁राज़ी	-6872
▁बिन्दु	-6873
▁पाकीज़ा	-6874
▁दस्तावेजों	-6875
एव	-6876
▁पेय	-6877
▁स्रोतों	-6878
राय	-6879
िरण	-6880
ोरि	-6881
▁दिमाग	-6882
▁आकांक्षा	-6883
,–	-6884
▁कारा	-6885
▁लंदन	-6886
▁कीटों	-6887
▁अधिकृत	-6888
▁स्तरीय	-6889
80	-6890
ँग	-6891
▁मोड़	-6892
▁रहित	-6893
▁बताते	-6894
▁लक्ष्यों	-6895
▁उभार	-6896
▁लेबल	-6897
▁टर्मिनल	-6898
age	-6899
दूत	-6900
▁बेर	-6901
▁भूख	-6902
▁मेहन	-6903
▁श्वेत	-6904
▁ठहराया	-6905
▁पेट्रोल	-6906
¥	-6907
his	-6908
र्फ़	-6909
▁गिनती	-6910
ुद्ध	-6911
▁बचने	-6912
▁भाग्य	-6913
विश्वास	-6914
▁अंशदान	-6915
▁मुहम्मद	-6916
▁ब्राह्मण	-6917
▁शीर्षिका	-6918
▁36	-6919
▁आईडी	-6920
▁कमाई	-6921
▁गणित	-6922
▁पचास	-6923
▁उन्हे	-6924
▁रोकते	-6925
संख	-6926
पसंद	-6927
सूत्र	-6928
▁ख़ौफ	-6929
वृद्धि	-6930
▁कृतज्ञता	-6931
▁नकारात्मक	-6932
▁व्यापारिक	-6933
परा	-6934
▁भव	-6935
▁घास	-6936
▁वाम	-6937
जहन्न	-6938
▁बालों	-6939
▁प्रतिबद्धता	-6940
▁बट	-6941
▁आयकर	-6942
▁भुला	-6943
eather	-6944
▁लाखों	-6945
▁साझेदारी	-6946
¤	-6947
टिक	-6948
▁दम	-6949
▁नकद	-6950
▁टीका	-6951
▁समापन	-6952
▁डीवीडी	-6953
▁परोक्ष	-6954
▁विडियो	-6955
▁खिलाड़ी	-6956
▁सलाहकार	-6957
▁स्वाधीन	-6958
▁अध्यक्षता	-6959
▁कार्यान्वित	-6960
hat	-6961
स्सा	-6962
▁बहन	-6963
▁भाइयों	-6964
▁फ़ाइलों	-6965
40	-6966
ंसक	-6967
▁वय	-6968
▁उलट	-6969
▁पुरूष	-6970
▁प्रबल	-6971
▁कानूनों	-6972
▁ख्वाहिश	-6973
▁विचारधारा	-6974
▁{0}	-6975
▁अपनाई	-6976
क्ल	-6977
▁घात	-6978
पुरुष	-6979
▁गीता	-6980
▁भाष्	-6981
ाधिकार	-6982
▁ज्योति	-6983
▁मंत्रि	-6984
▁रचनात्मक	-6985
इंड	-6986
कने	-6987
ियॉ	-6988
▁खर	-6989
▁पश	-6990
▁नर्म	-6991
▁पीछा	-6992
▁राज़	-6993
▁होटल	-6994
निर्माण	-6995
▁बलि	-6996
संचार	-6997
▁केंद्रों	-6998
▁उत्तरदायित्व	-6999
8)	-7000
कंप	-7001
लीन	-7002
▁फुट	-7003
▁वसी	-7004
▁सारांश	-7005
59	-7006
li	-7007
▁मेघ	-7008
▁पाना	-7009
▁वस्तुएं	-7010
क़े	-7011
भोग	-7012
मरा	-7013
ानिर्	-7014
▁वांछ	-7015
▁सीता	-7016
▁चेन्न	-7017
▁पिछला	-7018
▁अनुक्रम	-7019
पर्य	-7020
▁पडे	-7021
▁अपार	-7022
▁चोरी	-7023
▁टिकट	-7024
▁अस्थि	-7025
▁ट्यूब	-7026
▁नमूना	-7027
▁समझना	-7028
▁किराये	-7029
ॉग	-7030
▁कोर्ट	-7031
▁संक्रिया	-7032
-9	-7033
बीन	-7034
ेंच	-7035
▁घाट	-7036
▁करूँ	-7037
▁श्रो	-7038
जीविका	-7039
▁पड़ने	-7040
▁उड़ीसा	-7041
लोक	-7042
▁टि	-7043
ापरी	-7044
▁ईंट	-7045
▁बाक़ी	-7046
▁महानि	-7047
▁आकर्षण	-7048
▁प्रवासी	-7049
▁आदर	-7050
▁१९९	-7051
▁पड़ते	-7052
▁आख़ेरत	-7053
▁मानकों	-7054
▁प्रसारण	-7055
▁सौभाग्य	-7056
▁७	-7057
▁जता	-7058
▁बचे	-7059
▁सूरज	-7060
▁इंग्लैंड	-7061
▁पन	-7062
ब्बा	-7063
▁नाह	-7064
▁मरियम	-7065
▁शिक्षित	-7066
▁जाग	-7067
▁जिलों	-7068
▁मजबूर	-7069
▁लोकसभा	-7070
किस	-7071
आईटी	-7072
▁दिश	-7073
▁यहूद	-7074
▁वृत्ति	-7075
▁अभिभाषण	-7076
▁स्वच्छता	-7077
▁प्रतिवादी	-7078
▁स्थितियों	-7079
▁निकाह	-7080
▁कुशलता	-7081
▁लाइब्रेरी	-7082
▁फो	-7083
▁बहि	-7084
तायात	-7085
▁ब्रे	-7086
▁मौका	-7087
▁तबाही	-7088
▁पढ़ते	-7089
2)	-7090
ew	-7091
▁HT	-7092
▁बर्फ	-7093
कारिता	-7094
▁भावनाओं	-7095
डू	-7096
भाई	-7097
ेरा	-7098
पीसी	-7099
ल्ले	-7100
▁मचा	-7101
▁मला	-7102
▁मनपसंद	-7103
▁कृत्रिम	-7104
▁जुल	-7105
▁इष्ट	-7106
▁क़रार	-7107
▁लगाकर	-7108
▁सुधारों	-7109
▁देनेवाला	-7110
▁बिन	-7111
▁सोल	-7112
▁भड़क	-7113
▁देवताओं	-7114
▁भागीदार	-7115
25	-7116
ef	-7117
शुल्क	-7118
▁खनिज	-7119
▁अगरचे	-7120
षी	-7121
िकीय	-7122
▁चाहो	-7123
▁अकादमी	-7124
▁ऑफ़लाइन	-7125
ुलिप	-7126
▁अटल	-7127
▁आवरण	-7128
▁आवेद	-7129
▁डरता	-7130
▁शल्य	-7131
▁आस्था	-7132
ul	-7133
मुना	-7134
्राव	-7135
▁ढेर	-7136
▁तदन	-7137
▁तस्	-7138
▁पुल	-7139
▁सौंद	-7140
▁दुर्लभ	-7141
▁परेशान	-7142
▁बेहिश्त	-7143
▁सैनिकों	-7144
ML	-7145
तिल	-7146
तेह	-7147
ूनी	-7148
▁ढल	-7149
हवीं	-7150
▁189	-7151
▁एहद	-7152
▁पेर	-7153
▁हाइ	-7154
▁आईटी	-7155
▁मेमो	-7156
▁निचले	-7157
▁मिलना	-7158
▁छुट्टी	-7159
▁सच्चाई	-7160
▁जरूरतों	-7161
▁यातायात	-7162
मस	-7163
हद	-7164
ज़न	-7165
संबंध	-7166
स्फोट	-7167
▁भव्य	-7168
▁स्मारक	-7169
▁प्राधिकृत	-7170
ैली	-7171
▁१०	-7172
म्पा	-7173
▁कैंसर	-7174
▁नारायण	-7175
▁Comment	-7176
▁अपेक्षाकृत	-7177
भास	-7178
▁कुट	-7179
▁खाल	-7180
▁अंडे	-7181
▁समेक	-7182
▁पार्ट	-7183
सद	-7184
काना	-7185
▁स्तन	-7186
व्यापी	-7187
▁संचित	-7188
▁पहुँची	-7189
▁देखेंगे	-7190
▁परिश्रम	-7191
▁दीक्षांत	-7192
▁लम्बी	-7193
पय	-7194
चाप	-7195
▁आवि	-7196
▁इजाज़त	-7197
▁टेलीफोन	-7198
▁स्कूलों	-7199
▁एजेंसियों	-7200
▁पाये	-7201
▁बहुमत	-7202
▁मतदान	-7203
▁नज़दीक	-7204
▁पंजाबी	-7205
▁मानदंड	-7206
किम	-7207
ध्व	-7208
्यूम	-7209
▁दूँ	-7210
▁हैस	-7211
द्रास	-7212
▁हाउस	-7213
▁फ्रेम	-7214
▁इंदिरा	-7215
▁असामान्य	-7216
प्ल	-7217
ामिन	-7218
ॉक्स	-7219
▁क्रय	-7220
▁पूछे	-7221
▁विफलः	-7222
▁प्लगिन	-7223
▁हिस्सों	-7224
▁करनेवाली	-7225
▁आत्मनिर्भर	-7226
bo	-7227
णे	-7228
समझ	-7229
अपना	-7230
▁रेड	-7231
▁तनाव	-7232
▁पुनरा	-7233
▁शाखाओं	-7234
▁उद्यमों	-7235
▁मोहम्मद	-7236
▁फट	-7237
▁सना	-7238
.2015	-7239
▁एमएस	-7240
▁ड्राइव	-7241
▁पेशेवर	-7242
▁प्रवर्तन	-7243
ईं	-7244
ृंग	-7245
▁पूर्णतः	-7246
▁विदेशों	-7247
▁प्रणालियों	-7248
6)	-7249
बस	-7250
▁रन	-7251
▁हज	-7252
खुदा	-7253
ताअत	-7254
▁असी	-7255
▁हँसी	-7256
▁उत्सव	-7257
▁सारणी	-7258
▁कार्बन	-7259
▁मरम्मत	-7260
▁मुकदमा	-7261
▁o	-7262
पीआई	-7263
स्तीन	-7264
हमारी	-7265
▁हुये	-7266
▁गर्भा	-7267
▁बताने	-7268
▁निवारण	-7269
▁प्राणी	-7270
▁समर्पण	-7271
▁चाहूंगा	-7272
▁संकल्पना	-7273
un	-7274
िफ	-7275
ारक	-7276
▁कंध	-7277
शिक्ष	-7278
▁नामा	-7279
▁दिखाए	-7280
श्रेष्ठ	-7281
▁वितरित	-7282
▁पूर्णता	-7283
श्‍	-7284
▁नाक	-7285
▁हरा	-7286
सूचना	-7287
▁बरकत	-7288
▁पाओगे	-7289
▁पीड़ा	-7290
▁वैष्ण	-7291
▁साझीदार	-7292
अन	-7293
▁खेत	-7294
▁नाय	-7295
▁वाइ	-7296
weather	-7297
▁ज़िक्र	-7298
▁परंपरागत	-7299
▁घन	-7300
निया	-7301
▁रिट	-7302
▁ऊँचाई	-7303
▁इन्हीं	-7304
▁उत्कृष्टता	-7305
▁कुम	-7306
▁बनाओ	-7307
▁संतुष्ट	-7308
▁बम	-7309
डीएफ	-7310
▁चलना	-7311
▁इमारत	-7312
▁गवर्नर	-7313
▁हड़	-7314
▁घटित	-7315
▁आंकड़े	-7316
▁आजीविका	-7317
र्मी	-7318
वाणी	-7319
▁बिग	-7320
▁पैनल	-7321
▁केडीई	-7322
▁मानने	-7323
▁धनराशि	-7324
▁चिकित्सक	-7325
ers	-7326
त्रि	-7327
▁कड़	-7328
▁जगत	-7329
▁धोखे	-7330
▁कुबूल	-7331
▁खातों	-7332
▁तीसरी	-7333
▁शर्तें	-7334
▁व्याख्यान	-7335
१९	-7336
ग्रा	-7337
▁सहे	-7338
पोरेट	-7339
▁2003	-7340
सायनिक	-7341
▁ट्रांस	-7342
▁अनिवासी	-7343
ort	-7344
णता	-7345
मंच	-7346
▁45	-7347
टकों	-7348
▁गले	-7349
▁मंडप	-7350
▁संगत	-7351
▁पूछते	-7352
▁संदेशों	-7353
▁बादल	-7354
▁वैसी	-7355
▁क्लिप	-7356
▁पत्रों	-7357
▁प्रचालन	-7358
▁मुख्यतः	-7359
कै	-7360
सम्	-7361
ूमत	-7362
ोल्ड	-7363
▁समाम	-7364
▁अनुचित	-7365
▁अवसंरचना	-7366
▁कार्यकारी	-7367
जरत	-7368
▁0.	-7369
▁डु	-7370
▁गलती	-7371
▁ज़बान	-7372
▁मद्रास	-7373
▁साक्षा	-7374
जक	-7375
’’	-7376
र्भ	-7377
▁नौका	-7378
▁पाठक	-7379
▁मोहन	-7380
▁निक्ष	-7381
ंकी	-7382
खाना	-7383
हाबाद	-7384
▁कराता	-7385
ानुभूति	-7386
▁मुशरिक	-7387
▁अस्वीकार	-7388
खार	-7389
चन्द्र	-7390
▁उत्पादकता	-7391
▁८	-7392
▁नम	-7393
उसका	-7394
▁2011	-7395
▁अतएव	-7396
▁कराई	-7397
क़ात	-7398
▁उदय	-7399
बार्ड	-7400
कोर	-7401
ण्डल	-7402
▁ओवर	-7403
▁धान	-7404
▁सृजित	-7405
▁संयोजन	-7406
2.	-7407
ig	-7408
हान	-7409
ंगें	-7410
विंद	-7411
▁ओपन	-7412
त्रियों	-7413
▁कवियों	-7414
▁प्रदत्त	-7415
▁आयुर्वेद	-7416
▁व्युत्पन्न	-7417
▁अड्ड	-7418
▁इस्प	-7419
ताप	-7420
फ़त	-7421
ऊँगा	-7422
▁धूम	-7423
योग्य	-7424
र्कों	-7425
▁बगैर	-7426
▁वाणी	-7427
▁वृत्त	-7428
▁श्रेण	-7429
ंर	-7430
थन	-7431
कक्ष	-7432
पक्व	-7433
▁घुस	-7434
▁गाड़ी	-7435
▁दिखाना	-7436
▁इंजीनियरी	-7437
ताकि	-7438
▁अवल	-7439
▁जरुर	-7440
▁कालेज	-7441
▁उपेक्षा	-7442
mp	-7443
ँट	-7444
ग्स	-7445
ेयर	-7446
्रु	-7447
विदा	-7448
▁ढाँ	-7449
▁ताज	-7450
▁होस्ट	-7451
▁समकालीन	-7452
▁विकासशील	-7453
▁उपलब्धियों	-7454
सेल	-7455
जाने	-7456
▁नाश	-7457
▁पशुओं	-7458
▁मित्रता	-7459
▁OF	-7460
▁मंगल	-7461
▁आँखें	-7462
▁अज्ञान	-7463
▁कर्मों	-7464
▁ज़रूरत	-7465
▁पहुँचने	-7466
▁फूँ	-7467
▁क्यू	-7468
▁नकदी	-7469
▁माननीय	-7470
▁रिश्ते	-7471
70	-7472
ंचल	-7473
ुरु	-7474
ड़कर	-7475
▁ऊतक	-7476
▁बढ़ो	-7477
▁खोजें	-7478
▁निरूप	-7479
▁इस्पात	-7480
▁लीग	-7481
▁चौथा	-7482
▁खतरनाक	-7483
▁रखरखाव	-7484
ric	-7485
ठीक	-7486
रेत	-7487
्चर	-7488
्पण	-7489
▁फाइ	-7490
▁वैय	-7491
▁सीन	-7492
▁कंपन	-7493
▁निपटान	-7494
▁समामेल	-7495
ER	-7496
▁कव	-7497
▁माध	-7498
▁वें	-7499
▁नौकर	-7500
▁बाढ़	-7501
▁मणिप	-7502
▁हमपर	-7503
भूतियों	-7504
▁मुकाबले	-7505
▁सौंदर्य	-7506
शास	-7507
ूल्य	-7508
▁TRAN	-7509
▁गयीं	-7510
▁जुटा	-7511
▁सेंटर	-7512
▁अन्याय	-7513
▁जिन्ना	-7514
▁परिपक्व	-7515
▁प्रॉक्सी	-7516
ईमान	-7517
▁बडा	-7518
▁वजन	-7519
.2016	-7520
न्नों	-7521
▁उत्‍	-7522
▁घाटा	-7523
▁मुहा	-7524
▁स्वै	-7525
्टवेयर	-7526
▁औज़ार	-7527
▁निमित	-7528
▁संजाल	-7529
▁हैसियत	-7530
ड्	-7531
गृह	-7532
ताज	-7533
हीत	-7534
खाने	-7535
स्सी	-7536
▁कोण	-7537
▁मग़	-7538
▁मत्	-7539
▁कृत्य	-7540
▁परवाह	-7541
▁सितम्बर	-7542
ORS	-7543
▁शादी	-7544
▁टैगोर	-7545
▁सुनकर	-7546
▁इन्द्र	-7547
▁पब्लिक	-7548
▁रचनाओं	-7549
▁पहाड़ों	-7550
▁महासागर	-7551
राष्ट्रपति	-7552
लाप	-7553
वेल	-7554
▁(0	-7555
▁फूट	-7556
फ़ारिश	-7557
▁लम्बे	-7558
▁सुनाई	-7559
▁मध्यस्थ	-7560
▁परिस्थिति	-7561
▁सामान्यतया	-7562
वो	-7563
wor	-7564
SLAT	-7565
क्षे	-7566
▁188	-7567
▁इबर	-7568
▁नूर	-7569
▁शब्	-7570
▁दलों	-7571
▁डोमेन	-7572
SLATORS	-7573
▁शक्तियां	-7574
▁अंग्रेज़ी	-7575
▁TRANSLATORS	-7576
पीठ	-7577
तिपय	-7578
श्चित	-7579
ानुसार	-7580
▁वस्तुतः	-7581
▁दार्शनिक	-7582
▁स्ट्रिंग	-7583
बाप	-7584
▁अच	-7585
श्ती	-7586
▁देह	-7587
▁गोरा	-7588
▁सुनी	-7589
▁रूपये	-7590
▁इलाकों	-7591
▁रखनेवालों	-7592
▁5.	-7593
▁सोचते	-7594
▁प्रातः	-7595
▁एक्सचेंज	-7596
▁प्रशिक्षित	-7597
ke	-7598
गान	-7599
आईसी	-7600
प्रण	-7601
▁नरम	-7602
▁पते	-7603
▁दांत	-7604
▁इताअत	-7605
▁कोयला	-7606
▁बढ़ता	-7607
▁व्यर्थ	-7608
▁प्रिंटर	-7609
▁विज्ञापन	-7610
घन	-7611
ड़ो	-7612
▁चट	-7613
▁अनन्त	-7614
▁प्रतिलिपि	-7615
▁संवेदनशील	-7616
रन	-7617
▁नल	-7618
प्रथम	-7619
▁रूपरेखा	-7620
ष्म	-7621
मोहन	-7622
▁मन्द	-7623
▁माउस	-7624
▁लगने	-7625
▁संगणक	-7626
▁त्वरित	-7627
▁दिशानिर्	-7628
▁प्रतिस्पर्धा	-7629
तिज	-7630
▁नक्	-7631
▁फौरन	-7632
▁बंबई	-7633
त्यक्ष	-7634
▁हरिया	-7635
15	-7636
▁33	-7637
▁टक	-7638
▁आदत	-7639
▁नवाचार	-7640
▁सिर्फ़	-7641
रह	-7642
दाह	-7643
गोया	-7644
▁ऊंची	-7645
▁सकने	-7646
त्मकता	-7647
▁विधिक	-7648
▁कविताओं	-7649
▁विनियमन	-7650
नत	-7651
नेस	-7652
लिये	-7653
ष्‍ट	-7654
िकरण	-7655
▁मील	-7656
ज्ज़त	-7657
▁उत्पा	-7658
▁पढ़ाई	-7659
▁संदत्त	-7660
▁राजमार्ग	-7661
▁अफगानिस्तान	-7662
कहीं	-7663
▁दीं	-7664
स्टिक	-7665
▁2004	-7666
▁कुदरत	-7667
▁संकलन	-7668
▁प्रोटीन	-7669
▁रिज़र्व	-7670
▁संवेदना	-7671
ूलन	-7672
प्रा	-7673
▁बिट	-7674
▁वेश	-7675
▁कथित	-7676
▁बालक	-7677
▁हिला	-7678
दृष्टि	-7679
▁बेकार	-7680
▁अंतरित	-7681
▁कार्मिक	-7682
▁दीवारों	-7683
भुत	-7684
▁ह्र	-7685
▁गूगल	-7686
▁नुक़	-7687
स्तीनी	-7688
▁आकर्षक	-7689
▁एशियाई	-7690
▁ड़	-7691
▁मंग	-7692
क्षरता	-7693
▁छोड़े	-7694
▁मेहनत	-7695
▁शासित	-7696
TP	-7697
अगर	-7698
ौलत	-7699
▁अय	-7700
▁फू	-7701
▁चखा	-7702
▁नमक	-7703
▁नाबार्ड	-7704
तत्व	-7705
म्मा	-7706
स्से	-7707
ग़ैरह	-7708
▁किला	-7709
▁दौरा	-7710
▁बांट	-7711
प्रदायिक	-7712
▁परिकल्पना	-7713
▁२०	-7714
▁गेह	-7715
▁अपवाद	-7716
▁दिखाते	-7717
▁छोड	-7718
▁रूह	-7719
▁अवकाश	-7720
▁सौंपा	-7721
▁सर्वथा	-7722
▁कहानियों	-7723
ायल	-7724
न्हें	-7725
▁नजात	-7726
▁ग्रीन	-7727
▁खुल्लम	-7728
▁पहुंचाने	-7729
ess	-7730
पटा	-7731
कुफ्	-7732
स्कर	-7733
▁Con	-7734
▁बेस	-7735
▁मुआ	-7736
लेमान	-7737
▁आजाद	-7738
▁सवाब	-7739
▁अखबार	-7740
▁गर्दन	-7741
▁फूलों	-7742
▁क़्यों	-7743
▁शान्ति	-7744
र्थी	-7745
▁नाट्य	-7746
▁मराठी	-7747
▁शुरूआत	-7748
▁सम्बद्ध	-7749
भांश	-7750
▁प्या	-7751
▁सफाई	-7752
▁जंगली	-7753
▁रोज़े	-7754
ष्टाचार	-7755
▁मौजिज़े	-7756
▁ज्यादातर	-7757
गंध	-7758
डों	-7759
▁70	-7760
▁बश	-7761
▁धूप	-7762
▁संब	-7763
▁प्रभु	-7764
▁सहभाग	-7765
▁मेमोरी	-7766
▁रासायनिक	-7767
▁वर्गीकरण	-7768
ूरो	-7769
▁आवृ	-7770
▁मेज	-7771
▁यूआर	-7772
▁ठहराते	-7773
▁सृष्टि	-7774
ट्टा	-7775
िश्ता	-7776
▁किमी	-7777
▁वादी	-7778
▁क्रोध	-7779
▁हज़ार	-7780
▁रंगमंच	-7781
▁बांग्लादेश	-7782
फु	-7783
▁it	-7784
क्के	-7785
ालों	-7786
▁बोध	-7787
दर्शक	-7788
▁कबीर	-7789
▁मरने	-7790
▁आमदनी	-7791
▁हममें	-7792
▁करू	-7793
▁मोती	-7794
▁वरन्	-7795
▁कतिपय	-7796
बेल	-7797
▁अपर	-7798
▁डालो	-7799
▁किनारा	-7800
▁बढ़ाना	-7801
▁सर्वश्रेष्ठ	-7802
▁;	-7803
रीद	-7804
▁पठ	-7805
olor	-7806
▁विट	-7807
▁अजीब	-7808
▁ऊंचे	-7809
▁निबंध	-7810
▁पकड़े	-7811
▁मानों	-7812
▁पार्श्व	-7813
▁ब्रह्मा	-7814
▁इंजीनियरिंग	-7815
▁उज	-7816
गांठ	-7817
▁मसल	-7818
▁शेर	-7819
▁हरी	-7820
अच्छे	-7821
▁रहीं	-7822
▁निमित्त	-7823
वीर	-7824
▁एन्	-7825
▁राधा	-7826
lab	-7827
मैन	-7828
▁आधे	-7829
▁शपथ	-7830
र्दों	-7831
▁सबका	-7832
▁स्पर्श	-7833
▁स्त्रियाँ	-7834
खिक	-7835
िट्	-7836
हमने	-7837
▁कंट	-7838
▁देन	-7839
▁मैच	-7840
निहित	-7841
▁नर्स	-7842
▁निपटने	-7843
▁शास्त्रीय	-7844
ढे	-7845
रेकीन	-7846
▁इनको	-7847
▁दस्त	-7848
▁नायक	-7849
▁विधा	-7850
▁पूछता	-7851
त्तियों	-7852
▁निवेदन	-7853
▁प्रतिरोध	-7854
▁सहानुभूति	-7855
कोष	-7856
लेखा	-7857
हासन	-7858
▁कोर	-7859
▁वसा	-7860
▁सोम	-7861
वैधानिक	-7862
yp	-7863
tle	-7864
▁st	-7865
लंका	-7866
▁इंस	-7867
▁मेगा	-7868
▁भत्ता	-7869
▁मनाया	-7870
▁सार्थ	-7871
▁अन्वेष	-7872
▁रजिस्ट्री	-7873
▁क्रांतिकारी	-7874
गित	-7875
शिप	-7876
वर्ग	-7877
▁किल	-7878
▁पीछ	-7879
प्राय	-7880
▁घेरे	-7881
▁धोखा	-7882
▁नोडल	-7883
▁फलों	-7884
▁बचपन	-7885
▁बीबी	-7886
▁माहौल	-7887
▁लौटने	-7888
▁मिटाना	-7889
▁निवेशकों	-7890
22	-7891
नाइ	-7892
▁१२	-7893
ैतिज	-7894
▁बेटी	-7895
▁मौज़	-7896
▁रद्दी	-7897
▁अन्जाम	-7898
▁एकत्रित	-7899
▁गणतंत्र	-7900
▁स्वाधीनता	-7901
▁९	-7902
नाई	-7903
▁नं	-7904
टिंग	-7905
ित्य	-7906
▁तरल	-7907
▁निराश	-7908
▁ज्यादती	-7909
▁बल्लेबाज	-7910
हल	-7911
ज्जा	-7912
▁महो	-7913
▁सौदा	-7914
▁त्रिप	-7915
▁बरबाद	-7916
▁गरीबों	-7917
▁टुकड़ा	-7918
7)	-7919
II	-7920
हृ	-7921
▁घृ	-7922
▁चक	-7923
▁भूट	-7924
▁माउ	-7925
▁2010	-7926
▁आलेख	-7927
▁पाइप	-7928
स्मृति	-7929
▁खरीदने	-7930
▁चित्रण	-7931
▁निर्गम	-7932
▁बढ़ाया	-7933
▁फरिश्ते	-7934
▁परियोजनाएं	-7935
वानि	-7936
▁नोक	-7937
तिक्र	-7938
▁1956	-7939
▁शाही	-7940
▁अभिने	-7941
▁प्रतिज्ञा	-7942
दाम	-7943
दाबाद	-7944
▁पक्का	-7945
▁सर्वज्ञ	-7946
▁सिफ़ारिश	-7947
▁पेट्रोलियम	-7948
जय	-7949
चंद	-7950
nome	-7951
▁उपर्य	-7952
▁बनाती	-7953
▁बैकअप	-7954
▁बोलने	-7955
▁विस्फोट	-7956
ऊद	-7957
याम	-7958
▁उम्मत	-7959
▁वसीयत	-7960
निर्देश	-7961
▁उपग्रह	-7962
▁तत्कालीन	-7963
टीय	-7964
लिफ़	-7965
▁ड्रा	-7966
▁ख़िला	-7967
▁उन्नयन	-7968
▁हुकूमत	-7969
महा	-7970
िरा	-7971
▁तप	-7972
टीएम	-7973
▁आवं	-7974
▁दमन	-7975
युद्ध	-7976
रक्षण	-7977
▁ट्रेड	-7978
त्याशित	-7979
▁अधिवेशन	-7980
▁मिश्रित	-7981
▁रजिस्टर	-7982
▁2,	-7983
▁मरी	-7984
▁बढ़े	-7985
▁वैष्णव	-7986
▁जाएँगें	-7987
क़्	-7988
िणी	-7989
▁ra	-7990
▁इबरत	-7991
▁ख़ैर	-7992
▁मोटे	-7993
▁हर्ष	-7994
▁घोड़े	-7995
▁नाहक़	-7996
▁साकार	-7997
▁मोमिनों	-7998
▁परहेज़गारी	-7999
शिंग	-8000
स्टे	-8001
▁लाई	-8002
▁जज़ा	-8003
▁मानस	-8004
▁पुष्प	-8005
ैब	-8006
▁दंत	-8007
▁प्य	-8008
तानों	-8009
▁सुगम	-8010
▁खोजने	-8011
▁वाक्य	-8012
▁छिपाते	-8013
▁सभापति	-8014
▁आज्ञाकारी	-8015
टित	-8016
द्म	-8017
त्सव	-8018
▁सुनो	-8019
क्रामक	-8020
प्पा	-8021
▁जरा	-8022
▁त्यो	-8023
▁पर्यवे	-8024
▁प्रजाति	-8025
राइल	-8026
वकों	-8027
वाने	-8028
निर्ण	-8029
▁रहकर	-8030
▁हमले	-8031
निश्चय	-8032
▁गाँधी	-8033
▁फॉर्म	-8034
▁बॉक्स	-8035
▁बंदरगाह	-8036
▁सार्वभौ	-8037
िपी	-8038
श्यक	-8039
▁गोली	-8040
▁शरार	-8041
▁छोड़ें	-8042
▁सचिवाल	-8043
▁अनुशासन	-8044
▁इलाहाबाद	-8045
बड़ी	-8046
▁केश	-8047
▁सेक	-8048
शिल्प	-8049
▁क्यो	-8050
▁अनुभाग	-8051
▁यात्री	-8052
▁राजाओं	-8053
▁संवैधानिक	-8054
रब	-8055
कीर	-8056
ख़बर	-8057
▁गेट	-8058
▁सूजन	-8059
▁बनायी	-8060
▁मजदूरी	-8061
▁अनुकम्पा	-8062
कौ	-8063
नस	-8064
टके	-8065
▁लाह	-8066
▁उपहार	-8067
▁निभाई	-8068
▁परहेज़गार	-8069
महल	-8070
दीक़	-8071
नाडा	-8072
समूह	-8073
▁बसव	-8074
ख़्या	-8075
▁पढ़ी	-8076
▁लाभांश	-8077
▁वास्तु	-8078
▁नुक़सान	-8079
▁ब्राउज़र	-8080
▁फिलीस्तीनी	-8081
उल	-8082
ंबा	-8083
शोर	-8084
▁गठ	-8085
▁नॉ	-8086
र्ते	-8087
▁चिर	-8088
lation	-8089
▁नामों	-8090
▁संप्र	-8091
▁लेखापरी	-8092
▁सरदारों	-8093
▁सशस्त्र	-8094
फलक	-8095
राक	-8096
▁बछ	-8097
▁विय	-8098
काव्य	-8099
▁ऊँची	-8100
▁फ़ाय	-8101
सामग्री	-8102
कूट	-8103
रांत	-8104
▁ढाल	-8105
▁हिल	-8106
▁कोने	-8107
▁खजूर	-8108
▁अवशेष	-8109
▁आंखों	-8110
▁गुलाम	-8111
ख्तियार	-8112
▁प्रदर्शक	-8113
▁हस्तांतरण	-8114
ितु	-8115
▁वग	-8116
क़ूब	-8117
ज्जित	-8118
▁आपात	-8119
▁आभूषण	-8120
▁दरख्त	-8121
▁समीकरण	-8122
▁मुद्रित	-8123
39	-8124
▁ठे	-8125
नियम	-8126
▁असंग	-8127
▁आजकल	-8128
▁छिपी	-8129
▁परदा	-8130
▁रुजू	-8131
▁मुकदमे	-8132
▁परिचालन	-8133
▁दूरसंचार	-8134
ेत	-8135
उनसे	-8136
बर्ग	-8137
▁चखो	-8138
▁ठाक	-8139
▁हाई	-8140
▁समझी	-8141
▁समझो	-8142
▁अवतार	-8143
▁कारगर	-8144
▁सरीही	-8145
▁परहेज़गारों	-8146
IL	-8147
ैश	-8148
{0}	-8149
जील	-8150
▁स्क्रिप्ट	-8151
▁अमृत	-8152
▁कलाम	-8153
▁शास्त्री	-8154
▁संव्यवहार	-8155
जुट	-8156
▁2009	-8157
▁आन्द	-8158
▁ऊंचा	-8159
▁पाँव	-8160
▁मज़े	-8161
आर्थिक	-8162
▁पैरों	-8163
▁स्वाय	-8164
▁आनुवंश	-8165
▁फिल्टर	-8166
▁स्तम्भ	-8167
▁आज़माइश	-8168
▁संरक्षित	-8169
▁हिन्दुस्तान	-8170
ब्बे	-8171
▁150	-8172
फ़ाइल	-8173
▁निषे	-8174
मूर्ति	-8175
▁असंभव	-8176
▁डालना	-8177
▁बदलना	-8178
▁संतान	-8179
▁अहिंसा	-8180
▁लाएँगे	-8181
ree	-8182
ोपण	-8183
▁वाक	-8184
▁निराशा	-8185
▁विकलांग	-8186
lic	-8187
किताब	-8188
▁अवगत	-8189
▁अग्रे	-8190
▁स्थलों	-8191
▁श्रद्धांजलि	-8192
पृ	-8193
ज्जु	-8194
रेटर	-8195
ियाद	-8196
ुकला	-8197
▁कुर	-8198
▁नींव	-8199
ढ़ियों	-8200
▁पूर्वोत्तर	-8201
75	-8202
आइ	-8203
एफसी	-8204
▁मंजूर	-8205
तकों	-8206
▁(5)	-8207
▁इल्	-8208
▁रुस	-8209
▁देनी	-8210
▁पैग़	-8211
▁सूरत	-8212
▁सड़कों	-8213
▁सेनाओं	-8214
MA	-8215
शिला	-8216
स्पी	-8217
▁अद्	-8218
▁अपन	-8219
▁ग़ु	-8220
कार्ड	-8221
फ्रेंस	-8222
▁अन्दा	-8223
▁उपभोग	-8224
धिकारिक	-8225
पटल	-8226
फिक़	-8227
मुखी	-8228
▁नील	-8229
▁रसी	-8230
▁दत्त	-8231
▁चक्कर	-8232
▁नतीजा	-8233
▁स्विच	-8234
▁सर्विस	-8235
▁translat	-8236
▁श्रीलंका	-8237
▁कार्यपालिका	-8238
ct	-8239
ंघा	-8240
राबी	-8241
ॉर्ट	-8242
▁फॉर	-8243
▁खोला	-8244
▁स्वे	-8245
▁संकाय	-8246
▁अपूर्ण	-8247
▁बाज़ार	-8248
▁राजपत्र	-8249
▁राष्ट्री	-8250
▁प्राप्तकर्ता	-8251
▁नृ	-8252
▁पुराण	-8253
▁भड़कती	-8254
▁समस्याएं	-8255
आज	-8256
डीए	-8257
सरत	-8258
ting	-8259
िएशन	-8260
▁बुत	-8261
वर्धन	-8262
▁आईसी	-8263
▁ठहरे	-8264
▁बाएं	-8265
▁राजी	-8266
▁कच्चे	-8267
▁क़ब्ल	-8268
▁दादाओं	-8269
▁बरसाया	-8270
▁वक्तव्य	-8271
▁समायोजन	-8272
▁झुठलाओगे	-8273
▁महानिदेशक	-8274
खण्ड	-8275
बड़े	-8276
रसूल	-8277
्रीट	-8278
▁धमकी	-8279
▁एकजुट	-8280
▁पाबन्दी	-8281
▁परिणामों	-8282
▁वर्षगांठ	-8283
▁मंत्रालयों	-8284
.11	-8285
अर्	-8286
▁अटक	-8287
विशेष	-8288
▁औषधि	-8289
▁कतरा	-8290
▁तुम्	-8291
साधारण	-8292
▁सालों	-8293
▁निर्माता	-8294
/%	-8295
परक	-8296
▁(.	-8297
▁शर	-8298
गोरि	-8299
▁घोष	-8300
▁ताक	-8301
▁इन्त	-8302
▁कोमल	-8303
▁बनाएं	-8304
▁समर्थक	-8305
▁क्षैतिज	-8306
▁नियंत्रक	-8307
दक	-8308
.10	-8309
टरी	-8310
लीस	-8311
▁छः	-8312
चाहे	-8313
पहले	-8314
बाज़	-8315
▁185	-8316
▁लखन	-8317
▁आगमन	-8318
▁रेशम	-8319
▁विधाय	-8320
▁सुदूर	-8321
▁स्क्र	-8322
वैज्ञान	-8323
▁प्रवाहित	-8324
▁वैयक्तिक	-8325
18	-8326
nu	-8327
ांक	-8328
▁रै	-8329
▁सटी	-8330
▁कोरो	-8331
▁सुचर	-8332
धारकों	-8333
▁चेहरा	-8334
▁नमूने	-8335
▁मोहलत	-8336
▁परिसंप	-8337
▁तदनुसार	-8338
▁विवेकान	-8339
▁अपराधियों	-8340
▁उम्मीदवार	-8341
▁दीर्घकालिक	-8342
-4	-8343
▁me	-8344
▁अव्य	-8345
▁पादप	-8346
▁भीड़	-8347
▁अनुकरण	-8348
▁राजकुमार	-8349
▁अप्रत्याशित	-8350
ीर	-8351
ओएस	-8352
ॉजी	-8353
चाना	-8354
▁छेद	-8355
चंद्र	-8356
▁आवासी	-8357
▁स्थूल	-8358
▁आँकड़ा	-8359
▁छोड़ने	-8360
▁डाक्टर	-8361
▁मनोरंजन	-8362
▁सुलेमान	-8363
▁दिव	-8364
▁फलक	-8365
▁इराक	-8366
▁नाफर	-8367
▁निवे	-8368
▁बतौर	-8369
▁बेहद	-8370
▁स्वाद	-8371
▁डाटाबेस	-8372
▁संग्राम	-8373
,%	-8374
99	-8375
साफ	-8376
▁ईस	-8377
ताबे	-8378
फूज़	-8379
ल्कि	-8380
▁1947	-8381
▁एसोस	-8382
▁गोपनीय	-8383
▁ग्रन्थ	-8384
▁नियोजन	-8385
▁निर्धन	-8386
▁उपनिवेश	-8387
▁ज़बरदस्त	-8388
mi	-8389
नम	-8390
काज	-8391
▁is	-8392
रानी	-8393
स्मिक	-8394
▁गोवा	-8395
▁ग्लो	-8396
▁बेचने	-8397
कारियों	-8398
▁नाटकों	-8399
▁संग्रहण	-8400
चौ	-8401
end	-8402
▁गंध	-8403
▁गोपन	-8404
▁गोला	-8405
▁चिंतन	-8406
▁करूँगा	-8407
▁सन्देश	-8408
▁महामारी	-8409
दाद	-8410
▁धूल	-8411
▁पॉलि	-8412
▁बेहत	-8413
क्साइड	-8414
▁हल्का	-8415
▁जोड़ना	-8416
▁वग़ैरह	-8417
▁पक्षियों	-8418
डऋ	-8419
▁44	-8420
▁अंतर्व	-8421
▁किताबों	-8422
▁उपर्युक्त	-8423
▁केन्द्रों	-8424
▁जाननेवाला	-8425
ुलर	-8426
भागी	-8427
माला	-8428
▁वीं	-8429
▁विलो	-8430
▁शोषण	-8431
▁ठाकुर	-8432
▁लड़ने	-8433
▁इच्छुक	-8434
▁नीतिगत	-8435
▁पड़ोसी	-8436
▁ऑप	-8437
सीडी	-8438
▁सेन	-8439
मताओं	-8440
▁एहकाम	-8441
▁एख्तेयार	-8442
▁पूर्णतया	-8443
▁मुशरेकीन	-8444
▁वास्तुकला	-8445
nd	-8446
ूण	-8447
vir	-8448
तरह	-8449
देवी	-8450
द्दा	-8451
▁दुश	-8452
▁विघ	-8453
▁होश	-8454
होंने	-8455
▁ख्या	-8456
▁कानों	-8457
▁सुनवाई	-8458
▁सेवानि	-8459
▁प्रतिवर्ष	-8460
oo	-8461
▁हंस	-8462
स्मार	-8463
▁अद्वितीय	-8464
▁मेहरबानी	-8465
▁उत्तराधिकारी	-8466
erv	-8467
नीत	-8468
पहर	-8469
सिया	-8470
▁चित	-8471
ुदायिक	-8472
▁अंगों	-8473
▁अपितु	-8474
▁आशंका	-8475
▁हालात	-8476
▁कैश	-8477
▁बृह	-8478
▁शीत	-8479
च्छेदन	-8480
▁कमीशन	-8481
▁जोड़ी	-8482
▁हानिक	-8483
▁दरवाजे	-8484
▁निकलते	-8485
▁सिखाया	-8486
▁चित्रित	-8487
▁सिंहासन	-8488
▁पर्यटकों	-8489
ौदा	-8490
▁इट	-8491
▁अवयव	-8492
▁पटेल	-8493
पत्रों	-8494
भारतीय	-8495
▁कपड़ा	-8496
▁टेनिस	-8497
▁हारून	-8498
कती	-8499
▁दै	-8500
ग़ैर	-8501
सेवा	-8502
▁अशोक	-8503
▁माफ़	-8504
▁भूटान	-8505
▁डॉक्टर	-8506
▁अवस्थित	-8507
▁सुचरिता	-8508
▁स्थिरता	-8509
▁\	-8510
ast	-8511
hou	-8512
▁हाइड	-8513
▁गार्ड	-8514
▁तुल्य	-8515
▁मारने	-8516
▁सोचने	-8517
▁मुहैया	-8518
▁आधिकारिक	-8519
ect	-8520
ख़्त	-8521
सन्द	-8522
ायों	-8523
चिकित	-8524
▁बांस	-8525
▁जीवंत	-8526
▁रणनीति	-8527
▁आकस्मिक	-8528
▁प्रस्तावों	-8529
17	-8530
बद	-8531
ड्र	-8532
ष्कृत	-8533
▁शब्दा	-8534
▁अतिमान	-8535
▁दीर्घा	-8536
▁महफूज़	-8537
▁उत्सर्जन	-8538
1)	-8539
कोई	-8540
पाट	-8541
ासा	-8542
▁01	-8543
ड्डी	-8544
मिया	-8545
म्बा	-8546
▁फर्	-8547
▁डालर	-8548
▁बरसात	-8549
▁नेताजी	-8550
▁भेदभाव	-8551
▁सचिवालय	-8552
वचन	-8553
ियस	-8554
▁02	-8555
▁झे	-8556
▁अशु	-8557
▁मुम	-8558
▁अनाथ	-8559
▁वृद्ध	-8560
▁तालिका	-8561
▁परिषद्	-8562
▁प्रशंस	-8563
▁स्टार्ट	-8564
▁पर्यावरणीय	-8565
.12	-8566
मेर	-8567
▁इसहा	-8568
▁ट्रा	-8569
वास्तव	-8570
▁प्रचुर	-8571
▁घरवालों	-8572
,"	-8573
ve	-8574
इसी	-8575
यंत्र	-8576
▁चाँद	-8577
▁बीवी	-8578
▁बातिल	-8579
▁मुफ्त	-8580
▁प्रबन्ध	-8581
stel	-8582
▁केस	-8583
▁मुअ	-8584
ज्ञाप	-8585
▁अज्र	-8586
▁पागल	-8587
▁सब्ज	-8588
▁खासकर	-8589
▁धारित	-8590
▁याक़ूब	-8591
▁विनिधान	-8592
▁सूचीबद्ध	-8593
▁मंत्रियों	-8594
▁वॉ	-8595
▁माफ	-8596
▁ग्रा	-8597
▁सुपु	-8598
▁हफ्त	-8599
▁तालाब	-8600
▁शिर्क	-8601
▁इसहाक़	-8602
▁नवीकरण	-8603
▁नवीनतम	-8604
▁संकेतक	-8605
▁निरन्तर	-8606
▁प्रदेशों	-8607
▁ज़िम्मेदारी	-8608
ोड	-8609
भुज	-8610
ल्लत	-8611
▁स्ला	-8612
▁ख़बरदार	-8613
शक	-8614
्‍त	-8615
▁जॉन	-8616
▁शेख	-8617
.2013	-8618
परेशन	-8619
▁बताए	-8620
▁तरीक़े	-8621
ुति	-8622
ैक्ट	-8623
▁ऋतु	-8624
▁सन्त	-8625
▁मर्या	-8626
▁मणिपुर	-8627
▁मेन्यू	-8628
▁दर्शाया	-8629
ुड	-8630
णुओं	-8631
ब्बत	-8632
वाया	-8633
▁बड़	-8634
▁भेजना	-8635
▁चित्रकला	-8636
सिड	-8637
▁छे	-8638
आपको	-8639
▁नकल	-8640
न्दों	-8641
▁टॉगल	-8642
▁पहना	-8643
▁समता	-8644
▁अफसोस	-8645
▁जानों	-8646
▁प्रेषक	-8647
▁स्वर्ग	-8648
▁सुधारने	-8649
ोद	-8650
▁आधी	-8651
▁आरा	-8652
▁कमे	-8653
▁अंदा	-8654
▁एण्ड	-8655
▁कर्ज	-8656
▁शर्म	-8657
▁कनाडा	-8658
▁निकला	-8659
▁पूजते	-8660
▁स्टार	-8661
▁दुर्गा	-8662
▁सामुदायिक	-8663
▁स्वीकार्य	-8664
ँजी	-8665
िज़	-8666
▁गज	-8667
▁URL	-8668
▁लोप	-8669
दस्ती	-8670
▁आगरा	-8671
▁दाऊद	-8672
▁सूचक	-8673
▁किराए	-8674
▁गीतों	-8675
▁साक्षरता	-8676
फॉ	-8677
▁पावर	-8678
▁जैविक	-8679
▁बदौलत	-8680
▁प्रकोप	-8681
▁अनुभूति	-8682
खने	-8683
▁be	-8684
लापन	-8685
▁ऊँट	-8686
▁गड़	-8687
▁मेड	-8688
▁हरित	-8689
▁शिष्ट	-8690
▁उपयोगिता	-8691
▁अप्रत्यक्ष	-8692
▁’	-8693
ंडे	-8694
यित	-8695
▁बक	-8696
▁मीम	-8697
▁विस्तारित	-8698
ss	-8699
सह	-8700
ोश	-8701
ड़का	-8702
▁यौन	-8703
तीकरण	-8704
▁आश्रम	-8705
▁बेटियाँ	-8706
▁महाद्वीप	-8707
stellation	-8708
▁न्यायपालिका	-8709
ऐसा	-8710
चाल	-8711
तीन	-8712
ताएं	-8713
▁गरि	-8714
▁छोर	-8715
▁आघात	-8716
▁आर्य	-8717
▁उठता	-8718
▁कन्न	-8719
▁रेगि	-8720
स्थापन	-8721
▁बताना	-8722
▁रोशनी	-8723
▁टिप्पण	-8724
▁सांख्य	-8725
▁स्नातक	-8726
▁उन्मूलन	-8727
▁त्योहार	-8728
▁लड़कियों	-8729
ile	-8730
▁लहर	-8731
दोनों	-8732
▁बजाए	-8733
▁रोचक	-8734
▁जाहिर	-8735
▁दोपहर	-8736
▁फिरते	-8737
▁मास्ट	-8738
▁रंगों	-8739
▁अनुभवों	-8740
▁हरियाणा	-8741
▁गतिविधियां	-8742
-5	-8743
.%	-8744
लाइट	-8745
ोष्ठ	-8746
▁तित	-8747
▁पॉप	-8748
▁रिम	-8749
▁किंग	-8750
▁लखनऊ	-8751
▁मुन्त	-8752
▁बीवियों	-8753
▁मुख्यालय	-8754
▁प्रतिनिधियों	-8755
IS	-8756
▁34	-8757
▁इल	-8758
▁सता	-8759
▁इसलिये	-8760
▁उर्वरक	-8761
▁जाएँगी	-8762
▁जिंदगी	-8763
▁झुठलाते	-8764
▁रूपांतरण	-8765
ON	-8766
ah	-8767
▁ध्य	-8768
▁देहा	-8769
▁आगामी	-8770
▁दिखला	-8771
बेहिश्त	-8772
▁धर्मों	-8773
▁समेकित	-8774
▁मजदूरों	-8775
▁क़्योंकि	-8776
▁सम्भावना	-8777
▁सर्वप्रथम	-8778
▁मैत्रीपूर्ण	-8779
थल	-8780
ुश	-8781
जुल	-8782
▁अनो	-8783
▁पतन	-8784
▁रोड	-8785
द्वार	-8786
▁पांव	-8787
▁चलाएँ	-8788
▁नोटिस	-8789
▁झिल्ली	-8790
▁क्षमताओं	-8791
▁48	-8792
षकों	-8793
▁इधर	-8794
▁खनन	-8795
क़्ति	-8796
▁चलाए	-8797
▁नींद	-8798
▁पेशी	-8799
▁अतिथि	-8800
▁उड़ान	-8801
▁महान्	-8802
▁निर्वाह	-8803
▁इस्लामवादी	-8804
पूरा	-8805
▁गुट	-8806
▁पटल	-8807
▁सैक	-8808
▁सिने	-8809
▁ग्यार	-8810
▁करेगें	-8811
▁कोरिया	-8812
तौ	-8813
लेस	-8814
▁जगा	-8815
▁मधुमेह	-8816
▁कार्यकाल	-8817
▁प्राणियों	-8818
)-	-8819
▁तेलु	-8820
▁दोषी	-8821
▁सिटी	-8822
▁गतिशील	-8823
▁शस्त्र	-8824
▁मॉड्यूल	-8825
.–	-8826
कथा	-8827
निय	-8828
▁कमर	-8829
▁पाओ	-8830
▁ज्या	-8831
▁उपाधि	-8832
▁मामूली	-8833
▁सार्थक	-8834
▁नरेन्द्र	-8835
▁संस्थागत	-8836
▁प्रस्तुति	-8837
▁पारदर्शिता	-8838
▁स्थानांतरित	-8839
.09	-8840
ल्फ	-8841
म्बे	-8842
▁दरों	-8843
▁सादा	-8844
क्टरों	-8845
▁क्लिपबोर्ड	-8846
लेशन	-8847
ाराम	-8848
▁चूक	-8849
▁लची	-8850
▁इंजन	-8851
यात्रा	-8852
▁जिसमे	-8853
▁आश्वासन	-8854
▁प्रजातियों	-8855
▁मुख्यमंत्री	-8856
01.	-8857
मलव	-8858
▁नानक	-8859
▁कमेटी	-8860
▁तलाक़	-8861
▁बच्चन	-8862
▁सोसाय	-8863
▁प्रेषण	-8864
▁वांछित	-8865
▁डेटाबेस	-8866
▁परेशानी	-8867
▁संक्षेप	-8868
▁साक्षात्कार	-8869
दिश	-8870
▁ध्रु	-8871
▁पड़ोस	-8872
▁लौटकर	-8873
▁निकलता	-8874
▁वृत्ता	-8875
विद्यालय	-8876
▁ज़्यादती	-8877
▁प्रौद्योगिकियों	-8878
”।	-8879
ड़की	-8880
र्चे	-8881
▁मले	-8882
▁ईस्ट	-8883
▁कब्जा	-8884
▁पुनर्व	-8885
ine	-8886
▁१६	-8887
बामा	-8888
▁विवश	-8889
स्वामी	-8890
▁दर्जा	-8891
▁आचार्य	-8892
▁भ्रष्टाचार	-8893
आस	-8894
.08	-8895
दोष	-8896
सिटी	-8897
हाली	-8898
▁अहमद	-8899
▁इसमे	-8900
▁नेको	-8901
▁मरयम	-8902
▁उपदेश	-8903
▁कीटना	-8904
▁गरिमा	-8905
▁तारों	-8906
▁लौटना	-8907
▁श्रेय	-8908
डेट	-8909
एक्स	-8910
▁तरा	-8911
▁बीत	-8912
▁लाम	-8913
र्कता	-8914
▁नाफ़र	-8915
▁रोज़ा	-8916
▁सदनों	-8917
▁किराया	-8918
▁छुपाएँ	-8919
▁टाइम्स	-8920
▁शिकायतों	-8921
▁यात्रियों	-8922
ॉस	-8923
ोन्	-8924
बाबू	-8925
▁कमल	-8926
▁दार	-8927
▁फौज	-8928
▁बगल	-8929
▁बनते	-8930
▁विगत	-8931
▁वाज़े	-8932
▁मजबूती	-8933
▁किताबें	-8934
▁चित्रों	-8935
▁निकालना	-8936
▁यहूदियों	-8937
▁समाजवादी	-8938
टकर	-8939
टर्न	-8940
▁कों	-8941
▁खपत	-8942
▁भरत	-8943
▁मैथ	-8944
बल्कि	-8945
▁कारी	-8946
▁मुस्क	-8947
▁अधिष्ठ	-8948
▁मुद्रण	-8949
are	-8950
जिसे	-8951
ूर्व	-8952
▁पुत	-8953
▁बनो	-8954
title	-8955
▁स्टॉक	-8956
▁गुजराती	-8957
ड़न	-8958
य्या	-8959
▁300	-8960
▁500	-8961
▁शिल	-8962
त्तीस	-8963
्यस्त	-8964
▁दशमलव	-8965
शान	-8966
▁रूट	-8967
▁अभिनय	-8968
▁अपशिष्ट	-8969
नगर	-8970
▁उम	-8971
▁छपाई	-8972
▁झगड़	-8973
▁पुणे	-8974
▁मिलन	-8975
न्‍द्र	-8976
प्रदेश	-8977
▁संघीय	-8978
▁खुल्ला	-8979
वैज्ञानिक	-8980
▁अनुमानित	-8981
▁स्वायत्त	-8982
ev	-8983
box	-8984
तिर	-8985
▁po	-8986
न्‍न	-8987
भासी	-8988
▁गम्	-8989
▁हड्डी	-8990
मोहम्मद	-8991
▁शासकों	-8992
▁दिलचस्प	-8993
▁पैदावार	-8994
▁साझीदारी	-8995
▁स्वैच्छिक	-8996
उसी	-8997
गेट	-8998
ज़ूर	-8999
राइट	-9000
.2019	-9001
▁कहती	-9002
▁लड़े	-9003
▁सोचता	-9004
▁जनजातीय	-9005
▁नियन्त्र	-9006
▁अवज्ञाकारी	-9007
ोई	-9008
▁जमे	-9009
▁विच	-9010
हीनता	-9011
▁(195	-9012
▁1992	-9013
▁नेमत	-9014
▁मुहर	-9015
संख्यक	-9016
▁एजेंट	-9017
▁सूचका	-9018
प्रणाली	-9019
▁आंकड़ों	-9020
▁कार्यवाह	-9021
',	-9022
न्ता	-9023
पालन	-9024
▁चरम	-9025
▁ह्य	-9026
▁धीमी	-9027
▁बुढ़	-9028
▁वक्र	-9029
▁ज़लील	-9030
▁प्रगा	-9031
▁उद्भूत	-9032
▁प्रदर्शनी	-9033
▁हार्डवेयर	-9034
,2	-9035
न्च	-9036
▁कन	-9037
▁अविल	-9038
▁कुशा	-9039
▁अब्दुल	-9040
▁करूंगा	-9041
▁पाठकों	-9042
▁मूर्तिक	-9043
थाम	-9044
वाट	-9045
तनाम	-9046
न्दे	-9047
▁असह	-9048
▁अभिर	-9049
▁असंत	-9050
▁बाँध	-9051
▁ध्येय	-9052
▁पीछला	-9053
▁वर्तनी	-9054
▁क्रमांक	-9055
ज़ों	-9056
र्तग	-9057
▁विप	-9058
▁किरण	-9059
▁लोहे	-9060
▁स्टाक	-9061
▁चट्टान	-9062
▁पुनर्ग	-9063
▁पेटेंट	-9064
कस	-9065
▁खौल	-9066
▁बसा	-9067
▁बही	-9068
▁ख्वा	-9069
▁प्रोफ	-9070
▁सीआरए	-9071
▁माँगता	-9072
▁कंपनियां	-9073
▁परिदृश्य	-9074
,-	-9075
बन	-9076
सूद	-9077
▁कण	-9078
राने	-9079
▁कवर	-9080
▁रूए	-9081
▁व्र	-9082
▁कॉर्	-9083
▁फैले	-9084
▁बढ़ी	-9085
ियारों	-9086
▁ग्रिड	-9087
▁अभिन्न	-9088
▁पोर्टल	-9089
▁आन्दोलन	-9090
▁काउंसिल	-9091
▁खुशख़बरी	-9092
▁केन्द्रित	-9093
▁विशेषाधिकार	-9094
ढा	-9095
सीमा	-9096
स्ते	-9097
▁नाल	-9098
▁विर	-9099
विवाद	-9100
▁अँधे	-9101
▁जवान	-9102
▁मूर्ख	-9103
▁गम्भीर	-9104
▁मत्स्य	-9105
▁किनारों	-9106
▁मज़दूरी	-9107
▁मुताबिक	-9108
▁इन्होंने	-9109
▁कठिनाइयों	-9110
▁किलोग्राम	-9111
▁,	-9112
▁आइए	-9113
डियों	-9114
▁एक्ट	-9115
▁एल्गोरि	-9116
▁गर्भाशय	-9117
▁ईमानदारी	-9118
▁मास्टर्स	-9119
▁उपभोक्ताओं	-9120
दीन	-9121
बिट	-9122
त्‍य	-9123
यायी	-9124
र्सी	-9125
▁बुक	-9126
▁मसी	-9127
▁अनदे	-9128
▁घृणा	-9129
▁पायी	-9130
▁रोमा	-9131
▁शोभा	-9132
▁अभिया	-9133
▁एक्सट	-9134
▁पट्टे	-9135
▁उद्यमियों	-9136
▁निर्वाचित	-9137
▁ऑस्ट्रेलिया	-9138
डब	-9139
हब	-9140
ज़ब	-9141
▁1.4	-9142
▁कीं	-9143
▁पंथ	-9144
▁वहन	-9145
▁अनंत	-9146
▁दुखी	-9147
▁हरेक	-9148
▁आज़ाद	-9149
▁जर्मन	-9150
▁दायरे	-9151
▁निंदा	-9152
▁जापानी	-9153
▁अधिकाधिक	-9154
लर	-9155
ज़ू	-9156
▁चश्	-9157
▁मुक	-9158
बन्धन	-9159
र्मेट	-9160
▁आहरण	-9161
▁चर्च	-9162
▁डिज़	-9163
eneric	-9164
▁इंकार	-9165
▁चरणों	-9166
▁रखेगा	-9167
▁लड़ते	-9168
▁6.	-9169
▁चारा	-9170
िरपेक्ष	-9171
▁उन्नति	-9172
▁ऑपरेशन	-9173
▁अभिव्यक्त	-9174
▁फिलीस्तीन	-9175
▁विशेषताओं	-9176
्ली	-9177
मानों	-9178
▁ऊँचे	-9179
▁जिनपर	-9180
▁सुलझा	-9181
▁अग्रसर	-9182
▁ब्यूरो	-9183
▁सहेजने	-9184
▁निधियों	-9185
▁जानेवाले	-9186
▁निष्पक्ष	-9187
▁परिपूर्ण	-9188
▁कार्यशाला	-9189
);	-9190
कॉ	-9191
oog	-9192
डित	-9193
दिता	-9194
▁अंज	-9195
oogle	-9196
▁सांप	-9197
▁कैमरा	-9198
▁बदलते	-9199
▁कोरोना	-9200
▁विनम्र	-9201
▁आवृत्ति	-9202
▁निमंत्र	-9203
▁विख्यात	-9204
▁सूचकांक	-9205
▁हिन्दुओं	-9206
▁सत्याग्रह	-9207
ext	-9208
▁but	-9209
▁रोब	-9210
▁क्री	-9211
▁चुंब	-9212
स्तरीय	-9213
▁सतर्कता	-9214
▁सोसायटी	-9215
▁अपीलार्थी	-9216
▁प्रगतिशील	-9217
.-	-9218
▁37	-9219
▁उछ	-9220
क्टरी	-9221
▁बताओ	-9222
▁मलया	-9223
सरकारी	-9224
▁स्टाफ	-9225
▁जनजाति	-9226
▁प्रगाढ़	-9227
▁सिक्किम	-9228
▁प्रख्यात	-9229
aa	-9230
रेब	-9231
िसी	-9232
पत्य	-9233
▁रुए	-9234
ब्रों	-9235
रक्षा	-9236
िकेशन	-9237
▁1948	-9238
▁टिका	-9239
▁बाएँ	-9240
▁भटका	-9241
▁यानि	-9242
▁रातों	-9243
▁प्रतिभूतियों	-9244
इंट	-9245
तको	-9246
▁खाई	-9247
▁परदे	-9248
▁बढ़ना	-9249
▁इंतजार	-9250
▁जीवाणु	-9251
▁पुकारो	-9252
▁स्मार्ट	-9253
▁1"	-9254
ान्तर	-9255
▁इकट्	-9256
▁पढ़कर	-9257
▁सिंधु	-9258
▁निकायों	-9259
▁स्वदेशी	-9260
▁विधानसभा	-9261
नीस	-9262
हें	-9263
▁ID	-9264
हार्	-9265
▁बसे	-9266
▁घमंड	-9267
▁सजदे	-9268
▁उठाकर	-9269
▁फैसले	-9270
▁अनुदेश	-9271
▁विशुद्ध	-9272
▁उत्पत्ति	-9273
▁निर्देशों	-9274
▁वान	-9275
▁तारे	-9276
▁तेज़	-9277
▁मेनू	-9278
▁ताज़ा	-9279
▁मूत्र	-9280
▁क़ुदरत	-9281
▁पुर्तग	-9282
▁कुफ्फार	-9283
▁परिपत्र	-9284
▁फरिश्तों	-9285
▁श्रमिकों	-9286
▁अनुस्मृति	-9287
▁2018	-9288
▁अखंड	-9289
▁लायक	-9290
▁विषा	-9291
▁संकु	-9292
क्षमता	-9293
▁ओबामा	-9294
▁पत्ते	-9295
▁पाण्ड	-9296
▁वगैरह	-9297
▁पाएंगे	-9298
▁फिटकार	-9299
▁वाज़ेए	-9300
▁मंत्रिम	-9301
▁विधियों	-9302
▁संगोष्ठ	-9303
-6	-9304
▁लय	-9305
ष्मा	-9306
ुल्य	-9307
▁असं	-9308
▁अंगूर	-9309
▁निदान	-9310
▁संस्‍	-9311
▁स्नेह	-9312
▁खिसकाएँ	-9313
▁दरवाज़े	-9314
▁दोस्तों	-9315
▁संतुलित	-9316
▁श्रेणियों	-9317
3.	-9318
घो	-9319
क़ु	-9320
एमएस	-9321
श्ले	-9322
ुतोष	-9323
▁HTML	-9324
▁अश्व	-9325
▁छिद्र	-9326
▁लगेगा	-9327
िश्रमिक	-9328
▁मांसपेश	-9329
▁हिंदुओं	-9330
▁पारिस्थित	-9331
▁विशेषज्ञों	-9332
▁अन्तर्राष्ट्रीय	-9333
pp	-9334
sp	-9335
तला	-9336
शीदा	-9337
▁रुक	-9338
▁द्रव	-9339
▁सख्ती	-9340
▁अवलोकन	-9341
▁विटामिन	-9342
▁निर्णायक	-9343
▁पत्नियों	-9344
भे	-9345
ान्	-9346
▁११	-9347
छोटे	-9348
▁जोड	-9349
▁टेप	-9350
▁सिया	-9351
▁सेवन	-9352
▁संयोग	-9353
ृश	-9354
ऐसे	-9355
▁उग	-9356
पादक	-9357
ालीस	-9358
▁थोप	-9359
▁यहॉ	-9360
▁रंज	-9361
▁शंक	-9362
वक्ता	-9363
▁बलों	-9364
▁झगड़ा	-9365
▁मुनाफ़	-9366
▁कार्यकलापों	-9367
47	-9368
.05	-9369
िशा	-9370
्यौ	-9371
▁इश	-9372
▁अनू	-9373
▁फसाद	-9374
▁योनि	-9375
▁पंद्र	-9376
▁मौखिक	-9377
▁लीजिए	-9378
▁एनपीएस	-9379
▁निकाली	-9380
▁व्याकरण	-9381
▁संकीर्ण	-9382
▁अनुक्रिया	-9383
ब्ध	-9384
क्रा	-9385
▁आचार	-9386
▁क्लब	-9387
संबंधी	-9388
▁असमान	-9389
▁झगड़े	-9390
▁दुग्ध	-9391
▁बारिश	-9392
▁अनुबंध	-9393
▁रात्रि	-9394
▁पारदर्शी	-9395
▁स्वतन्त्र	-9396
्वित	-9397
▁फ़ी	-9398
▁फेफ	-9399
▁यज्ञ	-9400
▁काटने	-9401
▁कोष्ठ	-9402
▁अफ़सोस	-9403
▁पर्यटक	-9404
▁बंगाली	-9405
▁पारिश्रमिक	-9406
gu	-9407
िरों	-9408
ूर्त	-9409
▁कोट	-9410
न्नाथ	-9411
▁जहाँन	-9412
▁महिमा	-9413
▁स्नान	-9414
▁अन्वेषण	-9415
▁गिरोहों	-9416
▁विलोपित	-9417
▁मूल्यवान	-9418
han	-9419
राद	-9420
जहाँ	-9421
जहां	-9422
▁तक़	-9423
▁मख़	-9424
▁घायल	-9425
▁फार्	-9426
▁सालेह	-9427
िपीडिया	-9428
▁मानचित्र	-9429
▁निवासियों	-9430
,5	-9431
सील	-9432
सख्त	-9433
▁187	-9434
▁and	-9435
▁अज़	-9436
▁कैद	-9437
▁शैल	-9438
▁अन्‍	-9439
▁बहुल	-9440
▁तिहाई	-9441
▁देखिए	-9442
▁अद्भुत	-9443
▁कदाचित	-9444
नाल	-9445
गुज़र	-9446
▁अंधा	-9447
▁उन्‍	-9448
▁परित	-9449
▁आवेदक	-9450
▁पाएगा	-9451
▁भेजते	-9452
▁कीमतों	-9453
▁निविदा	-9454
▁प्रिंट	-9455
▁अध्यापक	-9456
▁सहभागिता	-9457
▁7.	-9458
▁रेट	-9459
▁सिख	-9460
▁धारक	-9461
▁लगाई	-9462
कोडिंग	-9463
▁किसने	-9464
▁गेहूं	-9465
▁व्यास	-9466
▁आदेशों	-9467
▁आशुतोष	-9468
▁परंपराओं	-9469
वाय	-9470
ंटों	-9471
स्वती	-9472
▁1950	-9473
▁सबकी	-9474
▁कोविड	-9475
▁फ़साद	-9476
▁भेजता	-9477
▁मंजिल	-9478
▁निक्षेप	-9479
ल्ह	-9480
यानक	-9481
▁खैर	-9482
▁बिछ	-9483
▁1000	-9484
▁मौके	-9485
▁किशोर	-9486
▁टेस्ट	-9487
▁हटाना	-9488
▁अप्रिय	-9489
▁अर्जुन	-9490
▁आबंटित	-9491
▁बिलियन	-9492
▁बेहश्त	-9493
▁राजवंश	-9494
▁हिम्मत	-9495
▁संस्थाएं	-9496
▁जनजातियों	-9497
▁निश्चिन्त	-9498
▁प्रोफ़ाइल	-9499
▁वाक़िफकार	-9500
णाम	-9501
ब्ज	-9502
ारस	-9503
च्ची	-9504
र्षि	-9505
▁हेक्ट	-9506
▁पूर्वक	-9507
▁समझाने	-9508
▁झुठलाने	-9509
किट	-9510
आईएस	-9511
▁उधर	-9512
▁धरो	-9513
▁तृतीय	-9514
▁न्यूय	-9515
▁बादशाही	-9516
मद	-9517
ुलन	-9518
बंधन	-9519
▁एंव	-9520
▁एजे	-9521
▁हॉल	-9522
▁अण्ड	-9523
▁उपनि	-9524
▁टीवी	-9525
▁दौरे	-9526
▁सोना	-9527
▁एकीकरण	-9528
▁मजिस्ट	-9529
▁विकिरण	-9530
▁१७	-9531
▁जबर	-9532
▁नारी	-9533
▁रिमोट	-9534
▁वर्षो	-9535
▁झगड़ते	-9536
▁पूछताछ	-9537
▁मिथ्या	-9538
▁राजदूत	-9539
▁इच्छाओं	-9540
▁रविशंकर	-9541
▁अनिश्चित	-9542
▁निरपेक्ष	-9543
फान	-9544
▁जनक	-9545
▁भगत	-9546
▁असत्य	-9547
▁शर्मा	-9548
▁स्थाई	-9549
▁इज्ज़त	-9550
▁जाएंगी	-9551
▁इल्ज़ाम	-9552
▁जगन्नाथ	-9553
▁सुपुर्द	-9554
▁अभियुक्त	-9555
▁वार्षिकी	-9556
बुल	-9557
वात	-9558
▁क़ी	-9559
वारिक	-9560
▁ख़ुशी	-9561
स्तियां	-9562
▁बाजारों	-9563
▁विश्राम	-9564
▁कलाकारों	-9565
▁निष्पादित	-9566
ईल	-9567
ial	-9568
▁लेट	-9569
▁सको	-9570
▁करों	-9571
▁ब्यौ	-9572
▁मधुर	-9573
▁तदबीर	-9574
▁पढ़ना	-9575
र्याप्त	-9576
▁यूनियन	-9577
▁रोगियों	-9578
▁समावेशी	-9579
▁बीमारियों	-9580
▁संभावनाओं	-9581
▁विमानक्षेत्र	-9582
रम	-9583
ory	-9584
ंतुक	-9585
▁फंड	-9586
▁बन्	-9587
▁राव	-9588
चिह्न	-9589
वित्त	-9590
स्टीट	-9591
▁अन्न	-9592
▁उज्ज	-9593
▁घबरा	-9594
▁विभि	-9595
▁चुनने	-9596
▁ट्रस्ट	-9597
▁मुद्दा	-9598
▁क्रियान्वयन	-9599
विष	-9600
सिब	-9601
▁एट	-9602
▁वाई	-9603
▁वाज	-9604
ैसेरो	-9605
▁विधवा	-9606
▁कहलाता	-9607
▁प्रदाता	-9608
▁प्रपत्र	-9609
▁ब्रैसेरो	-9610
▁अनुप्रयोगों	-9611
af	-9612
रेज	-9613
सुर	-9614
▁ढी	-9615
धारक	-9616
▁खुर	-9617
▁बिख	-9618
▁बोह	-9619
शियों	-9620
▁पूछें	-9621
▁निस्बत	-9622
▁प्रदाह	-9623
▁अपमानित	-9624
▁""	-9625
▁अश्	-9626
▁घाव	-9627
▁मुर	-9628
▁नाना	-9629
▁शॉर्ट	-9630
ंत्रिकी	-9631
ुस्तानी	-9632
▁आवासीय	-9633
▁मिटाने	-9634
▁रोकथाम	-9635
▁राज्यक्षेत्र	-9636
▁1'	-9637
दानी	-9638
लिता	-9639
▁चुक	-9640
▁अवरोध	-9641
▁कार्ट	-9642
▁छापें	-9643
▁असफलता	-9644
▁नीतियां	-9645
▁लक्ष्मी	-9646
▁वर्गीकृत	-9647
▁विशेषताएं	-9648
▁श्रीवास्तव	-9649
45	-9650
प्स	-9651
ोकस	-9652
▁रथ	-9653
▁ग़ल	-9654
▁चोर	-9655
▁मीन	-9656
▁वनों	-9657
▁बशर्ते	-9658
▁फ़रमाया	-9659
दह	-9660
ंड़	-9661
ोरा	-9662
▁हौ	-9663
atla	-9664
एसएस	-9665
नामा	-9666
▁उजा	-9667
▁गोर	-9668
▁कहकर	-9669
▁वसूल	-9670
▁सटीक	-9671
▁सबूत	-9672
atlami	-9673
▁पहलों	-9674
▁फारसी	-9675
▁दरगुज़र	-9676
viratlami	-9677
▁hi	-9678
▁भोग	-9679
शासित	-9680
▁(200	-9681
▁किस्	-9682
▁डेवल	-9683
▁देरी	-9684
▁बैठने	-9685
रूद्दीन	-9686
▁समकक्ष	-9687
ैद	-9688
डोर	-9689
यंकर	-9690
▁1998	-9691
▁बंगला	-9692
▁अनुष्ठ	-9693
▁कामकाज	-9694
▁कर्तव्यों	-9695
OP	-9696
गेह	-9697
वटी	-9698
▁काय	-9699
indow	-9700
ोलॉजी	-9701
▁धुंध	-9702
▁फैली	-9703
▁माला	-9704
▁समीप	-9705
▁सल्त	-9706
▁हिमन	-9707
▁खाड़ी	-9708
▁मार्क	-9709
▁लाहौर	-9710
▁वापिस	-9711
-7	-9712
मंद	-9713
इयाँ	-9714
भारी	-9715
▁कैल	-9716
▁बैल	-9717
▁उलटे	-9718
▁चलकर	-9719
▁पूरक	-9720
▁भ्रम	-9721
▁रोके	-9722
▁नामित	-9723
▁हल्के	-9724
▁अत्याचारियों	-9725
for	-9726
विड	-9727
किया	-9728
क़रार	-9729
▁जुर्	-9730
▁अमानत	-9731
▁जगहों	-9732
▁भूभाग	-9733
▁ज़रूरी	-9734
ain	-9735
ख़ी	-9736
बली	-9737
▁अटकल	-9738
▁जगत्	-9739
▁विलय	-9740
▁आबंटन	-9741
▁तत्पर	-9742
▁बढ़ाकर	-9743
▁संचिका	-9744
▁मुर्दों	-9745
▁न्यायाधीशों	-9746
ुद	-9747
▁IM	-9748
▁डेम	-9749
▁लपेट	-9750
▁इंद्र	-9751
▁उर्वर	-9752
▁चलाना	-9753
▁रोकें	-9754
▁गिरावट	-9755
▁क्रियाकलाप	-9756
▁लेखापरीक्षा	-9757
सनी	-9758
सेन	-9759
ions	-9760
दक्ष	-9761
▁पदक	-9762
▁पटना	-9763
▁पहने	-9764
▁शरारत	-9765
▁तसदीक़	-9766
▁क्रियाओं	-9767
▁विकिपीडिया	-9768
hr	-9769
आया	-9770
वेट	-9771
label	-9772
▁सुपर	-9773
कृष्णन	-9774
▁सहारे	-9775
▁शृंखला	-9776
▁सहभागी	-9777
▁मर्यादा	-9778
एब	-9779
गिर	-9780
▁१९८	-9781
ोरेशन	-9782
▁फ्री	-9783
▁चुपके	-9784
▁डालता	-9785
▁बदकार	-9786
▁बिल्ड	-9787
▁भयानक	-9788
▁हुकुम	-9789
▁सूचनाओं	-9790
▁निर्माताओं	-9791
.,	-9792
दण्ड	-9793
वृति	-9794
पायों	-9795
▁रूचि	-9796
ेन्द्र	-9797
▁प्राइ	-9798
▁बग़ैर	-9799
▁भ्रमण	-9800
▁उद्यमी	-9801
▁राजकीय	-9802
▁सदियों	-9803
▁चुनावों	-9804
▁संभावनाएं	-9805
गीर	-9806
▁ऑटो	-9807
▁डिर	-9808
▁गुला	-9809
▁जुदा	-9810
▁करूणा	-9811
▁जमाने	-9812
▁फ़ज़ल	-9813
▁शाश्व	-9814
▁पिछड़े	-9815
▁पूर्वोक्त	-9816
जै	-9817
ard	-9818
▁(&	-9819
▁गत	-9820
ट्रिक	-9821
▁गायब	-9822
▁पेशा	-9823
▁लाता	-9824
ंबेडकर	-9825
▁अपलोड	-9826
▁चालीस	-9827
▁पुनर्वास	-9828
ir	-9829
उत्	-9830
तिया	-9831
बर्ट	-9832
▁बला	-9833
काकुल	-9834
भक्ति	-9835
विभाग	-9836
▁कराए	-9837
▁रसीद	-9838
पश्चिम	-9839
▁मल्टी	-9840
▁अर्द्ध	-9841
▁किताबे	-9842
▁पाएँगे	-9843
▁पोशीदा	-9844
▁विचित्र	-9845
▁क्षतिपूर्ति	-9846
▁हन	-9847
्युन	-9848
▁रोम	-9849
▁गणेश	-9850
▁समेट	-9851
स्मारक	-9852
▁बकाया	-9853
▁हल्की	-9854
▁तस्बीह	-9855
▁मक़सूद	-9856
▁कारावास	-9857
▁फरमाएगा	-9858
▁लक्षणों	-9859
▁दिशानिर्देश	-9860
▁कॉन्फ़िगरेशन	-9861
our	-9862
_01.	-9863
क्यू	-9864
न्ने	-9865
ोचित	-9866
▁छंद	-9867
▁नली	-9868
▁सूझ	-9869
क्तता	-9870
▁जावा	-9871
▁ताजा	-9872
▁बहती	-9873
▁कमाया	-9874
▁स्टोर	-9875
▁क़समों	-9876
▁जांचें	-9877
▁कामयाबी	-9878
▁महिलाएं	-9879
हीद	-9880
ाइट	-9881
▁बहका	-9882
▁छत्तीस	-9883
▁तमन्ना	-9884
▁नारियल	-9885
▁आनुवंशिक	-9886
▁हानिकारक	-9887
स्स	-9888
▁कश	-9889
क्‍त	-9890
प्रो	-9891
माही	-9892
▁ढोल	-9893
▁यती	-9894
▁सबब	-9895
▁what	-9896
▁आगाह	-9897
▁तैना	-9898
▁ऑंखें	-9899
▁बलिदान	-9900
▁आंबेडकर	-9901
▁मुकाबला	-9902
▁अभिवृद्धि	-9903
ज्ह	-9904
▁तन	-9905
▁झलक	-9906
▁तीर	-9907
▁नाज	-9908
नेशनल	-9909
▁तख्त	-9910
▁स्पी	-9911
▁लॉगिन	-9912
▁ग्लोबल	-9913
▁दिखायी	-9914
▁परजीवी	-9915
▁विशेषज्ञता	-9916
.19	-9917
तीस	-9918
बोध	-9919
वियत	-9920
▁बंधन	-9921
▁वारा	-9922
▁स्टी	-9923
▁खेतों	-9924
▁प्रसव	-9925
▁वियतनाम	-9926
▁संपर्कों	-9927
ॉय	-9928
ंगन	-9929
यता	-9930
ीयर	-9931
▁(4	-9932
वर्ण	-9933
▁पाउ	-9934
▁हाम	-9935
▁खोले	-9936
▁वादे	-9937
▁गुमान	-9938
▁दवाओं	-9939
▁पृथक्	-9940
▁रवाना	-9941
▁प्रौढ़	-9942
▁विजेता	-9943
▁शाश्वत	-9944
▁निकालें	-9945
▁अग्रेषित	-9946
लौ	-9947
art	-9948
जना	-9949
▁2)	-9950
▁IS	-9951
स्पद	-9952
▁URI	-9953
▁मरत	-9954
नागरी	-9955
▁अंधे	-9956
▁मुआव	-9957
▁मेले	-9958
▁सीखा	-9959
▁सनातन	-9960
▁स्कैन	-9961
▁तुरन्त	-9962
▁प्रशासक	-9963
ँस	-9964
म्य	-9965
दिग्ध	-9966
▁खादी	-9967
▁रुख़	-9968
▁2016)	-9969
▁इंस्ट	-9970
▁रहोगे	-9971
▁संचरण	-9972
▁सोचना	-9973
▁आरक्षण	-9974
▁नर्मदा	-9975
▁यूसुफ़	-9976
▁लेनदेन	-9977
▁अनुयायी	-9978
▁दिलचस्पी	-9979
▁माध्यमिक	-9980
▁बदरूद्दीन	-9981
88	-9982
ंय	-9983
बंद	-9984
▁१३	-9985
item	-9986
मियम	-9987
▁org	-9988
▁लड़ी	-9989
▁आश्रय	-9990
▁बर्तन	-9991
▁भयंकर	-9992
▁कामयाब	-9993
▁दिशाओं	-9994
▁विक्रेता	-9995
▁ज़िम्मेदार	-9996
खोल	-9997
ुखी	-9998
▁रच	-9999
▁१४	-10000
मरने	-10001
ापित	-10002
▁गोद	-10003
▁ताम	-10004
राधिक	-10005
▁NAME	-10006
▁दण्ड	-10007
▁ग्रुप	-10008
▁जरुरत	-10009
▁धरोहर	-10010
▁साँचा	-10011
▁आपत्ति	-10012
▁निरस्त	-10013
▁बैठकों	-10014
▁सौहार्	-10015
▁निर्देशित	-10016
90	-10017
काई	-10018
▁अठ	-10019
▁व्	-10020
▁लगो	-10021
▁1991	-10022
▁कश्ती	-10023
▁सरस्वती	-10024
▁अधिग्रहण	-10025
▁तुल्यकाल	-10026
▁समायोजित	-10027
RO	-10028
सुन	-10029
्वल	-10030
माता	-10031
ालेख	-10032
▁पिघ	-10033
▁सफ़	-10034
मुक्त	-10035
वियाँ	-10036
▁उतने	-10037
▁छिपे	-10038
▁डराओ	-10039
▁तंगी	-10040
▁सब्स	-10041
action	-10042
▁आखिरी	-10043
▁भ्रूण	-10044
▁तेलुगु	-10045
▁दृढ़ता	-10046
▁सिनेमा	-10047
▁मौज़ूदा	-10048
▁कहानियाँ	-10049
▁पारिवारिक	-10050
ौप	-10051
▁लड	-10052
▁कां	-10053
▁नाव	-10054
जिसके	-10055
▁टाइम	-10056
▁तटीय	-10057
▁ताबे	-10058
प्रधान	-10059
▁हुर्इ	-10060
▁फिल्मों	-10061
▁An	-10062
ount	-10063
▁कम्	-10064
पूज्य	-10065
▁पिक्	-10066
▁चिड़ी	-10067
▁जरुरी	-10068
▁गुज़रे	-10069
▁पैटर्न	-10070
▁विचारण	-10071
▁सल्तनत	-10072
▁चमत्कार	-10073
▁लाभदायक	-10074
▁अपर्याप्त	-10075
▁वार्तालाप	-10076
▁आश्चर्यजनक	-10077
फत	-10078
▁j	-10079
राग	-10080
sthis	-10081
नीकरण	-10082
▁उपरो	-10083
▁बाबा	-10084
▁खुलने	-10085
▁जानती	-10086
▁बेख़बर	-10087
▁अधीनस्थ	-10088
▁एख्तियार	-10089
▁whatsthis	-10090
ैट	-10091
क्व	-10092
बास	-10093
ैंस	-10094
▁लगें	-10095
▁निगेह	-10096
▁बनावट	-10097
▁बोहतान	-10098
▁सोवियत	-10099
निर्धारण	-10100
▁तात्कालिक	-10101
▁दायित्वों	-10102
भंग	-10103
मेज	-10104
स्थि	-10105
▁बुश	-10106
ोग्रा	-10107
▁घातक	-10108
▁लाकर	-10109
▁ठहरने	-10110
▁पूँजी	-10111
▁फाउंड	-10112
▁मुहलत	-10113
▁शुष्क	-10114
▁जाँचें	-10115
▁मास्टर	-10116
▁विपक्ष	-10117
▁आपराधिक	-10118
eb	-10119
▁वध	-10120
जाति	-10121
▁धनी	-10122
मिश्र	-10123
▁एकड़	-10124
▁जबतक	-10125
▁फिरे	-10126
▁सूखे	-10127
▁अब्दु	-10128
▁जेहाद	-10129
▁अभियोग	-10130
▁महर्षि	-10131
▁समुच्च	-10132
▁एमएसएमई	-10133
▁लाभप्रद	-10134
कसा	-10135
▁www	-10136
▁झेल	-10137
▁शौच	-10138
▁कुंज	-10139
......	-10140
▁भीतरी	-10141
▁मसौदा	-10142
▁यूआरएल	-10143
▁बहुमूल्य	-10144
▁अनुस्मारक	-10145
▁आधुनिकीकरण	-10146
हेल	-10147
ापा	-10148
▁चख	-10149
▁षड	-10150
ख़ास	-10151
नायक	-10152
रहित	-10153
▁(10	-10154
▁अमन	-10155
▁डरे	-10156
▁उदासीन	-10157
▁दुर्बल	-10158
▁पंद्रह	-10159
▁मर्दों	-10160
▁स्थगित	-10161
तुम्हारी	-10162
▁आविष्कार	-10163
▁शब्दावली	-10164
▁प्रत्यर्थी	-10165
माद	-10166
कानाथ	-10167
बियों	-10168
▁करतू	-10169
▁चार्ट	-10170
▁पकड़ा	-10171
▁दुबारा	-10172
▁पुनर्गठन	-10173
▁मूर्तियों	-10174
▁प्रमाणीकरण	-10175
▁क्षतिग्रस्त	-10176
.3	-10177
ूपी	-10178
कावट	-10179
शियन	-10180
▁क्य	-10181
▁दाँ	-10182
▁दाल	-10183
ग्राम	-10184
▁अम्ल	-10185
▁म्यू	-10186
▁करुणा	-10187
▁ठहराए	-10188
▁दिखता	-10189
▁अनुज्ञा	-10190
▁समन्वित	-10191
▁रखनेवाले	-10192
▁मूर्तिकला	-10193
EN	-10194
लु	-10195
सात	-10196
प्ले	-10197
सूरत	-10198
▁डाइ	-10199
▁सती	-10200
▁पाती	-10201
▁पर्दा	-10202
▁चाहेगा	-10203
▁नाटकीय	-10204
▁वाशिंग	-10205
▁प्रक्रम	-10206
▁निर्णयों	-10207
▁क्षेत्रफल	-10208
▁पद्धतियों	-10209
▁द्वारकानाथ	-10210
▁मार्गदर्शक	-10211
देख	-10212
राहट	-10213
▁टूल	-10214
▁रिफ	-10215
▁इण्ड	-10216
▁रत्न	-10217
▁ऑंखों	-10218
▁सभाओं	-10219
▁क्रिस्ट	-10220
▁संख़्या	-10221
▁अभिप्राय	-10222
▁एक्सटेंशन	-10223
ापे	-10224
▁GN	-10225
थरों	-10226
▁उखा	-10227
▁क्षे	-10228
▁पुरी	-10229
▁यकीन	-10230
▁विदा	-10231
▁उद्धरण	-10232
▁आदर्शों	-10233
▁प्रतिवेदन	-10234
▁प्लास्टिक	-10235
किर	-10236
ष्प	-10237
ोग्य	-10238
▁आन्त	-10239
▁पौरा	-10240
▁वाकई	-10241
व्यस्त	-10242
▁2015)	-10243
▁ग्रेड	-10244
▁भागवत	-10245
▁लेखों	-10246
▁चिल्ला	-10247
▁दिखाएं	-10248
▁पहचाना	-10249
▁राज़्य	-10250
▁विलियम	-10251
प्राप्ति	-10252
▁रखनेवाला	-10253
▁शांतिपूर्ण	-10254
erm	-10255
ंगर	-10256
फ़े	-10257
्टे	-10258
पेयी	-10259
फ़्त	-10260
भावी	-10261
▁अपी	-10262
▁धर्	-10263
▁भीम	-10264
पुस्त	-10265
▁ढूँढ	-10266
▁ताना	-10267
▁सजीव	-10268
▁अन्तः	-10269
▁चिन्त	-10270
▁जॉर्ज	-10271
तकोत्तर	-10272
▁प्रामाण	-10273
▁फाउंडेशन	-10274
▁आत्मविश्वास	-10275
MAIL	-10276
▁कसौ	-10277
▁छीन	-10278
▁हँस	-10279
ज्ञानी	-10280
▁प्रवास	-10281
▁फैलाने	-10282
▁अस्पष्ट	-10283
▁सुभाषबाबू	-10284
न्दन	-10285
मूसा	-10286
मेरा	-10287
▁186	-10288
▁मरे	-10289
विधिक	-10290
▁आयाम	-10291
▁मसीह	-10292
▁लोगे	-10293
▁भूकंप	-10294
▁अनुयाय	-10295
▁नौसेना	-10296
▁गंभीरता	-10297
▁विधायिका	-10298
▁ः	-10299
ton	-10300
▁सऋ	-10301
गरीय	-10302
ताजों	-10303
मण्डल	-10304
शनूदी	-10305
▁हरकत	-10306
क्सीजन	-10307
▁कुशादा	-10308
▁चेन्नई	-10309
▁जुड़ने	-10310
▁नस्लों	-10311
▁मुअय्य	-10312
▁निरूपित	-10313
▁नाफ़रमानी	-10314
▁०	-10315
ज़ो	-10316
यही	-10317
ोंग	-10318
इतना	-10319
णाचल	-10320
देखो	-10321
र्ची	-10322
▁बाय	-10323
▁मेर	-10324
▁अमीर	-10325
▁भण्ड	-10326
▁व्‍य	-10327
▁शिष्य	-10328
▁श्वसन	-10329
जहन्नुम	-10330
▁कौंसिल	-10331
▁लड़कों	-10332
▁निर्वहन	-10333
▁In	-10334
▁आवे	-10335
ित्ति	-10336
▁माया	-10337
▁वयस्क	-10338
▁विकार	-10339
▁सामंज	-10340
्यात्मक	-10341
▁बादलों	-10342
▁दिनांकित	-10343
▁हथियारों	-10344
फीति	-10345
▁काँ	-10346
▁जीने	-10347
▁मृदा	-10348
▁सफ़र	-10349
▁जयपुर	-10350
डब्ल्यू	-10351
▁पेड़ों	-10352
▁प्रेमी	-10353
▁दर्शाती	-10354
▁निःशुल्क	-10355
ype	-10356
लेन	-10357
सैन	-10358
ूबी	-10359
▁65	-10360
▁उलझ	-10361
पृष्ठ	-10362
बूझकर	-10363
▁तिरु	-10364
▁ऊतकों	-10365
▁रस्सी	-10366
▁सौन्द	-10367
▁हिजरत	-10368
▁आदिवासी	-10369
▁प्रबंधित	-10370
थ्य	-10371
ादन	-10372
ैंट	-10373
▁1)	-10374
ोपाल	-10375
▁कालि	-10376
▁पोषक	-10377
जनात्मक	-10378
▁अस्थिर	-10379
▁इसराइल	-10380
▁उपरांत	-10381
▁इंस्टीट	-10382
▁चुंबकीय	-10383
▁रेखांकित	-10384
▁विवेकानंद	-10385
▁पवन	-10386
▁अन्ध	-10387
▁दिली	-10388
▁समेत	-10389
▁इंगित	-10390
▁चलेगा	-10391
▁उत्सुक	-10392
▁करतूतों	-10393
▁निकालकर	-10394
▁हेक्टेयर	-10395
3)	-10396
कक	-10397
ust	-10398
देह	-10399
पाए	-10400
भवन	-10401
▁लंब	-10402
▁सौदे	-10403
▁हकीम	-10404
स्पष्ट	-10405
▁खेलने	-10406
▁उत्थान	-10407
▁पॉलिसी	-10408
▁बुलन्द	-10409
▁वाजपेयी	-10410
▁सौहार्द	-10411
▁गुणसूत्र	-10412
▁पांडुलिप	-10413
cri	-10414
ब्त	-10415
्रल	-10416
▁38	-10417
▁ढ़	-10418
▁जन्	-10419
▁लूट	-10420
▁सीट	-10421
दायगी	-10422
▁फ्रा	-10423
▁दूंगा	-10424
▁मैसूर	-10425
▁वायदे	-10426
प्ताहिक	-10427
▁ताजमहल	-10428
▁मुख़्य	-10429
▁अपरिचित	-10430
ज़िम	-10431
पड़े	-10432
▁गाने	-10433
▁भेड़	-10434
हिन्दी	-10435
▁खंडों	-10436
▁अभिकरण	-10437
▁पंचायत	-10438
▁मलयालम	-10439
▁कृतियों	-10440
▁शोकाकुल	-10441
▁उत्पादित	-10442
eg	-10443
म्‍	-10444
षाण	-10445
उनको	-10446
ूँकि	-10447
▁मोर	-10448
▁यूं	-10449
ुपयोग	-10450
▁1987	-10451
वर्तित	-10452
▁जिज्ञ	-10453
▁पैमान	-10454
▁ललिता	-10455
ब्दियों	-10456
▁इकट्ठे	-10457
▁ग्रंथों	-10458
हू	-10459
किक	-10460
डीओ	-10461
▁पग	-10462
एंगे	-10463
म्बई	-10464
ैरात	-10465
▁ऋषि	-10466
▁मजा	-10467
▁आईपी	-10468
▁झोंक	-10469
▁एक्सप	-10470
▁नजदीक	-10471
▁अश्लील	-10472
▁जैसाकि	-10473
▁दिलाया	-10474
▁द्रव्य	-10475
▁पुस्‍त	-10476
▁साँचाः	-10477
परिवर्तन	-10478
▁आमंत्रण	-10479
▁तकनीकों	-10480
▁संस्थापक	-10481
▁श्रेष्ठता	-10482
’,	-10483
निश	-10484
▁नस	-10485
जारी	-10486
बरील	-10487
▁मर्	-10488
▁साठ	-10489
.2017	-10490
बिनेट	-10491
▁पढ़े	-10492
▁दोहरी	-10493
▁करवाने	-10494
▁छवियों	-10495
▁तीव्रता	-10496
▁शत्रुओं	-10497
▁निमंत्रण	-10498
▁सांप्रदायिक	-10499
▁Constellation	-10500
2,	-10501
EA	-10502
ाणु	-10503
▁नह	-10504
▁मोल	-10505
▁वेग	-10506
▁इटली	-10507
▁गर्भव	-10508
▁जमींद	-10509
▁हवाले	-10510
▁अलार्म	-10511
▁करवाया	-10512
▁बुलाते	-10513
enericName	-10514
▁सम्बन्धों	-10515
▁अनुयायियों	-10516
▁प्रारम्भिक	-10517
tic	-10518
▁ओल	-10519
▁मठ	-10520
▁लक	-10521
ट्टे	-10522
वाइस	-10523
▁लॉक	-10524
चित्य	-10525
▁मृतक	-10526
वर्षीय	-10527
▁मेहरा	-10528
▁विकेट	-10529
▁सीनों	-10530
▁ग़ुलाम	-10531
▁चुपचाप	-10532
▁जन्मदिन	-10533
▁जिन्नों	-10534
▁कारस्तान	-10535
▁पर्यवेक्षण	-10536
▁स्थानांतरण	-10537
गोश	-10538
जरी	-10539
शीन	-10540
▁घोर	-10541
▁भोज	-10542
▁सघन	-10543
▁1997	-10544
▁रिहा	-10545
▁रूजू	-10546
क्षेपण	-10547
▁बुतों	-10548
▁मारते	-10549
▁लंबित	-10550
▁दर्शकों	-10551
▁छत्तीसगढ़	-10552
▁फरमाबरदार	-10553
▁रेगिस्तान	-10554
IT	-10555
टने	-10556
निन	-10557
▁08	-10558
▁on	-10559
दरते	-10560
ज्जुब	-10561
▁कतार	-10562
▁चुनी	-10563
▁सपने	-10564
▁अंतरा	-10565
▁मशीनों	-10566
▁बुनियाद	-10567
▁मौजिज़ा	-10568
▁स्वयंसे	-10569
▁अपमानजनक	-10570
▁एसोसिएशन	-10571
▁चन्द्रमा	-10572
▁अनुपस्थित	-10573
▁ख़ुशख़बरी	-10574
?-	-10575
श्क	-10576
ैनी	-10577
इसके	-10578
color	-10579
▁तनिक	-10580
▁ब्ला	-10581
dition	-10582
क्षकों	-10583
▁आभासी	-10584
▁एहसास	-10585
▁सकताः	-10586
▁समूचे	-10587
▁अनुज्ञ	-10588
▁सेकेंड	-10589
▁अक्षरों	-10590
▁पर्वतीय	-10591
▁पहुँचाने	-10592
▁आकांक्षाओं	-10593
▁स्नातकोत्तर	-10594
.6	-10595
एओ	-10596
द्घ	-10597
पत्	-10598
केशन	-10599
▁मनी	-10600
गुनाह	-10601
▁उठते	-10602
▁निका	-10603
▁भुजा	-10604
▁अनन्य	-10605
▁क्रूर	-10606
▁बलराम	-10607
▁लौटाए	-10608
▁अमान्य	-10609
▁कारकों	-10610
▁वर्ल्ड	-10611
▁नियोजित	-10612
▁पौराणिक	-10613
▁विवादों	-10614
▁अहमदाबाद	-10615
▁प्रसारित	-10616
48	-10617
ंदे	-10618
थ्म	-10619
बिर	-10620
िडी	-10621
गणना	-10622
ज्जत	-10623
▁जूट	-10624
▁पडा	-10625
▁ज़ूम	-10626
▁दाना	-10627
▁बायो	-10628
▁खेलों	-10629
▁सेवाएँ	-10630
▁तत्पश्च	-10631
▁रहनेवाले	-10632
▁वित्तपोषण	-10633
पाठ	-10634
▁उठी	-10635
▁गुल	-10636
▁1996	-10637
पक्षीय	-10638
र्निया	-10639
▁अभयार	-10640
▁छुड़ा	-10641
▁प्रया	-10642
▁ब्लॉक	-10643
▁वायुम	-10644
▁व्याप्त	-10645
उदी	-10646
गिन	-10647
▁1/	-10648
अधिक	-10649
▁रिए	-10650
धियां	-10651
▁बेगम	-10652
▁बैंड	-10653
▁साइन	-10654
प्रकाश	-10655
▁गुच्छ	-10656
▁परिपथ	-10657
▁निकलती	-10658
▁व्यायाम	-10659
▁शब्दकोश	-10660
▁शॉर्टकट	-10661
▁स्तंभों	-10662
▁राधाकृष्णन	-10663
▁55	-10664
▁जक	-10665
रणीय	-10666
▁BAR	-10667
▁किर	-10668
▁घिर	-10669
▁छान	-10670
▁मेट	-10671
▁आर्ट	-10672
▁पद्म	-10673
▁मारो	-10674
▁गोपाल	-10675
▁घटकों	-10676
▁साधना	-10677
▁आज्ञाप	-10678
▁पंक्तियों	-10679
णसी	-10680
फेस	-10681
संभव	-10682
त्थान	-10683
त्विक	-10684
दाश्त	-10685
ान्ति	-10686
▁क्षय	-10687
▁रावण	-10688
▁सूअर	-10689
▁स्का	-10690
ष्णुता	-10691
▁क़बूल	-10692
▁ख़त्म	-10693
▁पीड़क	-10694
▁बम्बई	-10695
▁मायने	-10696
▁विजेट	-10697
ेक्ट्री	-10698
▁क्षेत्रक	-10699
▁नियोक्ता	-10700
▁पैरामीटर	-10701
▁मध्यवर्ती	-10702
ID	-10703
आय	-10704
कह	-10705
ore	-10706
गंगा	-10707
च्चे	-10708
पकों	-10709
▁पठन	-10710
▁रेत	-10711
▁सुप	-10712
▁आंखें	-10713
▁चित्त	-10714
▁तेज़ी	-10715
▁नम्बर	-10716
▁वेस्ट	-10717
▁दोस्ती	-10718
▁निगमित	-10719
▁भौतिकी	-10720
▁मुर्दा	-10721
▁रखेंगे	-10722
▁इन्साफ़	-10723
▁गर्भवती	-10724
▁बुराइयों	-10725
▁साप्ताहिक	-10726
aol	-10727
पीछे	-10728
▁निब	-10729
▁बूट	-10730
▁सहि	-10731
लिस्ट	-10732
ियमित	-10733
▁रसोई	-10734
▁वर्क	-10735
▁जुल्म	-10736
▁चिंतित	-10737
▁ज़रुरत	-10738
▁पकड़ने	-10739
▁अधिनिर्ण	-10740
▁पुरातत्व	-10741
▁मजिस्ट्रेट	-10742
▁raviratlami	-10743
बना	-10744
वंत	-10745
विटी	-10746
व्यय	-10747
शैली	-10748
▁बिर	-10749
ुमारी	-10750
▁क़दर	-10751
▁चमकी	-10752
▁ड्यू	-10753
▁ताली	-10754
▁मेनन	-10755
कश्मीर	-10756
वीक्षा	-10757
▁निवेशक	-10758
▁भाषाएँ	-10759
उसे	-10760
दिल	-10761
क्चर	-10762
वाड़	-10763
▁दूत	-10764
▁फोट	-10765
▁यान	-10766
▁लाप	-10767
▁वशी	-10768
अर्था	-10769
परिषद	-10770
▁बनती	-10771
▁नैतिकता	-10772
▁ब्राह्म	-10773
▁निर्देशक	-10774
▁सामंजस्य	-10775
ख़ा	-10776
ुरू	-10777
▁कंक	-10778
▁पैन	-10779
▁बें	-10780
▁रहन	-10781
ज़मीन	-10782
र्मित	-10783
▁अज़ी	-10784
▁घिरा	-10785
▁बीते	-10786
▁बैठी	-10787
▁वाजे	-10788
▁बजाया	-10789
▁बुलाए	-10790
▁रोकना	-10791
▁अंडमान	-10792
▁परिमाण	-10793
▁महाराज	-10794
▁मुद्रक	-10795
▁सुश्री	-10796
▁ड्राफ्ट	-10797
▁3,	-10798
एसएल	-10799
▁डेल	-10800
▁पित	-10801
▁बकर	-10802
ेशनों	-10803
▁उत्पी	-10804
▁दर्शक	-10805
▁ब्रेक	-10806
▁कानपुर	-10807
▁लार्वा	-10808
▁सौन्दर्य	-10809
▁सार्वभौमिक	-10810
ायन	-10811
▁सँ	-10812
क्ष्	-10813
चेरी	-10814
बिया	-10815
सिले	-10816
▁इना	-10817
▁क़िब	-10818
▁गाथा	-10819
▁दायर	-10820
▁मोटी	-10821
▁सुखद	-10822
▁हुईं	-10823
▁जमाअत	-10824
▁निपटा	-10825
▁राजपू	-10826
▁व्यंग	-10827
▁नोकिया	-10828
▁यूनानी	-10829
▁उपरोक्त	-10830
▁नेअमतों	-10831
▁माबूदों	-10832
▁निगेहबान	-10833
▁हस्ताक्षरित	-10834
1}	-10835
ser	-10836
बीस	-10837
ुनि	-10838
ग्रे	-10839
चक्र	-10840
▁मणी	-10841
योजना	-10842
▁कटाई	-10843
▁कृषक	-10844
▁ख़ान	-10845
▁वल्ल	-10846
▁सेवक	-10847
▁उपहास	-10848
▁ख़याल	-10849
▁बड़ाई	-10850
▁बरहक़	-10851
▁रौशनी	-10852
▁विराम	-10853
▁सीरिया	-10854
▁स्लाइड	-10855
चिकित्सा	-10856
▁पिक्सेल	-10857
▁पीढ़ियों	-10858
▁होनेवाली	-10859
▁वाक़िफ़कार	-10860
MS	-10861
यद	-10862
ंचन	-10863
ंधे	-10864
ज़्	-10865
▁LD	-10866
▁शत	-10867
टीपी	-10868
▁(6)	-10869
ecast	-10870
rance	-10871
▁1986	-10872
▁कपास	-10873
▁चंडी	-10874
▁फर्क	-10875
▁बाजू	-10876
रेटिंग	-10877
▁जिक्र	-10878
▁फरमाई	-10879
▁वेदों	-10880
▁ग्यारह	-10881
▁पड़ेगी	-10882
▁बागवानी	-10883
▁स्त्रोत	-10884
▁forecast	-10885
भला	-10886
crip	-10887
स्टन	-10888
ृहीत	-10889
ैण्ड	-10890
▁बाघ	-10891
▁मौन	-10892
कुरान	-10893
▁असुर	-10894
▁इतरा	-10895
▁ईसवी	-10896
▁शुभार	-10897
▁सहेजा	-10898
▁जंगलों	-10899
▁निर्या	-10900
▁वाक्या	-10901
▁पृष्ठों	-10902
▁तात्पर्य	-10903
▁विकल्पों	-10904
▁याचिकाकर्ता	-10905
.01	-10906
▁इतर	-10907
▁ग़म	-10908
▁ग्ल	-10909
▁घंटा	-10910
▁झूठी	-10911
▁फतेह	-10912
▁रूसी	-10913
▁सुलभ	-10914
▁आयातित	-10915
▁उपासना	-10916
▁विधायी	-10917
▁लक्ष्मण	-10918
""	-10919
har	-10920
jut	-10921
बात	-10922
ालू	-10923
▁43	-10924
▁47	-10925
बंदी	-10926
श्कर	-10927
▁सुस	-10928
▁पाकर	-10929
▁बनें	-10930
▁ब्रॉ	-10931
▁मंदी	-10932
▁मदों	-10933
▁शंका	-10934
▁कोयले	-10935
▁घुमाव	-10936
▁पंक्त	-10937
▁अनियमित	-10938
▁निदेशकों	-10939
▁उपाध्यक्ष	-10940
21	-10941
xx	-10942
जोरी	-10943
निवार	-10944
▁लेनी	-10945
▁दिवसीय	-10946
▁प्रवर्	-10947
▁समुच्चय	-10948
▁स्क्रॉल	-10949
▁प्रीमियम	-10950
▁परिवर्धित	-10951
▁सिफारिशों	-10952
24	-10953
ञ्	-10954
-10	-10955
▁गे	-10956
खोलकर	-10957
विश्व	-10958
ियाना	-10959
▁जीते	-10960
▁पाएँ	-10961
▁युवक	-10962
▁छोड़ो	-10963
▁दिलाने	-10964
▁सरकारें	-10965
▁)	-10966
ग्व	-10967
ड्स	-10968
बड़	-10969
बरे	-10970
युग	-10971
▁ओज	-10972
मेरी	-10973
▁खार	-10974
▁सफर	-10975
▁सरो	-10976
्रपान	-10977
▁अर्श	-10978
▁दौलत	-10979
▁पढ़ो	-10980
▁सूखा	-10981
▁हावी	-10982
रीक्षण	-10983
▁अकारथ	-10984
▁पत्तन	-10985
▁हास्य	-10986
वर्सिटी	-10987
▁नियोजक	-10988
▁बदकारी	-10989
▁मज़बूती	-10990
▁संस्कार	-10991
कोट	-10992
ीयत	-10993
वरों	-10994
▁खाए	-10995
▁1993	-10996
▁पेंट	-10997
▁समतल	-10998
▁कसौटी	-10999
▁नगरों	-11000
▁बचाया	-11001
▁युग्म	-11002
▁Google	-11003
▁उद्धृत	-11004
▁हड़ताल	-11005
▁कलात्मक	-11006
मनी	-11007
▁नफ	-11008
juta	-11009
ढ़ने	-11010
नीमत	-11011
यहाँ	-11012
▁झार	-11013
▁तोह	-11014
ोजगार	-11015
▁कोटि	-11016
▁परिल	-11017
▁पेपर	-11018
▁मापन	-11019
उन्हें	-11020
ष्‍ट्र	-11021
▁अलिफ़	-11022
▁सरलता	-11023
▁जागरूक	-11024
▁बहुदेव	-11025
▁बिस्तर	-11026
▁डब्ल्यू	-11027
▁नरेंद्र	-11028
▁प्रत्यु	-11029
▁सैकड़ों	-11030
▁महाकाव्य	-11031
▁नियन्त्रण	-11032
▁आस्ट्रेलिया	-11033
तव	-11034
ंजे	-11035
ादर	-11036
▁ऊंट	-11037
▁दफा	-11038
gnome	-11039
▁1980	-11040
▁काशी	-11041
▁सदृश	-11042
▁सीने	-11043
▁पड़ना	-11044
▁मारता	-11045
▁मूलतः	-11046
▁रक्षक	-11047
▁मेडिकल	-11048
▁कृत्यों	-11049
▁क्लाइंट	-11050
▁सुंदरता	-11051
▁उपक्रमों	-11052
▁त्रिपुरा	-11053
▁भागीदारों	-11054
im	-11055
-12	-11056
ंजर	-11057
ग़ल	-11058
प्प	-11059
▁टल	-11060
मानत	-11061
▁पॉल	-11062
hould	-11063
▁ट्री	-11064
▁वस्त	-11065
▁चूँकि	-11066
▁मुम्ब	-11067
▁औचित्य	-11068
▁प्रेरक	-11069
▁कैबिनेट	-11070
निर्धारित	-11071
▁आधारशिला	-11072
▁प्रभावों	-11073
ug	-11074
.03	-11075
▁२५	-11076
काबा	-11077
पीजी	-11078
पुरा	-11079
रापन	-11080
ियॉँ	-11081
▁आयत	-11082
▁जोश	-11083
▁टेक	-11084
▁फरी	-11085
▁सुम	-11086
ितानी	-11087
▁दाएँ	-11088
गुज़ार	-11089
▁बछड़े	-11090
▁अपनाना	-11091
▁उन्नीस	-11092
▁निकोबार	-11093
▁भंडारित	-11094
▁वाराणसी	-11095
▁समितियां	-11096
▁क्रियाकलापों	-11097
ck	-11098
¤¥	-11099
ज्र	-11100
विजन	-11101
▁जुट	-11102
▁आभार	-11103
▁ऋणों	-11104
▁चार्	-11105
▁निया	-11106
▁म्या	-11107
▁टेक्न	-11108
▁पुष्ट	-11109
▁द्वीपों	-11110
▁सद्भावना	-11111
▁व्यापारियों	-11112
िकोड	-11113
▁रवै	-11114
ालैंड	-11115
▁1988	-11116
▁2019)	-11117
▁अकारत	-11118
▁मख़लू	-11119
▁अखंडता	-11120
▁मुद्दत	-11121
▁शास्ति	-11122
▁किस्मों	-11123
▁तुम्हीं	-11124
▁वृक्षों	-11125
▁इख्तेयार	-11126
▁ख़ुशनूदी	-11127
▁परिपक्वता	-11128
क़ौ	-11129
▁ओह	-11130
एससी	-11131
त्‍व	-11132
न्सी	-11133
ष्णा	-11134
ोगिक	-11135
▁तैर	-11136
▁संभ	-11137
▁साख	-11138
त्तूर	-11139
▁तिलक	-11140
▁बंगल	-11141
▁वबाल	-11142
▁सुने	-11143
▁बैठते	-11144
▁समझती	-11145
▁सेटअप	-11146
▁अंतरिम	-11147
▁निकासी	-11148
▁पुत्री	-11149
▁स्वार्थ	-11150
▁संग्रहित	-11151
▁डिरेक्ट्री	-11152
विच	-11153
ुवा	-11154
एसआई	-11155
ुद्र	-11156
▁१९७	-11157
EMAIL	-11158
गाकार	-11159
विन्द	-11160
▁कपटा	-11161
▁वाहक	-11162
▁सुलह	-11163
संशोधन	-11164
▁वाजेए	-11165
▁हफ्ते	-11166
▁भित्ति	-11167
▁लाभकारी	-11168
▁इंस्टीट्यूट	-11169
डम	-11170
पश	-11171
फेर	-11172
▁यश	-11173
▁रम	-11174
ject	-11175
स्की	-11176
▁(23	-11177
▁अड़	-11178
विकास	-11179
▁दुष्	-11180
▁वालो	-11181
▁स्की	-11182
▁जरिये	-11183
▁मानकर	-11184
▁हटाया	-11185
▁Anjuta	-11186
▁महत्वा	-11187
▁मेजबान	-11188
▁लैंगिक	-11189
▁काश्मीर	-11190
▁पहुँचती	-11191
▁पूंजीगत	-11192
▁प्रतिरूप	-11193
▁वाशिंगटन	-11194
ry	-11195
001	-11196
कोण	-11197
चें	-11198
ोगी	-11199
▁दब	-11200
हाउस	-11201
्याम	-11202
केतिक	-11203
दक्षि	-11204
हार्य	-11205
▁असीम	-11206
▁जीता	-11207
▁लटका	-11208
▁जानें	-11209
▁जीतने	-11210
▁बहनों	-11211
▁एकाग्र	-11212
▁मापदंड	-11213
▁लक्षित	-11214
▁उत्प्रे	-11215
▁ताज्जुब	-11216
▁सापेक्ष	-11217
▁उद्यमिता	-11218
▁विजेताओं	-11219
▁अब्दुल्ला	-11220
१०	-11221
.06	-11222
.07	-11223
अली	-11224
जीत	-11225
▁डू	-11226
ऊंगा	-11227
लब्ध	-11228
▁थाः	-11229
▁यों	-11230
world	-11231
वार्ष	-11232
▁LDAP	-11233
▁आएँगे	-11234
▁गुंजा	-11235
▁दीवान	-11236
▁संतति	-11237
कर्त्ता	-11238
▁सिलसिले	-11239
▁अभयारण्य	-11240
▁विषयवस्तु	-11241
▁मंत्रिमंडल	-11242
असल	-11243
उंट	-11244
▁इंद	-11245
▁एकक	-11246
▁पदा	-11247
▁सिम	-11248
▁अफसर	-11249
▁काबा	-11250
▁कराते	-11251
▁रोकता	-11252
वर्तनीय	-11253
▁असंख्य	-11254
▁मणीलाल	-11255
▁अरुणाचल	-11256
▁अवधारित	-11257
▁नामांकन	-11258
▁ब्रितानी	-11259
▁संप्रदाय	-11260
▁कार्यकलाप	-11261
▁पहाड़ियों	-11262
चरित	-11263
चाने	-11264
▁फिन	-11265
देश्य	-11266
फार्म	-11267
▁(196	-11268
▁अनाव	-11269
▁चलें	-11270
▁पैदल	-11271
▁मेला	-11272
▁युसु	-11273
▁अर्जी	-11274
▁नोड्स	-11275
▁बैठकर	-11276
▁विलंब	-11277
▁ऑफलाइन	-11278
▁खाद्या	-11279
▁संगोष्ठी	-11280
▁संदर्भित	-11281
▁condition	-11282
▁शताब्दियों	-11283
जवान	-11284
द्रव	-11285
ग्रंथ	-11286
▁1990	-11287
▁1995	-11288
▁स्टो	-11289
▁कन्या	-11290
▁डेविड	-11291
▁निकास	-11292
▁भिक्ष	-11293
▁लश्कर	-11294
▁देखरेख	-11295
▁बढ़िया	-11296
▁माइक्र	-11297
▁पत्थरों	-11298
▁बेहतरीन	-11299
▁स्ट्रीट	-11300
▁एनकोडिंग	-11301
▁गुनाहगार	-11302
अस	-11303
िलि	-11304
्‍व	-11305
▁39	-11306
hort	-11307
▁कूद	-11308
▁साय	-11309
▁हिर	-11310
▁नीला	-11311
▁महार	-11312
▁असफलः	-11313
▁रुसवा	-11314
▁सीखना	-11315
▁छोड़ना	-11316
▁संबोधन	-11317
▁परिप्रे	-11318
▁देवनागरी	-11319
दीप	-11320
▁an	-11321
▁ओड	-11322
▁झी	-11323
/201	-11324
ृष्ट	-11325
▁नाद	-11326
ाइयों	-11327
▁चलाई	-11328
▁पूरब	-11329
▁शिरा	-11330
▁सरोज	-11331
क्रमित	-11332
▁पाश्च	-11333
▁बिहारी	-11334
▁देनेवाले	-11335
▁पहुँचाया	-11336
▁वर्गाकार	-11337
▁हड्डियों	-11338
▁प्रतिरक्षा	-11339
CT	-11340
ge	-11341
▁शव	-11342
rica	-11343
करों	-11344
ज्जन	-11345
डीआई	-11346
व्यू	-11347
▁आला	-11348
▁ऊर्	-11349
▁रोल	-11350
विदों	-11351
▁एनआई	-11352
▁दरजे	-11353
▁पद्य	-11354
▁पल्ल	-11355
▁झुकाव	-11356
▁मिलान	-11357
▁सिंधी	-11358
▁डिवाइस	-11359
▁फंक्शन	-11360
▁संगणित	-11361
▁क्योंकर	-11362
▁प्रमाणन	-11363
▁सहयोगियों	-11364
,)	-11365
35	-11366
द्वि	-11367
▁आगम	-11368
▁सत्	-11369
▁ताकी	-11370
▁दाने	-11371
▁पतली	-11372
▁रंगीन	-11373
▁सवारी	-11374
▁पैग़ाम	-11375
▁रिसर्च	-11376
▁विद्वत	-11377
द्योगिकी	-11378
▁निर्दोष	-11379
▁विन्यस्त	-11380
▁उपराष्ट्रपति	-11381
डक	-11382
-20	-11383
अंग	-11384
धरी	-11385
▁शह	-11386
NAME	-11387
पुरी	-11388
▁अरा	-11389
▁निल	-11390
कर्मी	-11391
▁बहरे	-11392
▁बिछा	-11393
▁बुर्	-11394
▁मेटा	-11395
▁सपना	-11396
▁खुदाई	-11397
▁फीसदी	-11398
▁रियास	-11399
▁हुसैन	-11400
▁खुशहाली	-11401
▁निदेशालय	-11402
▁सब्जियों	-11403
▁न्यायमूर्ति	-11404
ोध	-11405
गिक	-11406
चों	-11407
छता	-11408
बैक	-11409
िंट	-11410
ूर्	-11411
ंटिक	-11412
राबत	-11413
पतियों	-11414
ापूर्व	-11415
▁फ्लैग	-11416
▁समाना	-11417
▁स्वर्	-11418
▁योद्धा	-11419
▁जिन्नात	-11420
▁पासपोर्ट	-11421
▁प्रतिभाग	-11422
▁सांकेतिक	-11423
▁एल्गोरिथ्म	-11424
▁भविष्यवाणी	-11425
.8	-11426
ल्थ	-11427
बूवत	-11428
▁अकृत	-11429
▁सउदी	-11430
जहन्नम	-11431
▁क़राबत	-11432
▁कारीगर	-11433
▁बाग़ात	-11434
▁व्यंजन	-11435
▁व्यतीत	-11436
▁अभिनेता	-11437
iss	-11438
टाइ	-11439
शंस	-11440
ahoo	-11441
▁फूँक	-11442
▁बताई	-11443
▁सर्प	-11444
▁क्रिस	-11445
▁गिरने	-11446
▁बैठें	-11447
▁विघटन	-11448
▁उन्मुख	-11449
▁जहन्नुमी	-11450
▁उपन्यासों	-11451
▁सशक्तीकरण	-11452
▁अनुपस्थिति	-11453
ंझ	-11454
.02	-11455
IME	-11456
ong	-11457
टुक	-11458
एसटी	-11459
ृश्य	-11460
ोल्ट	-11461
▁आति	-11462
▁फुल	-11463
▁संपी	-11464
▁इलाके	-11465
▁उठाते	-11466
▁तुलसी	-11467
▁पच्ची	-11468
▁लॉन्च	-11469
▁विकृत	-11470
▁श्रोत	-11471
▁श्वास	-11472
▁सिंगा	-11473
▁स्पेन	-11474
▁डिज़ाइन	-11475
▁आज्ञापालन	-11476
निधि	-11477
यकों	-11478
रेशन	-11479
▁दृश	-11480
▁वॉल	-11481
मक्का	-11482
▁डिबग	-11483
▁बदली	-11484
▁बाईं	-11485
▁क्षेञ	-11486
▁तुच्छ	-11487
▁चिन्ता	-11488
▁तालमेल	-11489
▁सलामती	-11490
▁ब्राउज़	-11491
▁प्रायोजित	-11492
ue	-11493
ोब	-11494
बिन	-11495
मयी	-11496
able	-11497
गीता	-11498
▁अरे	-11499
▁उदर	-11500
▁घने	-11501
▁नित	-11502
▁उम्दा	-11503
▁तार्क	-11504
▁संप्रे	-11505
▁अकादमिक	-11506
▁साफ्टवेयर	-11507
ak	-11508
माइ	-11509
यरी	-11510
▁ऊन	-11511
▁आलू	-11512
थियों	-11513
ध्याय	-11514
▁डिजी	-11515
▁वरना	-11516
विद्या	-11517
▁अकादे	-11518
▁अवसाद	-11519
▁मालों	-11520
▁गुप्ता	-11521
▁अपराधों	-11522
▁उत्तेजित	-11523
▁निर्भरता	-11524
▁विनियमों	-11525
.4	-11526
.00	-11527
ब्स	-11528
न्हा	-11529
हमें	-11530
ाइंट	-11531
▁घों	-11532
बन्धी	-11533
▁अवरो	-11534
▁तबाह	-11535
▁सभ्य	-11536
▁क़द्र	-11537
▁ख़ौफ़	-11538
▁हिमनद	-11539
प्लिकेशन	-11540
▁प्रभारित	-11541
▁मुताबिक़	-11542
33	-11543
कुशल	-11544
गांव	-11545
तेरा	-11546
बिले	-11547
▁कैन	-11548
▁कैर	-11549
▁चौक	-11550
▁शाल	-11551
▁सैर	-11552
पुत्र	-11553
▁खाका	-11554
▁छाती	-11555
▁लगों	-11556
▁सॉफ़	-11557
▁अन्‍य	-11558
▁जायगा	-11559
▁जीवनी	-11560
▁मनाने	-11561
▁पुरातन	-11562
▁समझाया	-11563
▁सीमेंट	-11564
▁कित्तूर	-11565
▁संप्रती	-11566
▁नागरिकता	-11567
▁पुनरावृत्ति	-11568
फि	-11569
.04	-11570
ऐसी	-11571
वालो	-11572
▁अमी	-11573
▁फीट	-11574
▁लौह	-11575
▁1957	-11576
▁मारी	-11577
▁सूखी	-11578
▁तलवार	-11579
▁मिलें	-11580
ापूर्वक	-11581
▁क्रमिक	-11582
▁ख्याति	-11583
▁निकालता	-11584
▁निकालते	-11585
नोम	-11586
ालो	-11587
▁जौ	-11588
▁नाभ	-11589
▁फोर	-11590
संहार	-11591
▁आईएस	-11592
▁उठने	-11593
▁एंटी	-11594
▁पोशा	-11595
▁बाला	-11596
▁क्रोम	-11597
▁डालकर	-11598
▁लगाये	-11599
▁साम्य	-11600
▁निकलना	-11601
▁नीलामी	-11602
▁पराजित	-11603
▁वृद्धा	-11604
▁सम्मुख	-11605
▁करूणाकर	-11606
▁गुंजाइश	-11607
▁फ़ंक्शन	-11608
▁आस्तियां	-11609
▁स्वादिष्ट	-11610
ber	-11611
der	-11612
माम	-11613
सें	-11614
▁लू	-11615
ense	-11616
time	-11617
स्टा	-11618
▁घड़	-11619
▁तौल	-11620
▁रुख	-11621
▁इसमा	-11622
▁खाया	-11623
म्परिक	-11624
▁मरतबा	-11625
▁सुप्र	-11626
▁कम्युन	-11627
▁ग्रीष्म	-11628
▁पात्रों	-11629
▁नवान्वेषी	-11630
▁POP	-11631
▁नेप	-11632
▁मदर	-11633
▁मोक	-11634
▁चौदह	-11635
▁परमा	-11636
▁ब्ले	-11637
▁कब्जे	-11638
▁दिखाओ	-11639
▁बनारस	-11640
▁बूढ़े	-11641
▁मानवा	-11642
▁स्केल	-11643
तापूर्ण	-11644
▁अंधेरे	-11645
▁इकाइयां	-11646
▁कालावधि	-11647
▁चौपायों	-11648
▁अतिमानसिक	-11649
▁प्रत्युत्तर	-11650
.7	-11651
ai	-11652
▁चैट	-11653
▁तलब	-11654
देशिक	-11655
शीर्ष	-11656
ोनिया	-11657
▁त्यौ	-11658
▁बांड	-11659
▁बेपर	-11660
▁सूरा	-11661
▁बैटरी	-11662
▁आश्रित	-11663
▁ख़िलाफ	-11664
▁नौजवान	-11665
▁क्रियान्वित	-11666
ंए	-11667
शै	-11668
ूरा	-11669
▁(5	-11670
ख़ते	-11671
▁245	-11672
▁ठान	-11673
▁मिश	-11674
ज़िले	-11675
▁अंडा	-11676
▁चौथे	-11677
▁ज्वर	-11678
▁ढलान	-11679
▁फोकस	-11680
▁बंधक	-11681
पीडीएफ	-11682
▁2014)	-11683
▁अवहेल	-11684
▁पेरिस	-11685
▁बन्दा	-11686
▁करेंगी	-11687
▁मुम्बई	-11688
▁समझदार	-11689
▁प्रतिबंधित	-11690
क़ीन	-11691
▁तने	-11692
▁मैन	-11693
मेन्ट	-11694
स्‍तु	-11695
▁क़ौल	-11696
ग्राही	-11697
▁क़्या	-11698
▁कारों	-11699
▁ग़ज़ब	-11700
▁घंटों	-11701
▁तौरेत	-11702
▁बुखार	-11703
व्यक्ति	-11704
▁ख़राबी	-11705
▁तारीख़	-11706
▁ड्राइवर	-11707
▁अभिलेखों	-11708
▁पंचवर्षीय	-11709
av	-11710
ep	-11711
छु	-11712
हण	-11713
ोदय	-11714
▁CO	-11715
▁गॉ	-11716
उनका	-11717
न्डी	-11718
▁नाच	-11719
ोरिया	-11720
▁ग़ैब	-11721
▁पौधा	-11722
▁वकाल	-11723
बेहश्त	-11724
ोग्राफ	-11725
▁अपडेट	-11726
▁ईरानी	-11727
▁फरमाए	-11728
▁लुप्त	-11729
▁वैद्य	-11730
▁ग्रंथि	-11731
▁झुठलाए	-11732
▁प्रताप	-11733
▁आन्तरिक	-11734
▁कामगारों	-11735
▁मुशरिकों	-11736
▁विनियमित	-11737
IC	-11738
बुक	-11739
भीत	-11740
ालक	-11741
▁("	-11742
▁हठ	-11743
ेशकश	-11744
▁तेर	-11745
▁मधु	-11746
ताकार	-11747
फॉर्म	-11748
▁आरेख	-11749
▁चोटी	-11750
▁नवाब	-11751
▁केलिए	-11752
▁तिमाही	-11753
कुफ्फ़ार	-11754
▁धूम्रपान	-11755
▁लानेवालों	-11756
गाव	-11757
राइ	-11758
▁थै	-11759
त्था	-11760
निस्	-11761
पैदा	-11762
▁(18	-11763
▁खडे	-11764
▁चाप	-11765
▁पला	-11766
▁विस	-11767
▁1971	-11768
▁उपगत	-11769
▁कंधे	-11770
▁फायर	-11771
▁आवंटन	-11772
▁इंसान	-11773
▁परमिट	-11774
▁स्टील	-11775
▁मतदाता	-11776
▁व्यवसा	-11777
▁हनुमान	-11778
▁निम्नतर	-11779
▁कार्यवाहियों	-11780
आम	-11781
पस	-11782
-11	-11783
con	-11784
ock	-11785
▁ऐब	-11786
वाहक	-11787
▁खोख	-11788
▁टोक	-11789
▁मद्	-11790
▁मोज	-11791
▁अठार	-11792
▁अधिर	-11793
▁बर्न	-11794
▁बैठो	-11795
▁वाजि	-11796
▁बायाँ	-11797
▁स्वेच्छा	-11798
करे	-11799
धना	-11800
▁54	-11801
पुरम	-11802
▁आशी	-11803
ारायण	-11804
▁लाइट	-11805
▁गिर्द	-11806
▁पेशकश	-11807
▁डीपीआई	-11808
▁पाबन्द	-11809
▁अकादेमी	-11810
▁त्यौहार	-11811
▁पूर्वान	-11812
▁वस्तुएँ	-11813
▁कर्मियों	-11814
▁परिष्कृत	-11815
▁मानदंडों	-11816
▁राष्‍ट्र	-11817
▁समारोहों	-11818
▁मान्यताप्राप्त	-11819
hel	-11820
च्य	-11821
ताई	-11822
ध्द	-11823
बाब	-11824
सीए	-11825
जिये	-11826
वाहा	-11827
▁जाँ	-11828
▁वात	-11829
▁शार	-11830
▁1976	-11831
▁दरें	-11832
▁वाकि	-11833
▁वासी	-11834
▁अंकुर	-11835
▁भूगोल	-11836
▁यमुना	-11837
▁रीसेट	-11838
ोनेशिया	-11839
▁घटनाएं	-11840
▁सन्दर्भ	-11841
▁समाविष्ट	-11842
▁प्रेमचन्द	-11843
▁उपयोगकर्ताओं	-11844
ंशी	-11845
कोड	-11846
डेड	-11847
क्से	-11848
टर्स	-11849
द्दत	-11850
मस्त	-11851
ात्य	-11852
▁मकर	-11853
वाहिक	-11854
▁"{0}	-11855
▁खाकर	-11856
▁पीले	-11857
▁काल्प	-11858
▁ख़रीद	-11859
▁चूर्ण	-11860
▁अस्त्र	-11861
▁वशीभूत	-11862
▁अकृतज्ञ	-11863
▁चिड़िया	-11864
▁प्रेमचंद	-11865
▁नगरपालिका	-11866
▁श्रीकृष्ण	-11867
▁कार्यकर्ता	-11868
ईस	-11869
ary	-11870
थिल	-11871
▁छल	-11872
र्वे	-11873
▁कंस	-11874
▁कस्	-11875
▁चंद	-11876
▁पौध	-11877
एशिया	-11878
बुद्ध	-11879
म्बित	-11880
ल्पित	-11881
▁जोशी	-11882
▁विषम	-11883
▁"{0}"	-11884
▁खोलना	-11885
▁श्रव्य	-11886
▁संकलित	-11887
▁स्नायु	-11888
▁मेगावाट	-11889
▁वामपंथी	-11890
▁काल्पनिक	-11891
▁सुसज्जित	-11892
▁कार्मिकों	-11893
▁आतंकवादियों	-11894
9)	-11895
थो	-11896
फन	-11897
सचि	-11898
ादित	-11899
▁गरम	-11900
▁याक	-11901
▁ग़लत	-11902
▁लकीर	-11903
▁अपनाए	-11904
▁इनायत	-11905
▁खतरों	-11906
▁पहुँचाए	-11907
▁संदिग्ध	-11908
▁अवस्थाओं	-11909
▁जानेवाली	-11910
▁नाफरमानी	-11911
▁translate	-11912
▁अंतर्वस्तु	-11913
▁अर्थशास्त्र	-11914
▁उत्तराधिकार	-11915
सेफ	-11916
▁51	-11917
▁एत	-11918
ound	-11919
चुअल	-11920
▁आमा	-11921
▁जनन	-11922
मूल्य	-11923
▁(197	-11924
▁जंतु	-11925
ान्वित	-11926
▁उजागर	-11927
▁खुदरा	-11928
▁पॉपअप	-11929
▁सांसद	-11930
▁आरोग्य	-11931
▁निर्जीव	-11932
स्क्रिप्ट	-11933
▁पुस्‍तकालय	-11934
-15	-11935
aoM	-11936
one	-11937
फाय	-11938
सेज	-11939
बड़ा	-11940
राग़	-11941
र्डर	-11942
विंग	-11943
▁इफ़	-11944
▁बगी	-11945
▁हेम	-11946
▁हेल	-11947
िविटी	-11948
▁चमत्	-11949
▁टेलि	-11950
▁निवल	-11951
▁लड़ा	-11952
▁सतत्	-11953
▁सुल्	-11954
▁संकुल	-11955
प्रतिशत	-11956
▁इक़रार	-11957
ष्‍ट्रीय	-11958
▁अस्वीकृत	-11959
▁सुपुर्दगी	-11960
▁सेवानिवृत्ति	-11961
%)	-11962
धु	-11963
ite	-11964
सरे	-11965
ेतन	-11966
ोही	-11967
ौना	-11968
▁बँ	-11969
क़ुर	-11970
▁Chr	-11971
▁एंट	-11972
▁कुद	-11973
▁तद्	-11974
ublic	-11975
▁ख़ाक	-11976
▁जर्न	-11977
▁पीएम	-11978
▁भावा	-11979
▁मुवा	-11980
▁मेवे	-11981
▁मोटा	-11982
▁२००८	-11983
स्फीति	-11984
▁देखती	-11985
▁बदलता	-11986
▁भवनों	-11987
▁मंडली	-11988
▁अवधारण	-11989
▁चिकित्	-11990
▁ड्रग्स	-11991
▁दुरुपयोग	-11992
▁प्रोफाइल	-11993
▁विधानमंडल	-11994
▁राष्ट्रीयता	-11995
▁कार्यकर्ताओं	-11996
ati	-11997
▁46	-11998
▁नट	-11999
फ़िर	-12000
▁400	-12001
▁गुज	-12002
▁बरी	-12003
▁लेब	-12004
वाद्य	-12005
▁IMAP	-12006
▁अभ्य	-12007
▁फर्श	-12008
▁लड़ो	-12009
icense	-12010
▁उपनाम	-12011
▁पेशवा	-12012
▁लम्बा	-12013
▁रणनीतिक	-12014
▁ट्रैकिंग	-12015
ढी	-12016
ङ्ग	-12017
न्ज	-12018
रंग	-12019
▁56	-12020
श्मी	-12021
हायत	-12022
▁कैप	-12023
खियों	-12024
▁जाऊँ	-12025
▁फेरे	-12026
▁संसू	-12027
▁अंकों	-12028
▁उखाड़	-12029
▁ओडिशा	-12030
▁औषधीय	-12031
▁दुशमन	-12032
▁वकालत	-12033
▁पत्तों	-12034
▁आश्वस्त	-12035
▁मुनासिब	-12036
▁पत्तियों	-12037
▁प्रायोगिक	-12038
▁प्रयोगशालाओं	-12039
खख	-12040
ठों	-12041
नेल	-12042
संक	-12043
सिस	-12044
▁09	-12045
ज़रत	-12046
नाइट	-12047
▁इलै	-12048
▁गों	-12049
▁बेन	-12050
धुनिक	-12051
स्कृत	-12052
▁अर्ह	-12053
▁लिहा	-12054
▁लीटर	-12055
▁दुर्ग	-12056
▁प्रसि	-12057
▁बदलकर	-12058
▁स्तूप	-12059
▁अविश्वास	-12060
▁कार्यशील	-12061
▁अनुमतियाँ	-12062
▁पाश्चात्य	-12063
ip	-12064
इस्	-12065
आईडी	-12066
▁आड़	-12067
▁झाँ	-12068
▁बेज	-12069
न्नति	-12070
▁उष्ण	-12071
▁तरंग	-12072
▁भरना	-12073
▁शुएब	-12074
▁श्ले	-12075
▁हम्द	-12076
मुक्ति	-12077
▁कुष्ठ	-12078
▁दिखने	-12079
▁निस्प	-12080
▁कर्त्त	-12081
▁रिसालत	-12082
▁अवहेलना	-12083
▁महोत्सव	-12084
▁सब्सिडी	-12085
▁स्ट्रीम	-12086
▁उत्तेजना	-12087
▁वाक्यांश	-12088
▁स्वर्गीय	-12089
▁उन्‍होंने	-12090
859	-12091
लिन	-12092
डीटी	-12093
तापा	-12094
ोहित	-12095
▁आत्	-12096
▁नें	-12097
▁स्फ	-12098
घोषणा	-12099
ज़रूर	-12100
ज़ीलत	-12101
तौरेत	-12102
▁अस्व	-12103
▁लिखत	-12104
▁सेतु	-12105
श्लेषण	-12106
▁किस्त	-12107
▁खुराक	-12108
▁रोबोट	-12109
त्तियां	-12110
स्तियाँ	-12111
▁वर्षीय	-12112
▁यूनिकोड	-12113
▁संक्रामक	-12114
▁होनेवाले	-12115
▁विशिष्टता	-12116
इए	-12117
अभि	-12118
नरी	-12119
भोज	-12120
यीं	-12121
▁३०	-12122
कथित	-12123
र्तन	-12124
▁अयो	-12125
▁गौण	-12126
▁थोक	-12127
▁सवे	-12128
ंसीसी	-12129
चर्या	-12130
देशीय	-12131
िब्यू	-12132
▁अभूत	-12133
▁आभास	-12134
▁चौथी	-12135
▁रूढ़	-12136
▁वीणा	-12137
पोरेशन	-12138
बुद्धि	-12139
▁चलाता	-12140
▁दावों	-12141
▁भोपाल	-12142
▁अरविंद	-12143
▁खिड़की	-12144
▁खूबसूरत	-12145
▁प्रशंसनीय	-12146
▁प्रतिष्ठान	-12147
if	-12148
est	-12149
ोला	-12150
सलाम	-12151
▁हेर	-12152
▁०००	-12153
समन्व	-12154
▁अक्ल	-12155
▁आच्छ	-12156
▁कुकी	-12157
▁बिंब	-12158
▁लौटे	-12159
▁अगलों	-12160
▁अनुमत	-12161
▁चढ़ाई	-12162
▁नोबेल	-12163
▁शिश्न	-12164
▁उठाएगा	-12165
▁घुटनों	-12166
▁फ़ैसले	-12167
▁पात्रता	-12168
▁परिप्रेक्ष्य	-12169
SS	-12170
एआर	-12171
▁अछ	-12172
ृंगार	-12173
▁ठंडा	-12174
▁नर्इ	-12175
▁खरगोश	-12176
▁चैत्य	-12177
▁नाजुक	-12178
▁राक्ष	-12179
▁विफलता	-12180
▁सामग्र	-12181
▁कंप्यूट	-12182
▁तार्किक	-12183
▁पर्वतों	-12184
▁बुद्धिमान	-12185
▁अनिवार्यतः	-12186
23	-12187
नक	-12188
कोच	-12189
चुप	-12190
बेर	-12191
िले	-12192
▁एर	-12193
न्नी	-12194
ब्लू	-12195
सराय	-12196
▁जना	-12197
▁मित	-12198
▁उपजा	-12199
▁मामल	-12200
▁व्रत	-12201
▁पत्ता	-12202
▁बख़्श	-12203
▁भयभीत	-12204
▁वायरस	-12205
सामान्य	-12206
▁कुत्ता	-12207
▁जुटाने	-12208
▁सहेजना	-12209
▁स्वराज	-12210
▁प्रथाओं	-12211
▁बढ़ोतरी	-12212
▁सम्बंधित	-12213
▁सिंगापुर	-12214
▁परिवीक्षा	-12215
▁प्रोग्रामिंग	-12216
ode	-12217
यानि	-12218
विद्	-12219
स्वा	-12220
▁अवत	-12221
▁खड़	-12222
▁पिन	-12223
▁अष्ट	-12224
▁गायन	-12225
▁घुड़	-12226
▁चाचा	-12227
▁जीना	-12228
▁झुके	-12229
▁लोकल	-12230
▁नियति	-12231
▁बदलती	-12232
▁स्पर्	-12233
▁क्योकि	-12234
▁जनगणना	-12235
▁मिलेंगे	-12236
▁कहानियां	-12237
▁उत्तराखंड	-12238
▁शिष्टमंडल	-12239
.?	-12240
EL	-12241
ुण	-12242
ION	-12243
फिल	-12244
ैमान	-12245
▁खली	-12246
▁न्य	-12247
▁मुस	-12248
आयामी	-12249
▁क्ले	-12250
▁खगोल	-12251
▁बनाम	-12252
▁विनिया	-12253
▁मैदानों	-12254
▁समाजवाद	-12255
▁अंतर्निहित	-12256
96	-12257
ौफ	-12258
१८	-12259
कित	-12260
बुद	-12261
ोलो	-12262
▁ठा	-12263
गुप्त	-12264
वश्यक	-12265
आधारित	-12266
▁2017)	-12267
▁जातीय	-12268
▁तूफान	-12269
▁सज्जन	-12270
▁परंतुक	-12271
▁रियायत	-12272
▁शैतानों	-12273
▁संकेतों	-12274
▁नवीकरणीय	-12275
▁प्रस्थान	-12276
▁प्रक्षेपण	-12277
▁सॉफ़्टवेयर	-12278
▁तफ	-12279
कारक	-12280
कोटा	-12281
क्रे	-12282
▁ग्व	-12283
▁वृह	-12284
▁शीट	-12285
▁सिग	-12286
बाज़ी	-12287
▁कब्र	-12288
▁निरे	-12289
▁चतुर्	-12290
▁ठहराव	-12291
▁डालेगा	-12292
▁अफ्रीकी	-12293
▁विलक्षण	-12294
▁शुभारंभ	-12295
▁देनेवाली	-12296
▁स्वीकारें	-12297
पील	-12298
▁42	-12299
चनों	-12300
जोरम	-12301
मुक़	-12302
सचिव	-12303
▁सिड	-12304
क्रेट	-12305
▁अंचल	-12306
▁अम्र	-12307
▁मादक	-12308
▁लीला	-12309
▁सीसी	-12310
जिसमें	-12311
▁द्रुत	-12312
▁सेकंड	-12313
कांक्षी	-12314
▁जोड़ता	-12315
▁तोड़ने	-12316
_0	-12317
ब्‍	-12318
ेली	-12319
▁49	-12320
▁उँ	-12321
▁जज	-12322
डीपी	-12323
नीचर	-12324
मांड	-12325
ॉर्क	-12326
मावली	-12327
▁इक्व	-12328
▁पारे	-12329
▁फ़ोन	-12330
▁अहसास	-12331
▁चमड़े	-12332
▁प्रचलन	-12333
▁प्रोसेस	-12334
▁केन्द्री	-12335
▁चिकित्सीय	-12336
▁साझीदारों	-12337
अभी	-12338
मिस	-12339
रिश	-12340
र्दा	-12341
हानि	-12342
▁जगम	-12343
▁साद	-12344
चिन्ह	-12345
त्रिक	-12346
▁1970	-12347
▁एंटर	-12348
▁ठेके	-12349
▁एकांत	-12350
▁डेयरी	-12351
▁बढावा	-12352
▁मार्ट	-12353
▁लेगें	-12354
▁should	-12355
▁चुनेंः	-12356
▁चेष्टा	-12357
▁मन्दिर	-12358
▁स्कूली	-12359
▁अखबारों	-12360
▁जुर्माना	-12361
▁पत्रिकाओं	-12362
▁सुविधाजनक	-12363
▁अंतर्विष्ट	-12364
▁विश्वव्यापी	-12365
▁साम्राज्यवाद	-12366
खल	-12367
39;	-12368
यती	-12369
समी	-12370
ुका	-12371
्रम	-12372
▁मथ	-12373
▁खाम	-12374
▁पदो	-12375
▁सुथ	-12376
▁हाज	-12377
त्रों	-12378
▁1930	-12379
▁1951	-12380
▁1989	-12381
▁इर्द	-12382
▁नरेश	-12383
▁बचना	-12384
▁बिठा	-12385
▁रुग्	-12386
▁लाये	-12387
▁षड्य	-12388
प्रसार	-12389
▁जेम्स	-12390
▁बेलार	-12391
▁मनाही	-12392
▁सिन्ध	-12393
▁क़ब्रों	-12394
▁इंटरनेशनल	-12395
▁सांख्यिकी	-12396
▁संस्कृतियों	-12397
ink	-12398
कौन	-12399
ग़ा	-12400
लाव	-12401
ूवत	-12402
गणित	-12403
विरो	-12404
ारसी	-12405
▁एके	-12406
▁बाइ	-12407
▁बेश	-12408
▁बैच	-12409
▁यहा	-12410
त्तरी	-12411
धिकरण	-12412
र्वाद	-12413
▁#39;	-12414
▁1974	-12415
▁फिरो	-12416
▁रोटी	-12417
▁चौथाई	-12418
▁अलंकृत	-12419
▁आक्षेप	-12420
▁उल्लास	-12421
▁ग़नीमत	-12422
▁विरोधा	-12423
▁दर्शाने	-12424
▁पहचानते	-12425
▁समानांतर	-12426
▁पारम्परिक	-12427
ure	-12428
पने	-12429
चकों	-12430
मिति	-12431
सम्प	-12432
▁चाइ	-12433
मौजूद	-12434
ुक्री	-12435
▁उकसा	-12436
हरगिज़	-12437
▁आखेरत	-12438
▁कथाओं	-12439
▁कर्सर	-12440
▁जार्ज	-12441
▁बढाने	-12442
▁याकूब	-12443
▁विषयक	-12444
▁प्ररूप	-12445
▁मानसून	-12446
▁मुखिया	-12447
▁हक़दार	-12448
▁हाशिया	-12449
▁मंज़िले	-12450
▁व्यक़्ति	-12451
▁पड़ोसियों	-12452
GenericName	-12453
▁प्रतिभागियों	-12454
्क	-12455
API	-12456
vii	-12457
खनन	-12458
दिवस	-12459
ीर्ण	-12460
▁दरा	-12461
▁हूद	-12462
त्नों	-12463
▁किर्	-12464
▁गनोम	-12465
▁बहाल	-12466
▁उद्गम	-12467
▁दशाओं	-12468
▁मिजोरम	-12469
▁यूनिटों	-12470
▁वैधानिक	-12471
▁असमर्थित	-12472
▁इस्लामिक	-12473
▁ट्रिब्यू	-12474
▁मुनाफ़िक़	-12475
▁अल्पसंख्यक	-12476
▁किताबवालों	-12477
▁महाविद्यालय	-12478
SA	-12479
साल	-12480
▁--	-12481
उससे	-12482
गमूल	-12483
फिरत	-12484
▁डिफ	-12485
▁रिच	-12486
.2012	-12487
▁छड़ी	-12488
▁पूंछ	-12489
▁बाते	-12490
▁लगीं	-12491
▁लाठी	-12492
सरतापा	-12493
▁खारिज	-12494
▁तारीफ	-12495
▁वीर्य	-12496
▁शिविर	-12497
▁सकोगे	-12498
▁सपनों	-12499
▁सुगंध	-12500
▁तीक्ष्	-12501
▁विंडोज़	-12502
▁पंचायतों	-12503
▁मुनाफिक़	-12504
▁यांत्रिक	-12505
▁रूपांतरित	-12506
▁सहिष्णुता	-12507
ंबू	-12508
▁CD	-12509
पिंग	-12510
बारक	-12511
▁नफर	-12512
▁अनवर	-12513
स्थायी	-12514
▁असंगत	-12515
▁आंत्र	-12516
▁गवर्न	-12517
▁घनत्व	-12518
▁जाहिल	-12519
▁नक्शे	-12520
▁पूछना	-12521
▁भागने	-12522
▁माँगा	-12523
▁माणिक	-12524
▁लार्ड	-12525
▁आर्द्र	-12526
▁कुत्ते	-12527
▁पालिसी	-12528
▁प्रचंड	-12529
▁फ़ायदा	-12530
▁मेघालय	-12531
▁वाहनों	-12532
▁एनआईओएस	-12533
▁कलाकृति	-12534
▁हस्तशिल्प	-12535
▁छात्रवृत्ति	-12536
▁प्रतिस्थापित	-12537
हॉ	-12538
िग	-12539
उदा	-12540
▁(6	-12541
▁ओं	-12542
▁थक	-12543
ovin	-12544
unit	-12545
निष्	-12546
यानी	-12547
राइड	-12548
▁250	-12549
▁अचल	-12550
▁खाँ	-12551
▁श्ल	-12552
▁इनाम	-12553
▁दायी	-12554
▁पिंड	-12555
▁बापू	-12556
▁हिफा	-12557
शिक्षा	-12558
समन्वय	-12559
▁बिगड़	-12560
▁बोलना	-12561
▁अदायगी	-12562
▁डेल्टा	-12563
▁अनुकूलन	-12564
▁निवेदित	-12565
▁वर्गमूल	-12566
▁प्रायद्वीप	-12567
▁यूनिवर्सिटी	-12568
केश	-12569
चलन	-12570
पड़	-12571
मुक	-12572
वने	-12573
▁8.	-12574
एमसी	-12575
टिया	-12576
दीने	-12577
ल्हा	-12578
▁फीड	-12579
▁वरन	-12580
▁शिष	-12581
▁अदाल	-12582
▁कचरे	-12583
▁2013)	-12584
▁ताकीद	-12585
▁पुण्य	-12586
▁हवाओं	-12587
▁जोरदार	-12588
▁साहसिक	-12589
▁सीमांत	-12590
▁स्वरुप	-12591
तुम्हारा	-12592
▁License	-12593
▁व्यतिक्र	-12594
▁अभूतपूर्व	-12595
अफ	-12596
ide	-12597
रोग	-12598
ूसी	-12599
ान्स	-12600
▁कंज	-12601
▁बूझ	-12602
▁टोकन	-12603
▁मसले	-12604
▁रचित	-12605
france	-12606
▁कराती	-12607
▁डायरे	-12608
▁अस्थाई	-12609
▁गर्भाव	-12610
▁दाहिनी	-12611
▁मुर्गी	-12612
▁यथासंभव	-12613
▁सुलझाने	-12614
▁प्राधिकारियों	-12615
मात	-12616
यूर	-12617
▁03	-12618
▁पण	-12619
फिया	-12620
▁120	-12621
ोलनों	-12622
▁गिड़	-12623
▁टाटा	-12624
ियुक्त	-12625
▁ट्रेन	-12626
▁तुर्क	-12627
▁रुपया	-12628
▁समझकर	-12629
त्वर्ती	-12630
▁बाधाओं	-12631
▁लाज़िम	-12632
▁जिन्होने	-12633
▁चुनौतियां	-12634
▁लोकप्रियता	-12635
अव	-12636
”,	-12637
पीय	-12638
वरा	-12639
▁लश	-12640
▁२२	-12641
ंतीय	-12642
िबंध	-12643
ुकता	-12644
▁गली	-12645
नीयता	-12646
ोत्तर	-12647
▁क़ब्	-12648
▁जोकि	-12649
indows	-12650
▁निचली	-12651
▁बीजों	-12652
▁सेक्स	-12653
▁डिजीटल	-12654
▁सर्किट	-12655
▁कविताएं	-12656
▁वचनबद्ध	-12657
▁कार्यभार	-12658
▁कट्टरपंथी	-12659
▁निर्देशांक	-12660
▁पश्चात्वर्ती	-12661
36	-12662
gt	-12663
ैड	-12664
एनए	-12665
लता	-12666
▁64	-12667
इससे	-12668
जन्य	-12669
ण्डी	-12670
शंसा	-12671
सहाय	-12672
ालाल	-12673
▁गिल	-12674
▁चूर	-12675
▁बान	-12676
▁राग	-12677
आज्ञा	-12678
गिर्द	-12679
ज़ाबे	-12680
▁1946	-12681
▁अनुभ	-12682
▁गायक	-12683
▁दहला	-12684
▁भागे	-12685
ड़ियां	-12686
▁निषेध	-12687
▁फैलाया	-12688
▁भूमिगत	-12689
▁रिटर्न	-12690
▁विद्यु	-12691
▁विनियामक	-12692
▁सहकारिता	-12693
na	-12694
oft	-12695
वृत	-12696
अपील	-12697
आरटी	-12698
धाना	-12699
पद्ध	-12700
▁फास	-12701
▁वोट	-12702
लियां	-12703
▁ऑब्ज	-12704
▁खेला	-12705
▁खोली	-12706
▁नाशु	-12707
▁श्लो	-12708
णात्मक	-12709
▁अब्बा	-12710
▁अवक्ष	-12711
▁आजीवन	-12712
▁दबाएँ	-12713
▁ह्रास	-12714
▁स्थावर	-12715
▁प्रतिद्व	-12716
▁संरचनात्मक	-12717
घ्न	-12718
मरी	-12719
वुड	-12720
िटल	-12721
▁थल	-12722
▁बृ	-12723
here	-12724
ोसिस	-12725
▁कसम	-12726
▁डबल	-12727
▁धरा	-12728
▁1972	-12729
▁कोटा	-12730
▁नफरत	-12731
तत्त्व	-12732
म्प्ले	-12733
▁चौधरी	-12734
▁जमीनी	-12735
▁पक्की	-12736
▁विहार	-12737
▁गवाहों	-12738
▁बुलाने	-12739
▁महावीर	-12740
▁मिटाया	-12741
▁करोड़ों	-12742
▁संभालने	-12743
▁नागालैंड	-12744
▁अपरिहार्य	-12745
गं	-12746
चय	-12747
रज	-12748
out	-12749
ोधन	-12750
▁वश	-12751
करार	-12752
istan	-12753
▁मवेश	-12754
जीरिया	-12755
ष्ट्री	-12756
सन्देह	-12757
▁अभ्या	-12758
▁टैक्स	-12759
▁राजीव	-12760
▁श्रोता	-12761
▁इमारतों	-12762
▁उच्चारण	-12763
▁गोलाकार	-12764
▁चंडीगढ़	-12765
▁रोज़गार	-12766
▁टेलीविजन	-12767
▁दुनियावी	-12768
▁प्रतिपूर्ति	-12769
OS	-12770
णित	-12771
नोट	-12772
▁04	-12773
▁हीन	-12774
गाड़ी	-12775
पात्र	-12776
फोर्ड	-12777
▁1985	-12778
▁ऑफिस	-12779
▁दादी	-12780
▁पीते	-12781
▁प्रत	-12782
▁यकता	-12783
▁सींग	-12784
▁ध्रुव	-12785
▁फील्ड	-12786
▁लंबवत	-12787
▁वैधता	-12788
▁अमृतसर	-12789
▁कुर्सी	-12790
▁जाऊँगा	-12791
▁माँगने	-12792
▁ज़िल्लत	-12793
▁मार्केट	-12794
▁श्लोकों	-12795
▁ऑपरेटिंग	-12796
▁कोशिकाएं	-12797
▁सक्रियता	-12798
▁एप्लिकेशन	-12799
▁विश्वयुद्ध	-12800
34	-12801
।]	-12802
वीएस	-12803
स्का	-12804
िंदा	-12805
▁गंग	-12806
▁पसी	-12807
▁लसी	-12808
आधारी	-12809
महिला	-12810
▁आर्क	-12811
▁पावन	-12812
▁फ़ित	-12813
▁फिल्	-12814
▁मरना	-12815
सियानी	-12816
▁विक्ष	-12817
▁अदृश्य	-12818
▁कराधान	-12819
▁जोड़कर	-12820
▁निकटता	-12821
--------	-12822
▁इंटरफेस	-12823
▁संक्रमित	-12824
▁पाठ्यक्रमों	-12825
ऐं	-12826
mat	-12827
इन्	-12828
पाक	-12829
आरसी	-12830
बहार	-12831
बीएस	-12832
▁असु	-12833
▁एपी	-12834
▁बाण	-12835
▁मात	-12836
-8859	-12837
▁केबल	-12838
▁क्रे	-12839
▁नीले	-12840
▁फेरा	-12841
▁समाई	-12842
▁सहसा	-12843
▁साहा	-12844
पूर्वी	-12845
प्रभाव	-12846
▁क़ूवत	-12847
▁जमानत	-12848
▁तुझपर	-12849
▁दुहरा	-12850
▁झारखंड	-12851
▁तत्समय	-12852
▁नृत्‍य	-12853
▁बराबरी	-12854
▁अयोध्या	-12855
▁अध्यादेश	-12856
▁नाशुक्री	-12857
▁बैंककारी	-12858
▁संतोषजनक	-12859
▁सेटिंग्स	-12860
▁प्रातःकाल	-12861
उथ	-12862
गना	-12863
मिट	-12864
ोशी	-12865
▁4,	-12866
▁उच	-12867
▁कलम	-12868
ग्राह	-12869
▁आप्र	-12870
▁कृमि	-12871
▁डुबो	-12872
▁प्रक	-12873
▁जमारा	-12874
issions	-12875
▁अलंकरण	-12876
▁आईसीटी	-12877
▁पहुंची	-12878
▁प्रोद्	-12879
▁बर्बाद	-12880
▁कुटुम्ब	-12881
▁शुरुआती	-12882
▁प्रबन्धन	-12883
26	-12884
89	-12885
EAD	-12886
कवि	-12887
पशप	-12888
्रह	-12889
व्रत	-12890
▁अधी	-12891
बॉक्स	-12892
▁ईश्व	-12893
▁गपशप	-12894
▁रोजे	-12895
▁स्लो	-12896
▁आवधिक	-12897
▁चार्ज	-12898
▁धाराओं	-12899
▁रहेगें	-12900
▁सुनाते	-12901
▁भिन्नता	-12902
▁अनावश्यक	-12903
))	-12904
int	-12905
झान	-12906
ेदन	-12907
▁ex	-12908
देही	-12909
बाने	-12910
ार्ध	-12911
▁ज्य	-12912
▁थाई	-12913
▁यूट	-12914
अच्छी	-12915
▁ईर्ष	-12916
▁कापी	-12917
▁शहीद	-12918
ब्तिला	-12919
▁ख़राब	-12920
▁तैनात	-12921
▁दोहरे	-12922
▁मंगोल	-12923
▁अतिक्र	-12924
▁अनदेखा	-12925
▁जोड़ते	-12926
▁बुलाता	-12927
▁मार्गों	-12928
▁अभिलाभों	-12929
▁आशीर्वाद	-12930
▁विधेयकों	-12931
▁संस्थापन	-12932
▁इलेक्ट्रॉनिक्स	-12933
.9	-12934
DU	-12935
-13	-12936
lay	-12937
इंग	-12938
▁आउ	-12939
फ्ता	-12940
मंडप	-12941
▁ठंड	-12942
सत्ता	-12943
हमारा	-12944
▁चालक	-12945
▁डेलि	-12946
▁दुरु	-12947
▁पीना	-12948
▁मुकर	-12949
▁कोर्स	-12950
▁ख्वाब	-12951
▁पूछने	-12952
▁मियाद	-12953
▁सतर्क	-12954
▁नामकरण	-12955
▁प्रलेख	-12956
▁असमानता	-12957
▁दर्शाते	-12958
▁बुद्धिम	-12959
▁कुंजीपटल	-12960
▁बस्तियाँ	-12961
▁कॉन्फ्रेंस	-12962
7,	-12963
de	-12964
वाज	-12965
ण्डे	-12966
ब्रह	-12967
▁साई	-12968
तावास	-12969
विहीन	-12970
▁1949	-12971
▁ऑप्ट	-12972
▁कमरा	-12973
▁गाइड	-12974
▁चर्म	-12975
▁मुल्	-12976
▁हमास	-12977
escrip	-12978
▁अकेली	-12979
▁अमिता	-12980
▁तालीम	-12981
▁बाधित	-12982
▁भत्ते	-12983
▁वृंदा	-12984
▁आतिथ्य	-12985
▁कमजोरी	-12986
▁ग्रीवा	-12987
▁पच्चीस	-12988
▁बढ़ाते	-12989
▁तथाकथित	-12990
▁रजिस्ट्रीकृत	-12991
uer	-12992
ंडर	-12993
ुम्	-12994
▁एप	-12995
गुना	-12996
पीपी	-12997
ल्पी	-12998
▁चलन	-12999
▁दोग	-13000
रूपता	-13001
▁1960	-13002
▁अकड़	-13003
▁कशेर	-13004
▁झुंड	-13005
▁तामी	-13006
▁यूएस	-13007
▁काटें	-13008
▁नक्का	-13009
▁पढ़ें	-13010
▁पुनरु	-13011
▁मारना	-13012
निर्मित	-13013
▁अभिभाव	-13014
▁युसुफ़	-13015
▁हुज्जत	-13016
▁फर्नीचर	-13017
▁तारामंडल	-13018
▁हड्डियाँ	-13019
▁राज्यपालों	-13020
-%	-13021
3,	-13022
ake	-13023
तिन	-13024
धरा	-13025
िसा	-13026
▁हॅ	-13027
▁ज़े	-13028
कानों	-13029
▁गिरी	-13030
▁टैंक	-13031
▁पर्ण	-13032
टुकड़े	-13033
लांटिक	-13034
▁टकराव	-13035
▁द्वेष	-13036
▁मोड़े	-13037
विन्यास	-13038
▁घोड़ों	-13039
▁क़ाबिले	-13040
▁प्रशस्त	-13041
▁षड्यंत्र	-13042
▁निकटवर्ती	-13043
▁न्यूयार्क	-13044
▁विद्यालयों	-13045
)?	-13046
आद	-13047
lex	-13048
चाई	-13049
बहु	-13050
ायब	-13051
्टन	-13052
एमएल	-13053
ख़्स	-13054
ड़ें	-13055
▁कटा	-13056
करिया	-13057
लीकरण	-13058
ारोपण	-13059
▁HEAD	-13060
▁कॉफी	-13061
▁छत्र	-13062
▁बंदी	-13063
▁मच्छ	-13064
टीएमएल	-13065
▁इबलीस	-13066
▁पुश्त	-13067
▁बताये	-13068
▁मक्खी	-13069
▁लॉर्ड	-13070
▁विजयी	-13071
▁समझें	-13072
ोग्राफी	-13073
▁10,000	-13074
▁Chrome	-13075
▁आवंटित	-13076
▁गिड़गि	-13077
▁फ़ोल्ड	-13078
▁बनवाया	-13079
▁मुनाफे	-13080
▁बर्निंग	-13081
▁प्रस्तुतीकरण	-13082
▁मनोवैज्ञानिक	-13083
IP	-13084
rou	-13085
कोल	-13086
चढ़	-13087
ज़ु	-13088
तुर	-13089
▁ऋष	-13090
ज़ाह	-13091
भाषी	-13092
▁कतर	-13093
▁साज	-13094
स्राव	-13095
▁MAPI	-13096
▁पछता	-13097
▁बार्	-13098
▁सबने	-13099
▁सम्‍	-13100
▁इन्ते	-13101
▁ऊष्मा	-13102
▁चाँदी	-13103
▁दायाँ	-13104
▁सौंपे	-13105
▁नबियों	-13106
▁लगेंगे	-13107
▁विराट्	-13108
▁पहचानने	-13109
▁पहुँचता	-13110
▁मलेरिया	-13111
व्	-13112
वना	-13113
वनी	-13114
▁ev	-13115
कर्स	-13116
घाती	-13117
ालिस	-13118
ुप्त	-13119
ार्कट	-13120
▁उठकर	-13121
▁जमाव	-13122
▁साम्	-13123
▁अवतरण	-13124
▁उभरते	-13125
▁पोशाक	-13126
▁हिंसक	-13127
........	-13128
▁प्रलेखन	-13129
▁उत्कीर्ण	-13130
▁भूतपूर्व	-13131
▁रजिस्ट्र	-13132
▁क्रियाशील	-13133
▁पुनरीक्षण	-13134
-07	-13135
पता	-13136
ोपै	-13137
▁ढु	-13138
कृमि	-13139
जियम	-13140
▁चोल	-13141
▁जोध	-13142
▁नफ़	-13143
▁बोर	-13144
▁मों	-13145
तियाँ	-13146
विधान	-13147
▁तरजी	-13148
▁चौड़ी	-13149
▁छिपाए	-13150
▁दहकती	-13151
▁पाउंड	-13152
▁बारीक	-13153
▁शख़्स	-13154
▁समाधि	-13155
स्क्रीन	-13156
▁अमूर्त	-13157
▁एक्सेस	-13158
शास्त्री	-13159
▁शत्रुता	-13160
▁समामेलन	-13161
▁अनुष्ठान	-13162
▁प्रकोष्ठ	-13163
▁संप्रतीक	-13164
▁खाद्यान्न	-13165
▁प्रामाणिक	-13166
▁फ्रांसीसी	-13167
▁भावनात्मक	-13168
ुग	-13169
डाई	-13170
वला	-13171
ुंब	-13172
▁काठ	-13173
तमाला	-13174
त्‍मक	-13175
दुनाथ	-13176
▁क़ैद	-13177
▁ख़ता	-13178
▁ख़ून	-13179
▁जानो	-13180
▁मीरा	-13181
▁लेगी	-13182
▁शिला	-13183
प्रबंध	-13184
▁अवमान	-13185
▁छोड़ी	-13186
▁मुराद	-13187
▁गठबंधन	-13188
▁झगड़ने	-13189
▁पिताजी	-13190
▁माँगते	-13191
▁फ्लैग्स	-13192
▁बेलारूस	-13193
▁निवेदिता	-13194
▁सांविधिक	-13195
▁प्रादेशिक	-13196
▁कम्युनिस्ट	-13197
1,	-13198
46	-13199
PRO	-13200
सला	-13201
ेता	-13202
▁85	-13203
ट्ठी	-13204
पालक	-13205
योगी	-13206
▁नर्	-13207
▁मेम	-13208
वर्सन	-13209
ष्टिक	-13210
िकाएं	-13211
▁कच्छ	-13212
▁काबू	-13213
▁जायज़	-13214
▁नित्य	-13215
▁मारकर	-13216
▁विनोद	-13217
▁क्रेता	-13218
▁नाइट्र	-13219
▁निहायत	-13220
▁बढ़ाता	-13221
▁मधुमक्	-13222
▁मेहराब	-13223
▁मौलाना	-13224
▁सहनशील	-13225
▁अवक्षयण	-13226
▁अविभक्त	-13227
▁आयताकार	-13228
▁नक्काशी	-13229
▁महादेवी	-13230
▁मेहरअली	-13231
▁सुलैमान	-13232
▁उर्वरकों	-13233
escription	-13234
▁एक्सप्रेस	-13235
▁मूर्तियां	-13236
ice	-13237
२००	-13238
▁05	-13239
▁झर	-13240
डियम	-13241
प्रस	-13242
्लाई	-13243
▁बेख	-13244
ution	-13245
पमेंट	-13246
▁गौतम	-13247
▁जन्न	-13248
▁रखनी	-13249
▁समया	-13250
▁स्या	-13251
▁पलटकर	-13252
▁भाँति	-13253
▁वक़्त	-13254
▁वार्म	-13255
▁विलेख	-13256
▁अहंकार	-13257
▁फरमाता	-13258
▁मंज़िल	-13259
▁मेहमान	-13260
▁साइकिल	-13261
▁अत्याधिक	-13262
▁गिरफ्तारी	-13263
▁पड़नेवाले	-13264
▁गर्भावस्था	-13265
ps	-13266
पुन	-13267
मेव	-13268
नुअल	-13269
ाम्ब	-13270
▁ख़़	-13271
▁मता	-13272
▁यंग	-13273
Short	-13274
दायों	-13275
म्बरी	-13276
▁1994	-13277
▁पीला	-13278
ख्तेला	-13279
▁अल्फा	-13280
▁गुनेह	-13281
▁पर्दे	-13282
▁पाषाण	-13283
▁लगाएँ	-13284
▁वृक्क	-13285
▁गन्दगी	-13286
▁चिन्तन	-13287
▁निकलकर	-13288
▁लम्बाई	-13289
▁सजावटी	-13290
▁सामरिक	-13291
▁अभिलेखा	-13292
▁ज़करिया	-13293
▁जातियां	-13294
▁परवर्ती	-13295
▁मुअय्यन	-13296
▁समझौतों	-13297
▁सम्मिश्र	-13298
ix	-13299
ईद	-13300
आईए	-13301
सुल	-13302
हराम	-13303
िलिक	-13304
▁करत	-13305
▁कॉम	-13306
▁घसी	-13307
▁हता	-13308
र्जित	-13309
▁आलोक	-13310
▁गिनी	-13311
▁घेरा	-13312
▁पाचन	-13313
▁बाइट	-13314
▁बाली	-13315
▁लगाव	-13316
वाहाटी	-13317
▁बहुधा	-13318
▁चेहरों	-13319
▁स्वीडन	-13320
▁इफ़तेरा	-13321
▁मछलियों	-13322
▁व्यंग्य	-13323
▁पवित्रता	-13324
▁गुनाहगारों	-13325
▁मांसपेशियों	-13326
mb	-13327
बख	-13328
200	-13329
ंती	-13330
फिक	-13331
्रय	-13332
▁:-	-13333
▁कं	-13334
▁वफ	-13335
किरा	-13336
न्टी	-13337
मोचन	-13338
ूस्त	-13339
▁कबी	-13340
▁सॉल	-13341
टरिंग	-13342
▁क्षी	-13343
▁बकरी	-13344
▁शिवा	-13345
स्वच्छ	-13346
ैंकिंग	-13347
▁क्लास	-13348
▁ग़लती	-13349
▁घटाने	-13350
▁तकिया	-13351
▁निचला	-13352
▁बताती	-13353
▁मकबरा	-13354
▁मोक्ष	-13355
▁लिखकर	-13356
▁सैद्ध	-13357
▁हिमाल	-13358
साहित्य	-13359
▁करवाना	-13360
▁गुस्से	-13361
▁जानकार	-13362
▁मुर्दे	-13363
▁कारखाने	-13364
▁टुकड़ों	-13365
▁ईमानवाली	-13366
▁नियमावली	-13367
▁साम्राज़	-13368
▁उदाहरणार्थ	-13369
all	-13370
ult	-13371
▁शू	-13372
ateg	-13373
अंतर	-13374
एनआर	-13375
रोधी	-13376
▁धड़	-13377
▁बाई	-13378
परायण	-13379
▁वक्ष	-13380
▁इन्टर	-13381
▁कलाओं	-13382
▁दरअसल	-13383
▁लाएगा	-13384
▁सवेरे	-13385
▁उत्तरः	-13386
▁महासभा	-13387
▁शिकारी	-13388
▁शिशुओं	-13389
▁जबरदस्त	-13390
▁प्राप्य	-13391
▁कॉपीराइट	-13392
▁प्रयोगों	-13393
▁रामकृष्ण	-13394
▁विभिन्‍न	-13395
▁किरायेदार	-13396
▁बहुपक्षीय	-13397
▁शल्यक्रिया	-13398
वाइ	-13399
हूर	-13400
Serv	-13401
कम्प	-13402
स्के	-13403
ुकूल	-13404
▁अणु	-13405
▁कन्	-13406
▁चिं	-13407
▁जोन	-13408
▁बुख	-13409
प्रेम	-13410
▁करुँ	-13411
▁काया	-13412
▁हक़ी	-13413
eneral	-13414
केंद्र	-13415
▁अतिशय	-13416
▁जीर्ण	-13417
▁तरजीह	-13418
▁मज़हब	-13419
▁स्‍था	-13420
▁अलमस्त	-13421
▁दाहिना	-13422
▁नियामक	-13423
▁गेंदबाज	-13424
▁मातृभूमि	-13425
▁पर्वतमाला	-13426
▁प्रतिबन्ध	-13427
▁प्रोद्भूत	-13428
▁राष्ट्रवादी	-13429
▁पारिस्थितिकी	-13430
ace	-13431
ant	-13432
लूक	-13433
ात्	-13434
▁इर	-13435
▁लह	-13436
ital	-13437
ंमार	-13438
ण्डर	-13439
▁SSL	-13440
▁एनी	-13441
▁खां	-13442
▁घुम	-13443
▁मुय	-13444
▁शैव	-13445
▁१९३	-13446
मैंने	-13447
▁अय्य	-13448
▁चिट्	-13449
▁सिमु	-13450
क्सिको	-13451
ियंत्र	-13452
▁पारसी	-13453
▁बनेगा	-13454
▁मुझपर	-13455
▁विराज	-13456
▁मांगों	-13457
▁राज्‍य	-13458
▁संज्ञा	-13459
किस्तानी	-13460
▁दुकानों	-13461
▁प्रतिकर	-13462
▁रामलिंग	-13463
▁द्विआधारी	-13464
▁translated	-13465
▁विश्वासघात	-13466
ख्ता	-13467
वेली	-13468
▁आली	-13469
▁बफर	-13470
तालों	-13471
▁दीपा	-13472
▁मरते	-13473
▁एकत्व	-13474
▁मांगी	-13475
▁वाजिब	-13476
▁अप्रति	-13477
▁तात्या	-13478
▁मुबारक	-13479
▁किस्में	-13480
▁दृश्यों	-13481
▁दीर्घकालीन	-13482
पौ	-13483
ंगत	-13484
पुत	-13485
▁as	-13486
चेतन	-13487
भाजन	-13488
वहार	-13489
हानी	-13490
ॉफ्ट	-13491
▁(7)	-13492
▁सूख	-13493
▁औरंग	-13494
▁डायल	-13495
▁रोमन	-13496
ालियों	-13497
▁अनधिक	-13498
▁आयातक	-13499
▁कच्चा	-13500
▁खेलते	-13501
▁गोश्त	-13502
▁नवजात	-13503
▁पित्त	-13504
▁महीना	-13505
▁रविवार	-13506
▁मक्कारी	-13507
▁रिश्तों	-13508
▁जिज्ञासा	-13509
▁स्थापत्य	-13510
OL	-13511
ear	-13512
गुम	-13513
टिन	-13514
प्य	-13515
बैठ	-13516
ोत्	-13517
जेशन	-13518
त्थे	-13519
हाइट	-13520
▁कोइ	-13521
▁गला	-13522
▁बाज	-13523
ज़ाने	-13524
लाधार	-13525
▁असम्	-13526
▁नेवि	-13527
▁पौंड	-13528
▁रिली	-13529
▁होली	-13530
अर्थात	-13531
▁इशारा	-13532
▁गिरवी	-13533
▁डराता	-13534
▁पट्टा	-13535
▁श्लोक	-13536
▁सख़्त	-13537
▁अशुद्ध	-13538
▁असंतोष	-13539
▁दरवाजा	-13540
▁विकृति	-13541
▁शासकीय	-13542
▁कैलेंडर	-13543
▁फिनलैंड	-13544
▁सुनेंगे	-13545
▁उपलब्धियां	-13546
▁पूर्वानुमान	-13547
nc	-13548
ँसा	-13549
वेज	-13550
गोचर	-13551
दिया	-13552
वायर	-13553
वारे	-13554
हाला	-13555
ाप्र	-13556
ार्ग	-13557
▁इंट	-13558
▁खेद	-13559
▁निभ	-13560
▁बंट	-13561
▁बुन	-13562
▁मूस	-13563
▁रास	-13564
▁1952	-13565
पीसीएल	-13566
▁उन्ही	-13567
▁चुनना	-13568
▁ज्वार	-13569
▁माउंट	-13570
▁सस्ती	-13571
▁नमूनों	-13572
▁प्रकरण	-13573
▁मुमकिन	-13574
▁मोहताज	-13575
▁सुनाया	-13576
महाद्वीप	-13577
स्वतंत्र	-13578
▁आनेवाली	-13579
▁कड़ियाँ	-13580
▁समावेशन	-13581
▁हाथियों	-13582
▁अनुरक्षण	-13583
▁एकाधिकार	-13584
▁गुवाहाटी	-13585
▁विनम्रता	-13586
ऐब	-13587
सौ	-13588
हट	-13589
Lex	-13590
ुना	-13591
▁ऑल	-13592
▁चह	-13593
▁धात	-13594
▁शिम	-13595
तुल्य	-13596
▁कड़ा	-13597
▁गुहा	-13598
▁निपु	-13599
▁भट्ट	-13600
▁मद्य	-13601
▁लशकर	-13602
▁घुटने	-13603
▁नाराज	-13604
▁पत्रा	-13605
▁बजाएँ	-13606
▁बहाना	-13607
▁मैथुन	-13608
▁राजने	-13609
▁खींचने	-13610
▁दिलाता	-13611
▁नेटवर्	-13612
▁फाइलों	-13613
▁भवभूति	-13614
▁जनशक्ति	-13615
▁सरोजिनी	-13616
▁परमात्मा	-13617
▁वार्मिंग	-13618
▁गिड़गिड़ा	-13619
▁नरेन्‍द्र	-13620
UT	-13621
ंन	-13622
▁ं	-13623
अज़	-13624
एसी	-13625
▁रज	-13626
र्दे	-13627
लेटर	-13628
ानात	-13629
▁जेर	-13630
▁रघु	-13631
▁हृद	-13632
इसमें	-13633
कीकरण	-13634
बेडकर	-13635
्रेसी	-13636
▁गयाः	-13637
▁फाड़	-13638
▁बेवक	-13639
▁स्टे	-13640
▁२००७	-13641
दक्षिण	-13642
▁अक्लम	-13643
▁अड्डा	-13644
▁ज्यों	-13645
▁वल्लभ	-13646
▁अपनाते	-13647
▁कहेगें	-13648
▁दीवाना	-13649
▁दौड़ते	-13650
▁ब्रांड	-13651
▁मिटाकर	-13652
▁विधिवत	-13653
▁औपनिवेश	-13654
▁बुढ़ापे	-13655
▁सुप्रीम	-13656
▁क़ुरबानी	-13657
▁रिपोर्टों	-13658
▁सृजनात्मक	-13659
,?	-13660
kt	-13661
ror	-13662
बला	-13663
▁66	-13664
देशा	-13665
न्टर	-13666
▁अजन	-13667
▁करण	-13668
▁चैक	-13669
▁थीम	-13670
मेनान	-13671
विस्त	-13672
▁अकसर	-13673
▁कुचल	-13674
▁चेता	-13675
नाइटेड	-13676
▁अड्डे	-13677
▁कीड़े	-13678
▁कोल्ह	-13679
▁तौरात	-13680
▁स्राव	-13681
धिकारों	-13682
▁उपनिषद	-13683
▁चित्रा	-13684
▁परिधान	-13685
▁प्रहार	-13686
विज्ञानी	-13687
▁आक्रामक	-13688
▁चलचित्र	-13689
▁वृंदावन	-13690
▁संभवतया	-13691
▁ज्ञानवान	-13692
▁बुराइयाँ	-13693
▁शिकायतें	-13694
▁सुस्पष्ट	-13695
ill	-13696
ंधा	-13697
फ्फ	-13698
▁li	-13699
चढ़ा	-13700
ज्या	-13701
मध्य	-13702
▁कौर	-13703
खानों	-13704
विवाह	-13705
ांतिक	-13706
▁'{0}	-13707
▁अवशो	-13708
▁बदतर	-13709
▁बुजु	-13710
▁रूपए	-13711
▁स्पे	-13712
▁इरादे	-13713
▁सुनना	-13714
▁कपड़ों	-13715
▁छवियाँ	-13716
▁प्लेयर	-13717
▁बेज़ार	-13718
▁मुसाफ़	-13719
▁यदुनाथ	-13720
▁पुकारने	-13721
▁पुराणों	-13722
▁प्राणिक	-13723
▁शुद्धता	-13724
▁सदाबहार	-13725
▁अनुपलब्ध	-13726
▁स्टेशनों	-13727
▁स्मारकों	-13728
▁संयंत्रों	-13729
▁कार्यक्षेत्र	-13730
▁प्रौद्योगिकीय	-13731
ाफ़	-13732
▁औस	-13733
ंदों	-13734
कर्ण	-13735
ण्डा	-13736
ैक्स	-13737
▁छठा	-13738
▁बख़	-13739
दान्त	-13740
▁जूते	-13741
▁भ्रा	-13742
▁सिले	-13743
▁सोलह	-13744
▁सोशल	-13745
▁ऊँटनी	-13746
▁कदमों	-13747
▁जड़ें	-13748
▁पक्के	-13749
▁परिधि	-13750
▁पिक्स	-13751
▁बेवकू	-13752
▁संवित	-13753
▁साहिब	-13754
संस्कृत	-13755
▁विचलित	-13756
▁सिक्के	-13757
▁हाइड्र	-13758
▁नानालाल	-13759
▁मानेंगे	-13760
▁परिचर्चा	-13761
▁ज़बरदस्ती	-13762
▁तुलनात्मक	-13763
▁पक्षकारों	-13764
▁प्रस्थिति	-13765
▁पत्रकारिता	-13766
▁अभियांत्रिकी	-13767
▁इस्लामवादियों	-13768
षऋ	-13769
Uri	-13770
ith	-13771
rib	-13772
बाइ	-13773
लीम	-13774
सले	-13775
ारत	-13776
▁गह	-13777
DUCT	-13778
कांड	-13779
तनों	-13780
भूषा	-13781
यूसु	-13782
र्पण	-13783
ाफिल	-13784
▁अंट	-13785
▁कले	-13786
▁उतरे	-13787
▁देवे	-13788
▁लिफा	-13789
LexUri	-13790
आख़िरत	-13791
क़ुरआन	-13792
ग्रन्थ	-13793
ान्तरण	-13794
िस्तान	-13795
▁अंडों	-13796
▁अलगाव	-13797
▁खौलता	-13798
▁चौड़ा	-13799
▁पहनते	-13800
▁बहाने	-13801
▁भड़का	-13802
▁रेज़ा	-13803
▁अधिभार	-13804
▁इसमाईल	-13805
▁ग़ाफिल	-13806
▁गुणगान	-13807
▁घुमाएँ	-13808
▁रूसवाई	-13809
▁चंद्रमा	-13810
▁पत्रकार	-13811
▁फेफड़ों	-13812
▁राजनयिक	-13813
▁सज़ावार	-13814
▁साझेदार	-13815
▁यात्राओं	-13816
LexUriServ	-13817
▁ब्रह्मांड	-13818
▁मंत्रिपरिषद	-13819
▁कारस्तानियों	-13820
->	-13821
cc	-13822
ha	-13823
ंतक	-13824
़्त	-13825
क़ौम	-13826
वक्त	-13827
▁आसन	-13828
▁तान	-13829
▁मेक	-13830
▁सबक	-13831
्रीका	-13832
▁(199	-13833
▁उगाई	-13834
▁छाँट	-13835
▁दिक्	-13836
▁नासा	-13837
ानियों	-13838
▁कारसा	-13839
▁निजाम	-13840
▁प्रवी	-13841
▁बजाने	-13842
▁बरसों	-13843
▁मानें	-13844
▁आरोपों	-13845
▁उपास्य	-13846
▁तिब्बत	-13847
▁पकड़कर	-13848
▁परिक्र	-13849
▁फ़ारसी	-13850
▁राममोहन	-13851
▁सबवर्सन	-13852
▁प्रांतीय	-13853
▁प्राप्‍त	-13854
▁बहिष्कार	-13855
▁परम्परागत	-13856
▁परिवीक्षाधीन	-13857
ंजक	-13858
अरे	-13859
ैंप	-13860
▁5,	-13861
ंकार	-13862
गर्भ	-13863
जवाब	-13864
न्जा	-13865
र्थक	-13866
▁मजे	-13867
▁शोथ	-13868
बाक्स	-13869
▁1973	-13870
▁उतरा	-13871
▁ग्ले	-13872
▁ट्यू	-13873
▁ललित	-13874
क़ुदरत	-13875
▁अपहरण	-13876
▁अल्पा	-13877
▁आभारी	-13878
▁कस्टम	-13879
▁चांदी	-13880
▁टिड्ड	-13881
▁परिकल	-13882
▁लसीका	-13883
▁वीरता	-13884
ौपचारिक	-13885
▁अभिदाय	-13886
▁पैदाइश	-13887
▁बैकेंड	-13888
▁वर्चुअल	-13889
▁मध्यस्थता	-13890
▁अत्यावश्यक	-13891
▁अभिलेखागार	-13892
▁संवेदनशीलता	-13893
▁परिस्थितियां	-13894
28	-13895
VD	-13896
ऊं	-13897
▁.	-13898
बाध	-13899
रणी	-13900
▁खट	-13901
iver	-13902
खड़ा	-13903
दिनी	-13904
सर्व	-13905
ारें	-13906
▁उपस	-13907
▁दाब	-13908
▁शहद	-13909
जिहाद	-13910
श्रित	-13911
▁(198	-13912
▁डेमो	-13913
▁महज़	-13914
▁लड़क	-13915
▁उठाये	-13916
▁खर्चे	-13917
▁ग़ायब	-13918
▁टेम्प	-13919
▁ढूँढ़	-13920
▁बक्से	-13921
▁बर्मा	-13922
▁अनेकों	-13923
▁अमिताभ	-13924
▁कुटुंब	-13925
▁ख़ातिर	-13926
▁निकटतम	-13927
▁निभाने	-13928
▁पुष्पा	-13929
▁मेट्रो	-13930
▁रोमांच	-13931
▁सिस्को	-13932
निरपेक्ष	-13933
▁कुंजीपट	-13934
▁चिपकाएँ	-13935
▁मुब्तिला	-13936
▁राज्यसभा	-13937
▁रियासतों	-13938
▁पार्टियों	-13939
▁प्रतिभाशाली	-13940
▁प्रवृत्तियों	-13941
तई	-13942
खड़	-13943
डैक	-13944
शरण	-13945
डेटा	-13946
▁इको	-13947
▁लती	-13948
▁लाय	-13949
▁अनुष	-13950
▁विज़	-13951
▁शीशे	-13952
▁कच्ची	-13953
▁जर्नल	-13954
▁विस्म	-13955
▁स्थाय	-13956
▁अर्थों	-13957
▁ढूंढने	-13958
▁विचारा	-13959
▁औषधियों	-13960
▁आंदोलनों	-13961
▁प्रजातियां	-13962
झक	-13963
-18	-13964
ंगण	-13965
ईजी	-13966
बीच	-13967
्शन	-13968
▁9.	-13969
▁टु	-13970
उच्च	-13971
टीआई	-13972
वादा	-13973
सिला	-13974
▁use	-13975
▁आइट	-13976
बराबर	-13977
शियां	-13978
▁कुला	-13979
▁चरित	-13980
▁तालि	-13981
▁द्रो	-13982
▁नक्ष	-13983
▁पडता	-13984
▁मोनो	-13985
▁उड़ने	-13986
▁उपवास	-13987
▁खोलकर	-13988
▁ग्रेट	-13989
▁त्रास	-13990
▁अनुरुप	-13991
▁अन्तरा	-13992
▁न्यासी	-13993
▁सिद्धि	-13994
▁जाएंगें	-13995
▁दूतावास	-13996
▁मालिकों	-13997
▁विवरणों	-13998
▁शब्दकूट	-13999
▁सुल्तान	-14000
▁जवाबदेही	-14001
▁पुर्तगाली	-14002
▁स्वतन्त्रता	-14003
to	-14004
धीय	-14005
सही	-14006
इसकी	-14007
▁छठी	-14008
▁छुप	-14009
▁माई	-14010
▁शिर	-14011
उत्तर	-14012
ानिया	-14013
▁तिरू	-14014
▁निःश	-14015
▁बतला	-14016
▁यतीम	-14017
▁साँस	-14018
प्रवाह	-14019
▁महोदय	-14020
▁सजाया	-14021
▁जटिलता	-14022
▁निर्मल	-14023
▁अक्षमता	-14024
▁कम्प्यूट	-14025
▁अनौपचारिक	-14026
▁राष्‍ट्रीय	-14027
▁प्रतिबिंबित	-14028
76	-14029
टू	-14030
जाद	-14031
।--	-14032
▁II	-14033
▁\\	-14034
ब्रू	-14035
्राह	-14036
▁GNU	-14037
▁आलम	-14038
▁कंठ	-14039
▁तले	-14040
▁राइ	-14041
स्कों	-14042
ोपड़ी	-14043
▁HTTP	-14044
▁आवेग	-14045
▁माइन	-14046
▁मोहर	-14047
▁gnome	-14048
▁निरोध	-14049
▁बन्दर	-14050
▁साइबर	-14051
▁नेपाली	-14052
▁मन्त्र	-14053
▁नातेदार	-14054
▁संकुचित	-14055
▁सराहनीय	-14056
▁द्वितीयक	-14057
▁निरीक्षक	-14058
▁असुरक्षित	-14059
▁विकासात्मक	-14060
५०	-14061
सिं	-14062
▁72	-14063
▁le	-14064
दीकी	-14065
बीसी	-14066
▁You	-14067
▁आसा	-14068
▁घनी	-14069
▁घोल	-14070
▁सिय	-14071
▁बाँट	-14072
▁बेहि	-14073
न्त्री	-14074
▁पुतली	-14075
▁मथुरा	-14076
▁जोधपुर	-14077
▁प्रिंस	-14078
▁अमेरिकन	-14079
▁दोहराया	-14080
▁निस्पृह	-14081
▁क्रमादेश	-14082
▁कर्त्तव्य	-14083
▁कार्यनीति	-14084
▁मुद्रास्फीति	-14085
49	-14086
DE	-14087
UR	-14088
ैग	-14089
-08	-14090
टेक	-14091
षेक	-14092
उसने	-14093
दांत	-14094
ल्चर	-14095
सेसर	-14096
▁अहा	-14097
▁ज़ब	-14098
▁फाल	-14099
▁भाप	-14100
ग्राफ	-14101
वासित	-14102
▁क्वा	-14103
▁गर्द	-14104
▁बुझा	-14105
▁कुछेक	-14106
▁चुनते	-14107
▁दर्पण	-14108
▁मुर्ग	-14109
▁रेशमी	-14110
▁लगाता	-14111
▁सजावट	-14112
▁सीखते	-14113
▁स्पूल	-14114
ategory	-14115
▁ज़रिये	-14116
▁भ्रष्ट	-14117
▁उपबंधित	-14118
▁पोतन्ना	-14119
▁फॉर्मेट	-14120
▁हाइड्रो	-14121
▁गतिशीलता	-14122
▁तर्कसंगत	-14123
▁अधिनिर्णय	-14124
▁औपनिवेशिक	-14125
▁स्टार्टअप	-14126
▁इंडोनेशिया	-14127
▁शेयरधारकों	-14128
दौ	-14129
सक	-14130
दीव	-14131
नार	-14132
िके	-14133
urop	-14134
एमपी	-14135
डीसी	-14136
शियम	-14137
ूंगी	-14138
्वती	-14139
▁क़े	-14140
▁खरा	-14141
▁फटा	-14142
▁१९४	-14143
कार्ब	-14144
ख़ाना	-14145
▁कमान	-14146
▁बेचा	-14147
▁भृंग	-14148
▁लापर	-14149
▁स्के	-14150
पद्धति	-14151
श्मीरी	-14152
▁आकारः	-14153
▁गर्भग	-14154
▁चलाते	-14155
▁टिकाऊ	-14156
▁माइक्रोस	-14157
▁म्यांमार	-14158
38	-14159
स्ड	-14160
सानी	-14161
▁600	-14162
▁राख	-14163
▁हें	-14164
न्दरी	-14165
ब्‍दी	-14166
▁अनार	-14167
▁उठती	-14168
▁चांद	-14169
▁थकान	-14170
▁दोगे	-14171
▁दोहन	-14172
▁माँस	-14173
▁२००६	-14174
▁एग्री	-14175
▁बेजबर	-14176
▁मुझको	-14177
▁उदारता	-14178
▁भाषणों	-14179
▁महानगर	-14180
▁मुहताज	-14181
▁प्रत्ये	-14182
▁महासचिव	-14183
▁विशेषतः	-14184
▁शिष्यों	-14185
▁उद्घोषणा	-14186
▁संप्रेषण	-14187
▁सर्वोपरि	-14188
▁सामग्रियों	-14189
▁हिन्दुस्तानी	-14190
अफ़	-14191
जपा	-14192
मास	-14193
सन्	-14194
सरी	-14195
ोंक	-14196
यनों	-14197
ादार	-14198
▁अथक	-14199
▁एम्	-14200
▁जेब	-14201
▁टॉम	-14202
नुसार	-14203
▁उंगल	-14204
▁मीठा	-14205
▁सेमी	-14206
प्रेषण	-14207
▁'{0}'	-14208
▁(1956	-14209
▁उलफ़त	-14210
▁तामील	-14211
▁मौर्य	-14212
▁संभाग	-14213
विभागों	-14214
▁क्षिति	-14215
▁ख़ैरात	-14216
▁सुनाता	-14217
▁अध्यापन	-14218
▁गर्भगृह	-14219
▁विभागीय	-14220
▁शीघ्रता	-14221
▁सूचनाएं	-14222
▁गोपनीयता	-14223
▁विराजमान	-14224
▁शताब्‍दी	-14225
▁अपेक्षाओं	-14226
▁तुल्यकालन	-14227
▁पंक्तिबद्ध	-14228
65	-14229
NT	-14230
tor	-14231
कोप	-14232
खना	-14233
फूल	-14234
▁1%	-14235
roup	-14236
अंदा	-14237
जैसा	-14238
नामी	-14239
शेखर	-14240
समाज	-14241
सिंग	-14242
▁139	-14243
▁{1}	-14244
▁जुन	-14245
▁निम	-14246
▁सरा	-14247
क्सीन	-14248
भांति	-14249
भावित	-14250
▁उभरे	-14251
▁तेरह	-14252
नेस्को	-14253
म्बख्त	-14254
▁उल्टा	-14255
▁कमाने	-14256
▁खौलते	-14257
▁देसाई	-14258
▁बुर्द	-14259
▁मुंशी	-14260
न्होंने	-14261
▁जाएगें	-14262
▁निद्रा	-14263
▁प्रकटन	-14264
▁रेड्डी	-14265
▁विमर्श	-14266
▁सीमाएं	-14267
▁रिएक्टर	-14268
▁उदासीनता	-14269
ive	-14270
टलर	-14271
सां	-14272
हनी	-14273
▁२६	-14274
ख़ैर	-14275
तबली	-14276
फ़ान	-14277
वाहन	-14278
▁1/2	-14279
▁छुआ	-14280
▁पैक	-14281
▁मनु	-14282
सुधार	-14283
ेक्टर	-14284
्मीकि	-14285
▁जेने	-14286
▁दुरा	-14287
▁निगल	-14288
▁सूरी	-14289
▁काबुल	-14290
▁गुम्ब	-14291
▁ग्रीक	-14292
▁जवानी	-14293
▁झूठला	-14294
▁दुष्ट	-14295
▁पठनीय	-14296
▁मलामत	-14297
▁शिथिल	-14298
▁सीढ़ी	-14299
▁निशाना	-14300
▁बैठकें	-14301
▁साइटों	-14302
▁2006-07	-14303
▁दीपावली	-14304
▁दूरदर्शन	-14305
▁निर्यातक	-14306
▁सर्वांगी	-14307
▁लाभान्वित	-14308
▁ट्रिब्यूनल	-14309
▁तत्वदर्शिता	-14310
▁राष्ट्रमंडल	-14311
ठाई	-14312
पीओ	-14313
▁धर	-14314
menu	-14315
डाउन	-14316
फीक़	-14317
ाबिल	-14318
▁मरु	-14319
▁रेज	-14320
▁संख	-14321
▁१००	-14322
▁डूबो	-14323
▁मरीज	-14324
▁साधु	-14325
युक़्त	-14326
िलिखित	-14327
्तिहान	-14328
▁उद्भव	-14329
▁निकली	-14330
▁पैकेट	-14331
▁फरीक़	-14332
▁बुलाओ	-14333
▁संघों	-14334
▁सचेतन	-14335
▁अंधकार	-14336
▁कामगार	-14337
▁जिबरील	-14338
▁जिलाता	-14339
▁दिलाना	-14340
▁परदाज़	-14341
▁वर्जित	-14342
▁सिक्का	-14343
▁इम्तिहान	-14344
▁प्रतिमान	-14345
▁प्रतिवाद	-14346
▁राजेन्द्र	-14347
▁अनुकम्पाओं	-14348
‍ध	-14349
14.	-14350
til	-14351
येक	-14352
▁St	-14353
ghan	-14354
जिकल	-14355
सबसे	-14356
ास्व	-14357
▁ओड़	-14358
▁गैल	-14359
▁भरण	-14360
▁मोम	-14361
ापन्न	-14362
▁उभरा	-14363
▁घण्ट	-14364
▁जहॉन	-14365
▁युगल	-14366
▁वृहत	-14367
▁साइड	-14368
▁सोचे	-14369
istbox	-14370
▁आईएसओ	-14371
▁इजाजत	-14372
▁उदारी	-14373
▁एटीएम	-14374
▁किफाय	-14375
▁गैसों	-14376
▁मिर्च	-14377
▁मुख्त	-14378
▁लॉगइन	-14379
▁अज़ीज़	-14380
▁आकृष्ट	-14381
▁इन्जील	-14382
▁उपद्रव	-14383
▁कीमतें	-14384
▁कीर्ति	-14385
▁ड्यूटी	-14386
▁दांतों	-14387
▁फज़ीलत	-14388
▁विमानन	-14389
आज्ञाकारी	-14390
▁जानबूझकर	-14391
ermissions	-14392
▁अतिरिक़्त	-14393
▁त्यागपत्र	-14394
▁नाइट्रोजन	-14395
▁न्यायसंगत	-14396
▁प्रतिपादन	-14397
▁पुनर्निर्माण	-14398
ma	-14399
डॉ	-14400
Con	-14401
key	-14402
मरण	-14403
▁41	-14404
भाष्	-14405
वारा	-14406
▁किट	-14407
▁फंस	-14408
▁लवण	-14409
▁सडक	-14410
.2018	-14411
ction	-14412
ज़ूरी	-14413
ोरियम	-14414
▁1965	-14415
▁1975	-14416
▁उनमे	-14417
▁दलित	-14418
▁परिर	-14419
▁पियो	-14420
▁रंगः	-14421
इस्लाम	-14422
कारिणी	-14423
संग्रह	-14424
सुविधा	-14425
▁उभरती	-14426
▁करतूत	-14427
▁दुर्द	-14428
▁मनोहर	-14429
▁मौसमी	-14430
▁लद्दा	-14431
▁सुचार	-14432
▁उत्खनन	-14433
▁देखेगा	-14434
▁नागपुर	-14435
▁निभाता	-14436
▁राजकोष	-14437
▁श्रद्ध	-14438
▁तीक्ष्ण	-14439
▁दुरुस्त	-14440
▁पुनर्जी	-14441
▁मग़फिरत	-14442
▁मोहब्बत	-14443
▁घटनाक्रम	-14444
▁पहुंचाया	-14445
▁मुलाक़ात	-14446
▁हस्तांतरित	-14447
▁कनेक्टिविटी	-14448
▁सेवानिवृत्त	-14449
ey	-14450
sh	-14451
२०	-14452
100	-14453
ual	-14454
बेट	-14455
भंड	-14456
मैप	-14457
स्र	-14458
हाए	-14459
ानक	-14460
▁खन	-14461
SION	-14462
टीसी	-14463
▁125	-14464
▁ताश	-14465
▁बिज	-14466
▁भया	-14467
▁रूम	-14468
▁अकाल	-14469
▁क्ली	-14470
▁टूटी	-14471
निकेतन	-14472
▁कठपुत	-14473
▁कालीन	-14474
▁खरीदी	-14475
▁निहाल	-14476
▁बाइंड	-14477
▁ब्लैक	-14478
▁अनुभवी	-14479
▁कार्या	-14480
▁पूर्वज	-14481
▁बुकिंग	-14482
▁स्टैंड	-14483
कर्मियों	-14484
▁अनेकाने	-14485
▁दुरूस्त	-14486
▁पक्षपात	-14487
▁एचटीएमएल	-14488
▁जनसाधारण	-14489
▁सम्पादित	-14490
▁माननेवाले	-14491
▁पाकिस्तानी	-14492
▁विद्यासागर	-14493
▁राष्‍ट्रपति	-14494
▁प्रतिस्पर्धी	-14495
▁रजिस्ट्रीकरण	-14496
सच	-14497
amp	-14498
ath	-14499
नबी	-14500
फली	-14501
रिस	-14502
ूरक	-14503
▁58	-14504
▁आड	-14505
तोड़	-14506
न्थि	-14507
ष्‍ठ	-14508
▁The	-14509
द्रिक	-14510
▁अम्ब	-14511
▁औंधे	-14512
▁कसरत	-14513
▁जनमत	-14514
▁डेढ़	-14515
▁दाता	-14516
▁बोनस	-14517
▁वज़न	-14518
▁अठारह	-14519
▁अनजान	-14520
▁नायडू	-14521
▁प्रान	-14522
▁विध्व	-14523
▁क़ाबिल	-14524
▁कृष्णा	-14525
▁छानबीन	-14526
▁निष्का	-14527
▁परिहास	-14528
▁बनाएगा	-14529
▁संकुचन	-14530
▁निधियां	-14531
▁मार्जिन	-14532
▁सूचनाएँ	-14533
ghanistan	-14534
▁अनेकानेक	-14535
▁उल्लेखित	-14536
▁प्रतियां	-14537
▁प्रमाणों	-14538
▁प्रतिबिंब	-14539
▁प्रस्तावना	-14540
-14	-14541
दून	-14542
ोड़	-14543
ware	-14544
साधक	-14545
ुलकर	-14546
▁कॉर	-14547
▁दाद	-14548
▁धुन	-14549
▁भती	-14550
▁मुल	-14551
▁शंख	-14552
शांति	-14553
▁1977	-14554
▁कैदी	-14555
▁कैले	-14556
▁लगना	-14557
▁लाती	-14558
▁स्‍व	-14559
कालयों	-14560
▁आजिज़	-14561
▁आत्मक	-14562
▁घोड़ा	-14563
▁ढाँचा	-14564
▁पेयजल	-14565
▁वरदान	-14566
राज्यों	-14567
▁ग्रामो	-14568
▁विषाणु	-14569
▁सम्मेल	-14570
▁General	-14571
▁चार्ल्स	-14572
▁प्रभारी	-14573
▁विमानों	-14574
▁साधारणतया	-14575
▁विश्वसनीयता	-14576
एगी	-14577
ख्व	-14578
पिन	-14579
फ़ल	-14580
फ्ल	-14581
सभी	-14582
न्यू	-14583
▁तड़	-14584
▁हुम	-14585
▁1984	-14586
▁कन्व	-14587
▁रोपण	-14588
▁शोधन	-14589
▁संयम	-14590
ड़ियाँ	-14591
▁असहाय	-14592
▁तुझसे	-14593
▁दुसरे	-14594
▁बागान	-14595
▁लौटते	-14596
▁सस्ता	-14597
oftware	-14598
▁कैरियर	-14599
▁छात्रा	-14600
▁बॉम्बे	-14601
▁मैनुअल	-14602
▁विवेचन	-14603
▁शौचालय	-14604
▁सातवीं	-14605
▁अद्यतनी	-14606
▁कंट्रोल	-14607
▁गुरुदेव	-14608
▁सर्वत्र	-14609
▁सिलसिला	-14610
▁अमानतदार	-14611
▁उदाहरणों	-14612
▁परिसंपत्ति	-14613
ET	-14614
नॉ	-14615
रथ	-14616
ईसी	-14617
कहा	-14618
ग़ु	-14619
डाक	-14620
हीम	-14621
atus	-14622
enef	-14623
ंगनी	-14624
पीयू	-14625
प्रौ	-14626
▁180	-14627
▁कोच	-14628
▁गान	-14629
▁ढील	-14630
▁रमण	-14631
शीघ्र	-14632
▁अनभि	-14633
▁उतरी	-14634
▁औसतन	-14635
▁टीके	-14636
▁नुत्	-14637
▁मॉनी	-14638
▁लंका	-14639
▁हथकर	-14640
अंग्रे	-14641
नमार्क	-14642
विरोधी	-14643
स्‍तुत	-14644
▁कहावत	-14645
▁जहाज़	-14646
▁नलिका	-14647
▁फसलें	-14648
तुम्हें	-14649
▁नदियां	-14650
▁ब्यौरा	-14651
▁महत्तर	-14652
▁रहूँगा	-14653
▁राजपूत	-14654
▁रेटिंग	-14655
▁शिवाजी	-14656
▁हुज़ूर	-14657
▁अभियोजन	-14658
▁कीटनाशक	-14659
▁मिसालें	-14660
▁तत्त्वों	-14661
▁मानसिकता	-14662
▁उन्नीसवीं	-14663
▁प्रकाशनों	-14664
lo	-14665
ूड	-14666
-2.	-14667
16.	-14668
इसे	-14669
कूद	-14670
गुल	-14671
ट्ठ	-14672
तीब	-14673
▁1:	-14674
कार्	-14675
विड़	-14676
हाने	-14677
▁269	-14678
▁अक़	-14679
▁ऋणी	-14680
▁बरफ	-14681
धर्मी	-14682
फिरों	-14683
रिलिक	-14684
लैण्ड	-14685
वर्धक	-14686
िकाने	-14687
▁आदिम	-14688
▁करोड	-14689
▁ख़री	-14690
▁टेबल	-14691
▁ढाँक	-14692
▁लाला	-14693
▁लेखे	-14694
▁लेटे	-14695
▁खजाने	-14696
▁धर्मा	-14697
▁फेरकर	-14698
▁राजेश	-14699
▁साहित	-14700
PRODUCT	-14701
व्यापार	-14702
▁अद्वैत	-14703
▁असीमित	-14704
▁गणितीय	-14705
▁जहाजों	-14706
▁सद्भाव	-14707
▁प्रकाशक	-14708
▁प्रतीका	-14709
▁कोल्हटकर	-14710
▁परित्याग	-14711
▁रूपान्तर	-14712
▁संतुष्टि	-14713
▁कॉर्पोरेट	-14714
▁सम्मेलनों	-14715
▁नर्मदाशंकर	-14716
▁अंतःस्थापित	-14717
lib	-14718
▁भो	-14719
.200	-14720
अन्य	-14721
चारे	-14722
जिंग	-14723
ध्वा	-14724
रियल	-14725
ल्लू	-14726
समान	-14727
हमति	-14728
▁अमा	-14729
▁बढे	-14730
गाहों	-14731
चुपके	-14732
फ्तार	-14733
वाजों	-14734
▁1955	-14735
▁एसिड	-14736
▁घुसा	-14737
▁जब्त	-14738
▁जलीय	-14739
▁मतों	-14740
▁रंजन	-14741
▁वहॉँ	-14742
enefit	-14743
▁अजनबी	-14744
▁अनगिन	-14745
▁आरज़ू	-14746
▁किसके	-14747
▁क्षीण	-14748
▁जाग्र	-14749
▁डिस्प	-14750
▁बेरोज	-14751
▁भरोसे	-14752
▁सेंटी	-14753
▁चार्टर	-14754
▁नदियाँ	-14755
▁परिसंघ	-14756
▁शनिवार	-14757
▁उपलब्‍ध	-14758
▁निगाहें	-14759
▁पहुंचना	-14760
▁मार्टिन	-14761
▁प्रस्‍तुत	-14762
ंबी	-14763
उधर	-14764
बढ़	-14765
▁07	-14766
▁र्	-14767
फ्रा	-14768
बैंक	-14769
िज्म	-14770
▁दीख	-14771
▁बहर	-14772
▁लटक	-14773
कुदरत	-14774
खास्त	-14775
ब्बुर	-14776
▁1963	-14777
▁अधिश	-14778
▁औरों	-14779
▁जाली	-14780
▁दैवी	-14781
▁धीमा	-14782
▁पितृ	-14783
▁भीषण	-14784
▁भूले	-14785
▁रिंग	-14786
▁संचय	-14787
▁क़ीमत	-14788
▁मंचों	-14789
▁संकोच	-14790
▁सिडबी	-14791
▁अविश्व	-14792
▁चमकदार	-14793
▁महत्‍व	-14794
▁यादगार	-14795
▁नापसन्द	-14796
▁परिजनों	-14797
▁शैलियों	-14798
▁अतिक्रमण	-14799
▁देशभक्ति	-14800
▁निर्धनता	-14801
▁प्रदूषित	-14802
▁परिलक्षित	-14803
▁कार्यनीतिक	-14804
▁निम्नानुसार	-14805
-09	-14806
खलन	-14807
बनी	-14808
गुरु	-14809
स्वर	-14810
िताब	-14811
▁ऑयल	-14812
▁कौम	-14813
▁जाम	-14814
▁टूर	-14815
▁पूल	-14816
ख्यान	-14817
ठासीन	-14818
वाड़ा	-14819
▁1920	-14820
▁1981	-14821
▁menu	-14822
▁खंडन	-14823
▁माफी	-14824
▁मेजर	-14825
प्रिंट	-14826
▁अन्धे	-14827
▁चिंघा	-14828
▁पकाने	-14829
▁दूरभाष	-14830
▁निकलें	-14831
▁निरूपण	-14832
▁बर्ताव	-14833
▁मिलाया	-14834
अनुच्छेद	-14835
▁कार्रवा	-14836
▁विकल्पः	-14837
▁विलुप्त	-14838
▁अस्पृश्य	-14839
▁ऑब्जेक्ट	-14840
▁सामान्यत	-14841
▁सम्प्रदाय	-14842
red	-14843
टीई	-14844
भरे	-14845
शरी	-14846
▁74	-14847
▁la	-14848
▁अघ	-14849
पट्ट	-14850
▁(30	-14851
▁एंप	-14852
र्करा	-14853
सिर्फ	-14854
▁1908	-14855
▁अभिश	-14856
▁काटे	-14857
▁दफ्त	-14858
▁पेटी	-14859
▁फेडर	-14860
▁मेरु	-14861
▁रीढ़	-14862
▁शुऐब	-14863
▁हैंड	-14864
▁कंधों	-14865
▁कीमती	-14866
▁खींचा	-14867
▁चालुक	-14868
▁परिणत	-14869
▁बांटा	-14870
▁मध्या	-14871
▁संभोग	-14872
▁सेमिन	-14873
▁उदयपुर	-14874
▁कृषकों	-14875
▁चिराग़	-14876
▁कश्मीरी	-14877
▁उपेक्षित	-14878
▁परमेश्वर	-14879
▁बल्लेबाजी	-14880
▁सर्वांगीण	-14881
▁पुष्पांजलि	-14882
▁वास्तुशिल्प	-14883
ord	-14884
ूको	-14885
▁68	-14886
▁२१	-14887
गलों	-14888
ज़रा	-14889
मयिक	-14890
र्मर	-14891
वादन	-14892
▁गड्	-14893
▁डाँ	-14894
▁पिक	-14895
▁पॉव	-14896
▁बची	-14897
▁सूद	-14898
▁आमने	-14899
▁काना	-14900
▁गोल्	-14901
▁डराए	-14902
▁पायल	-14903
▁बूझे	-14904
▁मल्ल	-14905
▁मसख़	-14906
▁यूरे	-14907
▁वंशज	-14908
▁अभिनव	-14909
▁आपूर्	-14910
▁कोनों	-14911
▁ज़िना	-14912
▁प्लान	-14913
▁लेखकः	-14914
ान्तरित	-14915
▁Public	-14916
▁चुकौती	-14917
▁देखिये	-14918
▁प्रत्‍	-14919
▁मार्शल	-14920
▁विभक्त	-14921
▁राजशाही	-14922
▁अंटार्कट	-14923
▁रिपब्लिक	-14924
▁संख्याओं	-14925
पैग़म्बरों	-14926
ts	-14927
गै	-14928
ोपन	-14929
इसका	-14930
चिकर	-14931
शन्स	-14932
ियोप	-14933
▁mon	-14934
▁आधि	-14935
▁उपल	-14936
▁नशी	-14937
▁पिच	-14938
▁भाष	-14939
Count	-14940
कुफ्र	-14941
मार्क	-14942
सामने	-14943
▁कॉले	-14944
▁फकीर	-14945
▁बिंद	-14946
▁बीएस	-14947
▁मुखौ	-14948
▁लेंस	-14949
स्वरुप	-14950
▁घटाकर	-14951
▁तेलंग	-14952
▁नोटों	-14953
▁फैक्स	-14954
▁विनिय	-14955
▁श्रवण	-14956
▁संगमर	-14957
▁स्पैम	-14958
▁आईआईटी	-14959
▁गोविंद	-14960
▁चश्में	-14961
▁निर्बल	-14962
▁पैमाना	-14963
▁फ्रेंच	-14964
▁महानता	-14965
▁वायुयान	-14966
र्विज्ञान	-14967
▁इलैक्ट्र	-14968
▁वायुसेना	-14969
▁संशोधनों	-14970
▁उपमहाद्वीप	-14971
▁दृष्टिगोचर	-14972
▁पुरस्कारों	-14973
")	-14974
CS	-14975
इम	-14976
ॉं	-14977
13.	-14978
ost	-14979
ायु	-14980
ेंग	-14981
ौली	-14982
एफआर	-14983
▁1.5	-14984
▁एसी	-14985
▁पाम	-14986
▁बुझ	-14987
प्तान	-14988
▁1857	-14989
▁1942	-14990
▁1945	-14991
▁1962	-14992
▁1978	-14993
▁उठना	-14994
▁जुडे	-14995
▁पठित	-14996
▁बहके	-14997
▁सपाट	-14998
अज़ाबे	-14999
कुफ़्र	-15000
स्थानी	-15001
▁जलाने	-15002
▁दिलाओ	-15003
▁नसारा	-15004
▁बुख्ल	-15005
▁यौगिक	-15006
▁विखंड	-15007
केन्द्र	-15008
ख़तेयार	-15009
त्मेनान	-15010
▁फ़रवरी	-15011
▁अन्यत्र	-15012
▁ख़ज़ाने	-15013
▁पीठासीन	-15014
▁बेटियों	-15015
▁बेहिसाब	-15016
▁वैचारिक	-15017
▁सेनापति	-15018
▁कारगुज़ार	-15019
▁कार्यपालक	-15020
▁कार्यसूची	-15021
▁प्रयत्नों	-15022
▁मुन्तज़िर	-15023
▁उत्तमकारों	-15024
▁सुप्रसिद्ध	-15025
▁दुर्भाग्यवश	-15026
32	-15027
In	-15028
dr	-15029
जग	-15030
शमन	-15031
▁hO	-15032
आईपी	-15033
बख्श	-15034
▁ढका	-15035
▁सुष	-15036
▁हर्	-15037
older	-15038
ारिटी	-15039
▁धागे	-15040
▁नवयु	-15041
▁बारा	-15042
▁मकसद	-15043
▁स्वय	-15044
दिहानी	-15045
▁अधिरो	-15046
▁अनोखी	-15047
▁कैम्प	-15048
▁गुलाब	-15049
▁जड़ों	-15050
▁दूषित	-15051
▁वालिद	-15052
▁कक्षों	-15053
▁खासतौर	-15054
▁संबधित	-15055
▁टेक्स्ट	-15056
▁निवृत्त	-15057
▁परीक्षक	-15058
प्रक्रिया	-15059
▁साइरिलिक	-15060
▁अध्यापकों	-15061
▁याददिहानी	-15062
▁साम्प्रदायिक	-15063
ंरभ	-15064
गरण	-15065
▁इज	-15066
▁घू	-15067
▁लल	-15068
lect	-15069
ंस्य	-15070
पर्व	-15071
वेदी	-15072
▁फेल	-15073
▁रहस	-15074
कुमार	-15075
ग्रही	-15076
रक्षक	-15077
रीकरण	-15078
स्टेट	-15079
स्तंभ	-15080
▁अराज	-15081
▁झाड़	-15082
▁धमनी	-15083
▁पारी	-15084
▁बंधे	-15085
▁लुत्	-15086
▁संकर	-15087
▁समयः	-15088
▁सामी	-15089
▁सैयद	-15090
▁सोया	-15091
▁color	-15092
▁रामान	-15093
▁आत्मकथा	-15094
▁ईर्ष्या	-15095
▁क्रीड़ा	-15096
▁चट्टानों	-15097
▁रहनेवाली	-15098
▁शुक्रवार	-15099
▁समामेलित	-15100
▁वृत्तान्त	-15101
▁प्रतिस्थापन	-15102
▁हिंदुस्तानी	-15103
ॉम	-15104
oll	-15105
सरा	-15106
▁ऐल	-15107
▁घी	-15108
▁रग	-15109
टलुक	-15110
तानी	-15111
मिला	-15112
सवार	-15113
िंगर	-15114
▁ज़ा	-15115
▁मृद	-15116
हमेशा	-15117
ोत्सव	-15118
▁आइटम	-15119
▁खाती	-15120
▁गोबर	-15121
▁मोचन	-15122
▁राशन	-15123
▁साधक	-15124
▁अनवरत	-15125
▁आठवीं	-15126
▁खोजना	-15127
▁छुट्ट	-15128
▁दिखती	-15129
▁देशभर	-15130
▁फूँका	-15131
▁माइकल	-15132
ट्रिक्स	-15133
▁इजराइल	-15134
▁क़िबले	-15135
▁लाइनों	-15136
▁सीवीएस	-15137
▁सुधारक	-15138
▁पार्वती	-15139
▁प्रवृति	-15140
▁सेंट्रल	-15141
▁क्रमबद्ध	-15142
▁कांग्रेसी	-15143
▁प्रकाशमान	-15144
▁विशेषताएँ	-15145
CC	-15146
बक	-15147
रव	-15148
डिय	-15149
▁छी	-15150
▁फॅ	-15151
आईबी	-15152
पाती	-15153
मानव	-15154
मापी	-15155
स्रा	-15156
िटरी	-15157
▁कटक	-15158
▁कण्	-15159
▁कवच	-15160
▁खरे	-15161
▁दूं	-15162
▁मैक	-15163
▁युव	-15164
त्तों	-15165
हत्या	-15166
▁कणों	-15167
▁करूं	-15168
▁घंटी	-15169
विदेशी	-15170
▁अंशों	-15171
▁ईस्वी	-15172
▁उल्टे	-15173
▁धक्का	-15174
▁पत्रक	-15175
▁बेचैन	-15176
▁राहुल	-15177
▁विरूप	-15178
▁वेदना	-15179
▁हज़रत	-15180
स्वार्थ	-15181
▁1.4.19	-15182
▁button	-15183
▁अनाथों	-15184
▁उदात्त	-15185
▁कन्नड़	-15186
▁जीवन्त	-15187
क्रिप्शन	-15188
▁अवमानना	-15189
▁कोरियाई	-15190
▁पहुँचना	-15191
▁वॉल्यूम	-15192
▁प्रमुखों	-15193
▁उम्मीदवारों	-15194
बम	-15195
ट्य	-15196
भरी	-15197
िपल	-15198
▁झट	-15199
▁२४	-15200
ance	-15201
व्‍य	-15202
▁उके	-15203
▁कवक	-15204
▁टॉप	-15205
▁नशे	-15206
▁पिल	-15207
▁मदन	-15208
▁मिर	-15209
▁हकी	-15210
संख्य	-15211
▁ग़ैर	-15212
▁धड़क	-15213
▁निशा	-15214
▁पराग	-15215
▁सहने	-15216
▁सिला	-15217
▁इस्ती	-15218
▁जिंदा	-15219
▁तलाशी	-15220
▁तिब्ब	-15221
▁शिमला	-15222
▁साइंस	-15223
मुस्लिम	-15224
वार्षिक	-15225
▁एकाधिक	-15226
▁कप्तान	-15227
▁रियासत	-15228
▁सितारे	-15229
▁अवरुद्ध	-15230
▁महारानी	-15231
▁मौद्रिक	-15232
▁संगमरमर	-15233
▁सिक्कों	-15234
व्यवस्थित	-15235
▁पदोन्नति	-15236
▁वृद्धावस्था	-15237
▁प्राथमिकताओं	-15238
-(	-15239
तट	-15240
सऋ	-15241
Cal	-15242
ana	-15243
ram	-15244
ंभी	-15245
डें	-15246
▁(7	-15247
जन्म	-15248
मेशन	-15249
▁केक	-15250
▁गूँ	-15251
▁घटी	-15252
▁जलन	-15253
▁तज़	-15254
▁तूर	-15255
▁नमा	-15256
▁पका	-15257
▁फिस	-15258
▁समन	-15259
▁हिच	-15260
state	-15261
वृक्ष	-15262
▁1935	-15263
▁1939	-15264
▁कड़े	-15265
▁निरु	-15266
▁फायद	-15267
▁बचते	-15268
▁बालू	-15269
मंडलों	-15270
िबंधीय	-15271
▁चुम्ब	-15272
▁जागरण	-15273
▁ब्लॉग	-15274
▁भाजपा	-15275
▁भावों	-15276
▁सस्ते	-15277
ऑक्साइड	-15278
▁कठोरता	-15279
▁काउंटर	-15280
▁निभाते	-15281
▁अनुषंगी	-15282
▁पक्षकार	-15283
▁आकृतियों	-15284
▁क्रोमियम	-15285
▁वरीयताएँ	-15286
▁औजारपट्टी	-15287
▁टेक्नोलॉजी	-15288
▁स्थानापन्न	-15289
▁आयुर्विज्ञान	-15290
▁अर्थव्यवस्थाओं	-15291
AL	-15292
झू	-15293
नै	-15294
ोभ	-15295
ज्म	-15296
ुली	-15297
▁59	-15298
▁मग	-15299
▁२३	-15300
कांग	-15301
नाशी	-15302
पाटी	-15303
सारी	-15304
▁चूह	-15305
▁थें	-15306
बन्धु	-15307
मान्त	-15308
मिस्र	-15309
ोनियम	-15310
▁आइसल	-15311
▁इमेज	-15312
▁दीपक	-15313
▁बाबर	-15314
▁लालच	-15315
▁शौहर	-15316
मोबाइल	-15317
▁ग़रीब	-15318
▁जुनून	-15319
▁नापाक	-15320
▁नोट्स	-15321
▁बुर्ज	-15322
▁व्यभि	-15323
धारियों	-15324
▁कार्यो	-15325
▁तुम्ही	-15326
▁रिचर्ड	-15327
▁सवालों	-15328
▁सिगरेट	-15329
▁नर्सिंग	-15330
▁यंत्रों	-15331
▁अनुज्ञेय	-15332
▁तस्वीरें	-15333
▁परिचालित	-15334
▁अधिष्ठापित	-15335
▁परिवर्तनीय	-15336
37	-15337
मश	-15338
ुख	-15339
लिफ	-15340
▁कफ	-15341
आरएस	-15342
रेखण	-15343
वेरी	-15344
ोज्य	-15345
▁पों	-15346
▁file	-15347
▁केले	-15348
▁गांठ	-15349
▁झुकी	-15350
▁नकार	-15351
▁सूफी	-15352
▁अधूरा	-15353
▁आरोहण	-15354
▁उल्टी	-15355
▁क्रॉस	-15356
▁चिकनी	-15357
▁दबाने	-15358
▁बन्दी	-15359
▁विजयन	-15360
▁व्यंज	-15361
▁अनगिनत	-15362
▁पूछेगा	-15363
▁प्लांट	-15364
▁रचनाएं	-15365
▁सुशासन	-15366
▁ऑक्सीजन	-15367
▁ऑप्टिकल	-15368
▁पुत्रों	-15369
▁स्थानिक	-15370
▁निर्देशन	-15371
▁स्वराज्य	-15372
▁चमत्कारों	-15373
▁ब्राह्मणों	-15374
▁राजनीतिज्ञ	-15375
▁सूक्ष्मदर्शी	-15376
".	-15377
per	-15378
नाद	-15379
ालु	-15380
▁ढे	-15381
लीला	-15382
वासन	-15383
ोलिक	-15384
▁एप्	-15385
▁ग्न	-15386
▁डाई	-15387
▁तरस	-15388
▁बुध	-15389
स्पेस	-15390
▁उलझन	-15391
▁क़ार	-15392
▁गाजा	-15393
▁परले	-15394
▁पर्स	-15395
▁मुन्	-15396
▁मेधा	-15397
▁रूपा	-15398
▁लोहा	-15399
▁वाटर	-15400
उदाहरण	-15401
न्द्रह	-15402
▁खरीदा	-15403
▁जातीं	-15404
▁दुर्व	-15405
▁बिन्द	-15406
▁बेमेल	-15407
▁ह्रदय	-15408
▁50,000	-15409
▁कमियों	-15410
▁निकालो	-15411
▁मद्देन	-15412
▁मोर्चा	-15413
▁सेकण्ड	-15414
राष्ट्री	-15415
▁कविताएँ	-15416
▁क्षुद्र	-15417
▁चिंताओं	-15418
▁बुजुर्ग	-15419
▁समयावधि	-15420
▁संग्रहीत	-15421
▁अल्पकालिक	-15422
▁उत्पादकों	-15423
/0	-15424
aj	-15425
आग	-15426
।।	-15427
lock	-15428
यहूद	-15429
▁50%	-15430
▁int	-15431
▁अवर	-15432
▁जेट	-15433
▁मरो	-15434
▁रपट	-15435
▁सजग	-15436
▁हज़	-15437
▁हाय	-15438
-2-2.	-15439
italy	-15440
स्‍था	-15441
▁उदास	-15442
▁खेले	-15443
▁छापा	-15444
▁जलने	-15445
▁थोडा	-15446
▁दाँत	-15447
▁२००५	-15448
कोशिका	-15449
▁उर्जा	-15450
▁चमकता	-15451
▁चौबीस	-15452
▁पक्षा	-15453
▁पैलेस	-15454
▁पोषित	-15455
▁प्यास	-15456
▁भारित	-15457
▁माँगो	-15458
▁सोचकर	-15459
▁हाजिर	-15460
▁इनसाफ़	-15461
▁ज्ञानी	-15462
▁सूरदास	-15463
▁सूर्या	-15464
▁हालिया	-15465
▁हिब्रू	-15466
▁ईश्वरीय	-15467
▁त्रिकोण	-15468
▁ग्राफिक्स	-15469
▁सैद्धांतिक	-15470
प्रौद्योगिकी	-15471
▁प्रतीकात्मक	-15472
▁कार्यप्रणाली	-15473
सज	-15474
-16	-15475
आदम	-15476
टिप	-15477
डेल	-15478
util	-15479
विले	-15480
सीआई	-15481
▁(15	-15482
▁आइस	-15483
▁जूझ	-15484
▁दुम	-15485
▁बूँ	-15486
▁मिड	-15487
लेकिन	-15488
▁घाना	-15489
▁तुर्	-15490
▁धनुष	-15491
▁सोचो	-15492
प्रेशन	-15493
▁क्रैश	-15494
▁खिसका	-15495
▁डिबगर	-15496
▁ताबीर	-15497
▁फाइबर	-15498
▁बैठता	-15499
▁महंगा	-15500
▁माइनस	-15501
▁समरूप	-15502
▁कहलाती	-15503
▁गर्दिश	-15504
▁फिलहाल	-15505
▁हरिश्च	-15506
फ़रिश्ते	-15507
▁निरर्थक	-15508
▁प्राइवेट	-15509
▁बहुआयामी	-15510
▁संरचनाओं	-15511
▁अत्याधुनिक	-15512
▁प्रोसेसिंग	-15513
ऋण	-15514
चैन	-15515
डोल	-15516
िनो	-15517
▁SM	-15518
▁ठो	-15519
▁५०	-15520
कायक	-15521
जोड़	-15522
पाही	-15523
सबको	-15524
साधन	-15525
▁छठे	-15526
▁पैग	-15527
▁हाए	-15528
yahoo	-15529
सूचित	-15530
ार्जन	-15531
▁कंटे	-15532
▁क्रि	-15533
▁क्लो	-15534
▁गोदा	-15535
▁तुलन	-15536
▁पीटर	-15537
▁माथे	-15538
▁मुखर	-15539
▁सूती	-15540
्रीकरण	-15541
▁काटना	-15542
▁चाहने	-15543
▁मुस्त	-15544
▁संपरी	-15545
▁सत्तर	-15546
▁सर्दी	-15547
▁सिक्ख	-15548
गुनाहों	-15549
▁उपस्कर	-15550
▁डिक्री	-15551
▁तरीक़ा	-15552
▁निबन्ध	-15553
▁बहियों	-15554
▁बेहतरी	-15555
▁भण्डार	-15556
▁रुकावट	-15557
▁स्तुति	-15558
▁परन्तुक	-15559
▁राशियों	-15560
▁आपूर्तिक	-15561
▁उग्रवादी	-15562
▁डेनमार्क	-15563
▁वाल्मीकि	-15564
▁उद्यमशीलता	-15565
▁राष्ट्रवाद	-15566
▁महत्वाकांक्षी	-15567
कण	-15568
नौ	-15569
शर	-15570
ass	-15571
ire	-15572
ols	-15573
ymb	-15574
▁इथ	-15575
आरआई	-15576
गेशन	-15577
▁अबु	-15578
▁उज़	-15579
▁केन	-15580
▁जीभ	-15581
▁पीस	-15582
▁महि	-15583
▁सुग	-15584
-2000	-15585
ब्दिक	-15586
मितीय	-15587
मुख्य	-15588
▁क़ान	-15589
▁गाते	-15590
▁छेड़	-15591
▁नफ्स	-15592
▁भूरे	-15593
▁शाला	-15594
▁आलोचक	-15595
▁घटिया	-15596
▁चिपका	-15597
▁तोहमत	-15598
▁पंखों	-15599
▁पलटना	-15600
▁मकबरे	-15601
▁रुग्ण	-15602
▁गुज़ार	-15603
▁मुट्ठी	-15604
▁सिन्धु	-15605
▁उज्ज्वल	-15606
▁पुरूषों	-15607
▁शासनकाल	-15608
▁जानेवाला	-15609
▁तेलंगाना	-15610
▁अस्पतालों	-15611
▁राजकुमारी	-15612
▁स्त्रियां	-15613
▁शांतिनिकेतन	-15614
ud	-15615
शौ	-15616
करा	-15617
शाम	-15618
help	-15619
उसपर	-15620
क्कन	-15621
जनरल	-15622
ज़ात	-15623
दीना	-15624
बैठे	-15625
यावी	-15626
सत्य	-15627
ाधीन	-15628
▁पाव	-15629
▁बदर	-15630
▁मुज	-15631
शुद्ध	-15632
ॉर्डन	-15633
▁उड़न	-15634
▁चतुर	-15635
▁सादे	-15636
▁स्‍त	-15637
▁हंसी	-15638
▁हुक्	-15639
परिवार	-15640
प्रवेश	-15641
▁आफताब	-15642
▁पत्ती	-15643
▁पराजय	-15644
▁पलायन	-15645
▁मोड़ा	-15646
▁रूसवा	-15647
▁सिरों	-15648
▁सॉल्व	-15649
▁स्टेड	-15650
▁स्वंय	-15651
▁आपरेशन	-15652
▁उत्तरो	-15653
▁गुर्दे	-15654
▁भेड़ों	-15655
▁मानोगे	-15656
▁अभिवादन	-15657
▁जन्मजात	-15658
▁परिकलित	-15659
▁बकरियों	-15660
▁सिमुलेशन	-15661
▁हाइड्रोजन	-15662
▁आत्मनिर्भरता	-15663
▁प्रविष्टियों	-15664
▁दिशानिर्देशों	-15665
31	-15666
St	-15667
चिप	-15668
ञ्च	-15669
शों	-15670
ोपा	-15671
सज़ा	-15672
▁(12	-15673
▁अजब	-15674
▁आहि	-15675
▁ऊंच	-15676
▁टाई	-15677
▁डोम	-15678
▁फलन	-15679
▁रूक	-15680
▁रूख	-15681
▁हिट	-15682
तौरैत	-15683
सियों	-15684
हुक्म	-15685
ोबारी	-15686
्‍यों	-15687
▁1954	-15688
▁कॉलम	-15689
▁टोपी	-15690
▁तौक़	-15691
▁नामए	-15692
एफसीआई	-15693
कुदरते	-15694
द्वारा	-15695
▁एक्से	-15696
▁क़ौमे	-15697
▁चालें	-15698
▁तौरैत	-15699
▁दसवीं	-15700
▁पहलें	-15701
▁बदचलन	-15702
▁व्‍या	-15703
▁साक्ष	-15704
▁ऊर्ध्व	-15705
▁मुनाफा	-15706
▁अँधेरों	-15707
▁इमारतें	-15708
▁ऋणात्मक	-15709
▁क्यक्ति	-15710
▁क्षितिज	-15711
▁चुनिंदा	-15712
▁पहुंचती	-15713
▁पूछेंगे	-15714
▁प्रत्यय	-15715
▁प्रांगण	-15716
▁बख़्शिस	-15717
▁मुख़ाले	-15718
▁शिलालेख	-15719
▁कारीगरों	-15720
▁फ़ॉर्मेट	-15721
▁बरकतवाला	-15722
▁बेजबरुवा	-15723
▁मसख़रापन	-15724
▁मुहताजों	-15725
▁नफ़सियानी	-15726
▁बेरोजगारी	-15727
▁विरोधाभास	-15728
▁फ़रमाबरदार	-15729
▁व्यवस्थाओं	-15730
▁विकिपीडियाः	-15731
▁झुठलानेवालों	-15732
▁देवेन्द्रनाथ	-15733
वॉ	-15734
हस	-15735
तुल	-15736
थलग	-15737
दीर	-15738
▁नख	-15739
करने	-15740
ताबी	-15741
बीआई	-15742
स्लो	-15743
▁sec	-15744
▁चेन	-15745
पूंजी	-15746
विद्य	-15747
िंग्स	-15748
▁उसमे	-15749
▁कपूर	-15750
▁धुरी	-15751
▁बहाव	-15752
▁बोतल	-15753
▁मदयन	-15754
▁सूली	-15755
▁स्नि	-15756
▁काटकर	-15757
▁गोपुर	-15758
▁तटस्थ	-15759
▁नक्शा	-15760
▁न्यूज	-15761
▁बढ़ाई	-15762
▁सहेजी	-15763
न्तुष्ट	-15764
▁आयोजना	-15765
▁कीमिया	-15766
▁कुर्ता	-15767
▁गुच्छे	-15768
▁जुड़ाव	-15769
▁परिचार	-15770
▁विलम्ब	-15771
▁स्कीमा	-15772
▁अन्देशा	-15773
▁करेंगें	-15774
▁दीवारें	-15775
▁हुज़ूरी	-15776
▁इंजीनियरों	-15777
▁लाभार्थियों	-15778
▁सिद्धान्तों	-15779
किए	-15780
दरी	-15781
लीज	-15782
ंबार	-15783
जाना	-15784
▁थाम	-15785
▁दबे	-15786
▁लूप	-15787
▁विभ	-15788
▁शेल	-15789
▁सल्	-15790
िक्की	-15791
▁आयतन	-15792
▁फर्ज	-15793
▁बचें	-15794
▁बनवा	-15795
▁बाँस	-15796
▁यकृत	-15797
▁वैभव	-15798
▁सप्त	-15799
eeting	-15800
नामकरण	-15801
▁काष्ठ	-15802
▁रवैया	-15803
द्देश्य	-15804
न्त्रिक	-15805
▁अकाउंट	-15806
▁गंधर्व	-15807
▁प्यारे	-15808
▁रिश्ता	-15809
▁मार्क्स	-15810
▁शाहजहाँ	-15811
▁सम्पादन	-15812
▁स्पेक्ट	-15813
▁आधुनिकता	-15814
▁उत्साहित	-15815
▁मतदाताओं	-15816
▁कम्पनियों	-15817
▁प्रणालियां	-15818
▁हिस्सेदारी	-15819
▁बुद्धिमत्ता	-15820
अभ	-15821
बरू	-15822
ंगली	-15823
ल्सन	-15824
▁एला	-15825
▁कपट	-15826
▁तुन	-15827
▁तें	-15828
▁दली	-15829
▁लीन	-15830
▁विड	-15831
▁सान	-15832
ड्यूल	-15833
रियों	-15834
र्भाव	-15835
षिद्ध	-15836
साध्य	-15837
सुकता	-15838
स्कोप	-15839
▁अंगी	-15840
▁घड़ा	-15841
▁निता	-15842
▁बहने	-15843
▁यत्न	-15844
▁संतृ	-15845
▁सोते	-15846
प्रसाद	-15847
ायुक्त	-15848
▁अपवर्	-15849
▁कोलंब	-15850
▁गोदाम	-15851
▁तमाशा	-15852
▁भुवने	-15853
▁सम्बो	-15854
ानात्मक	-15855
▁अवयवों	-15856
▁क़र्ज़	-15857
▁कृतघ्न	-15858
▁प्रयाग	-15859
▁बंगलौर	-15860
▁बेहूदा	-15861
▁माउन्ट	-15862
▁मीटिंग	-15863
▁शाखाएं	-15864
▁हथकरघा	-15865
▁आरम्भिक	-15866
▁निवेशों	-15867
▁रास्तों	-15868
▁धैर्यवान	-15869
▁फ़ाइलनाम	-15870
▁मातृभाषा	-15871
New	-15872
विस	-15873
शाद	-15874
शोध	-15875
▁92	-15876
▁यी	-15877
_02.	-15878
डीएम	-15879
ब्रा	-15880
लिंक	-15881
▁10.	-15882
▁दीव	-15883
▁रचा	-15884
▁१९६	-15885
▁Serv	-15886
▁type	-15887
▁कपिल	-15888
▁घिरे	-15889
▁फरेब	-15890
▁मंडी	-15891
▁मिसल	-15892
▁योगी	-15893
कानूनी	-15894
▁अध्‍य	-15895
▁अभिला	-15896
▁इंजिन	-15897
▁उगाने	-15898
▁खुलकर	-15899
▁डब्लू	-15900
▁धब्बे	-15901
▁नतीजे	-15902
▁निर्म	-15903
▁मनाते	-15904
▁मसाले	-15905
▁माँगी	-15906
[...]
