<pad>	0
<unk>	0
<s>	0
</s>	0
<mask>	0
▁t	-0
he	-1
▁a	-2
in	-3
▁the	-4
▁o	-5
re	-6
er	-7
▁s	-8
nd	-9
▁w	-10
at	-11
on	-12
is	-13
en	-14
▁of	-15
it	-16
▁c	-17
▁b	-18
or	-19
es	-20
▁f	-21
ed	-22
ou	-23
▁p	-24
an	-25
al	-26
ar	-27
▁in	-28
▁and	-29
ing	-30
▁to	-31
▁m	-32
▁d	-33
ion	-34
▁h	-35
as	-36
ic	-37
le	-38
om	-39
▁th	-40
ent	-41
ll	-42
▁n	-43
▁A	-44
▁T	-45
▁be	-46
ve	-47
▁e	-48
▁I	-49
ct	-50
▁re	-51
▁is	-52
▁S	-53
ro	-54
▁l	-55
st	-56
▁y	-57
ot	-58
▁g	-59
ut	-60
id	-61
se	-62
▁for	-63
ation	-64
ur	-65
im	-66
▁wh	-67
ce	-68
ay	-69
ly	-70
ad	-71
▁you	-72
ver	-73
▁u	-74
ow	-75
▁The	-76
am	-77
▁on	-78
▁C	-79
▁P	-80
▁M	-81
et	-82
▁H	-83
ir	-84
il	-85
▁-	-86
ig	-87
▁that	-88
ch	-89
▁he	-90
ment	-91
▁B	-92
ith	-93
ol	-94
▁it	-95
▁as	-96
▁(	-97
ra	-98
ill	-99
▁an	-100
▁or	-101
od	-102
▁not	-103
if	-104
▁W	-105
▁st	-106
ess	-107
ul	-108
▁with	-109
ter	-110
▁are	-111
ri	-112
ge	-113
▁de	-114
▁ha	-115
her	-116
▁pro	-117
▁G	-118
▁D	-119
▁con	-120
ate	-121
▁su	-122
▁we	-123
ld	-124
▁R	-125
▁se	-126
rom	-127
ab	-128
res	-129
op	-130
ers	-131
▁'	-132
th	-133
ak	-134
nt	-135
▁L	-136
▁com	-137
▁by	-138
ist	-139
▁sh	-140
▁1	-141
pe	-142
ain	-143
ht	-144
▁N	-145
▁was	-146
▁have	-147
▁they	-148
▁from	-149
▁ex	-150
iv	-151
▁them	-152
▁will	-153
est	-154
all	-155
ity	-156
us	-157
em	-158
and	-159
▁O	-160
▁who	-161
ah	-162
▁v	-163
▁E	-164
▁F	-165
▁this	-166
ore	-167
ich	-168
ive	-169
ie	-170
ant	-171
ac	-172
um	-173
▁k	-174
▁Ind	-175
qu	-176
ction	-177
▁has	-178
▁r	-179
pp	-180
▁He	-181
ies	-182
▁at	-183
art	-184
ure	-185
os	-186
▁which	-187
un	-188
ia	-189
ould	-190
ort	-191
▁All	-192
▁their	-193
el	-194
ard	-195
▁ne	-196
oc	-197
ight	-198
red	-199
our	-200
▁his	-201
ord	-202
▁al	-203
ind	-204
pt	-205
ous	-206
▁all	-207
ose	-208
▁le	-209
ust	-210
▁ch	-211
te	-212
▁2	-213
ther	-214
▁do	-215
▁In	-216
▁whe	-217
▁K	-218
ong	-219
ud	-220
ag	-221
age	-222
ial	-223
ome	-224
▁Allah	-225
▁Th	-226
▁tr	-227
▁And	-228
▁We	-229
▁wor	-230
cc	-231
ated	-232
▁U	-233
ance	-234
▁your	-235
ount	-236
▁me	-237
▁sa	-238
▁pl	-239
▁go	-240
ip	-241
ect	-242
▁dis	-243
ans	-244
▁ab	-245
rou	-246
av	-247
ast	-248
ear	-249
▁us	-250
▁India	-251
ide	-252
ost	-253
ry	-254
able	-255
▁can	-256
▁any	-257
ff	-258
▁im	-259
▁there	-260
ame	-261
ok	-262
▁pe	-263
▁but	-264
▁un	-265
nder	-266
now	-267
▁comp	-268
▁ad	-269
▁en	-270
▁man	-271
▁up	-272
ish	-273
▁one	-274
ary	-275
▁him	-276
ap	-277
og	-278
▁j	-279
▁so	-280
ult	-281
▁been	-282
ice	-283
▁"	-284
▁other	-285
▁per	-286
▁J	-287
so	-288
▁V	-289
out	-290
ople	-291
one	-292
▁were	-293
▁res	-294
ical	-295
ru	-296
per	-297
ik	-298
ence	-299
au	-300
ions	-301
gh	-302
▁had	-303
▁It	-304
▁cont	-305
ib	-306
ire	-307
pl	-308
▁those	-309
00	-310
ress	-311
iz	-312
vel	-313
▁am	-314
▁when	-315
are	-316
▁said	-317
ake	-318
▁ag	-319
ime	-320
ine	-321
ail	-322
▁people	-323
▁know	-324
ations	-325
ign	-326
very	-327
▁shall	-328
ue	-329
ase	-330
orm	-331
▁Y	-332
▁inc	-333
▁under	-334
▁out	-335
ile	-336
ade	-337
▁ind	-338
▁part	-339
ang	-340
vers	-341
ath	-342
ings	-343
▁cl	-344
▁no	-345
ub	-346
ens	-347
▁/	-348
▁int	-349
rit	-350
▁its	-351
▁bel	-352
▁what	-353
ace	-354
▁ar	-355
▁God	-356
ach	-357
▁also	-358
ep	-359
▁if	-360
▁co	-361
▁our	-362
ian	-363
ass	-364
▁Ch	-365
act	-366
▁ev	-367
▁19	-368
ber	-369
▁St	-370
▁comm	-371
ious	-372
▁may	-373
ren	-374
▁te	-375
lic	-376
reat	-377
▁Lord	-378
ise	-379
▁app	-380
du	-381
ual	-382
vern	-383
▁acc	-384
▁imp	-385
▁sc	-386
fore	-387
ook	-388
ree	-389
fter	-390
erv	-391
▁This	-392
ory	-393
ition	-394
ident	-395
fe	-396
ack	-397
▁year	-398
▁sp	-399
old	-400
urn	-401
▁would	-402
▁sub	-403
▁spe	-404
▁Sh	-405
ike	-406
▁only	-407
▁bec	-408
▁“	-409
▁such	-410
ove	-411
▁rel	-412
hed	-413
ject	-414
form	-415
▁_	-416
▁tw	-417
▁time	-418
▁pre	-419
ause	-420
sel	-421
▁prov	-422
▁work	-423
ater	-424
ted	-425
▁then	-426
▁rec	-427
▁over	-428
ational	-429
▁po	-430
..	-431
rib	-432
ric	-433
▁Go	-434
ities	-435
▁ear	-436
▁fo	-437
▁made	-438
▁belie	-439
▁day	-440
ild	-441
▁qu	-442
▁As	-443
we	-444
ward	-445
lect	-446
ound	-447
ied	-448
▁should	-449
▁more	-450
▁about	-451
▁like	-452
▁than	-453
vernment	-454
▁my	-455
wn	-456
▁some	-457
ces	-458
▁into	-459
ution	-460
ife	-461
▁Pro	-462
▁new	-463
▁ass	-464
▁say	-465
tern	-466
▁em	-467
▁bet	-468
ert	-469
uth	-470
ite	-471
ful	-472
▁count	-473
ark	-474
▁fe	-475
▁off	-476
▁But	-477
▁Wh	-478
▁rem	-479
aj	-480
▁cons	-481
way	-482
▁They	-483
▁pr	-484
▁Com	-485
velop	-486
ness	-487
iss	-488
▁3	-489
ons	-490
▁Se	-491
sh	-492
stit	-493
own	-494
▁two	-495
cept	-496
ific	-497
gr	-498
▁”	-499
▁reg	-500
oy	-501
hen	-502
ank	-503
▁[	-504
▁good	-505
ments	-506
▁these	-507
ved	-508
me	-509
▁after	-510
▁form	-511
▁act	-512
▁ro	-513
ily	-514
▁So	-515
▁Un	-516
led	-517
▁des	-518
ates	-519
▁before	-520
▁Re	-521
ient	-522
▁pers	-523
▁ent	-524
ond	-525
▁ob	-526
ph	-527
ne	-528
ave	-529
cess	-530
01	-531
▁again	-532
llow	-533
▁De	-534
ts	-535
▁His	-536
ors	-537
▁bl	-538
▁dec	-539
eng	-540
▁right	-541
cy	-542
▁see	-543
ght	-544
▁rep	-545
▁gu	-546
▁fir	-547
ower	-548
ink	-549
row	-550
▁trans	-551
▁ac	-552
▁pres	-553
▁her	-554
▁sy	-555
▁life	-556
rough	-557
cial	-558
erm	-559
ced	-560
aw	-561
▁An	-562
eth	-563
▁call	-564
▁giv	-565
▁Indian	-566
▁world	-567
ob	-568
▁ra	-569
ism	-570
▁Pr	-571
arm	-572
pect	-573
▁fl	-574
▁where	-575
▁Con	-576
resident	-577
▁being	-578
▁set	-579
rent	-580
▁through	-581
ener	-582
▁way	-583
▁develop	-584
),	-585
other	-586
ange	-587
▁You	-588
▁cre	-589
▁inv	-590
▁every	-591
▁great	-592
ning	-593
▁dif	-594
ally	-595
ves	-596
▁There	-597
eed	-598
ating	-599
ever	-600
uring	-601
li	-602
uc	-603
igh	-604
▁If	-605
int	-606
ft	-607
ull	-608
▁Bh	-609
oth	-610
ative	-611
les	-612
nds	-613
▁serv	-614
xt	-615
▁down	-616
▁thou	-617
ween	-618
▁make	-619
ided	-620
▁country	-621
▁att	-622
olog	-623
its	-624
▁sec	-625
▁br	-626
▁add	-627
▁pol	-628
).	-629
ax	-630
▁Is	-631
▁Government	-632
▁President	-633
▁produ	-634
▁cent	-635
ages	-636
▁follow	-637
▁between	-638
ular	-639
▁used	-640
ible	-641
▁exp	-642
▁&	-643
ublic	-644
▁pos	-645
ood	-646
▁ke	-647
ple	-648
ural	-649
ised	-650
▁En	-651
▁well	-652
▁could	-653
pen	-654
▁Min	-655
▁did	-656
stem	-657
▁first	-658
ble	-659
gan	-660
▁Him	-661
▁come	-662
▁inte	-663
▁person	-664
oci	-665
▁Act	-666
als	-667
▁years	-668
ty	-669
▁eff	-670
▁most	-671
▁For	-672
▁ret	-673
▁upon	-674
lp	-675
▁many	-676
any	-677
▁5	-678
pport	-679
▁sign	-680
▁Ex	-681
ving	-682
hi	-683
▁col	-684
ents	-685
▁unt	-686
ility	-687
ature	-688
▁back	-689
▁very	-690
▁even	-691
lud	-692
▁earth	-693
ited	-694
▁dist	-695
rie	-696
▁how	-697
▁Comm	-698
con	-699
▁4	-700
▁ord	-701
▁num	-702
fer	-703
▁among	-704
ven	-705
▁mess	-706
▁pur	-707
ister	-708
▁ed	-709
▁get	-710
▁200	-711
ting	-712
▁own	-713
▁against	-714
ale	-715
self	-716
▁tra	-717
air	-718
elie	-719
iew	-720
▁need	-721
amm	-722
uch	-723
aking	-724
ck	-725
ather	-726
▁help	-727
ha	-728
hes	-729
ission	-730
irect	-731
▁inst	-732
▁sent	-733
ati	-734
get	-735
▁take	-736
ute	-737
ision	-738
ures	-739
ased	-740
▁val	-741
chn	-742
▁writ	-743
und	-744
▁does	-745
▁mem	-746
▁Ad	-747
▁char	-748
ract	-749
▁mod	-750
formation	-751
▁disc	-752
▁believe	-753
▁use	-754
▁Ne	-755
▁she	-756
▁given	-757
▁ap	-758
ick	-759
not	-760
▁gr	-761
ants	-762
▁turn	-763
▁system	-764
read	-765
rong	-766
▁just	-767
▁State	-768
▁child	-769
▁bu	-770
ished	-771
ices	-772
▁because	-773
▁end	-774
▁requ	-775
▁ins	-776
▁must	-777
▁import	-778
▁mat	-779
▁On	-780
▁mon	-781
▁cert	-782
▁Sc	-783
▁To	-784
▁ph	-785
ives	-786
ock	-787
belie	-788
▁ye	-789
round	-790
up	-791
▁pass	-792
▁place	-793
▁diffe	-794
▁hum	-795
ash	-796
ctions	-797
ital	-798
of	-799
ides	-800
iness	-801
▁lit	-802
ari	-803
▁account	-804
alth	-805
ror	-806
▁car	-807
▁long	-808
▁When	-809
pr	-810
▁Am	-811
ouse	-812
rest	-813
▁equ	-814
arch	-815
pos	-816
ivers	-817
▁give	-818
▁wom	-819
▁power	-820
ten	-821
▁>	-822
▁sm	-823
ries	-824
tle	-825
▁cap	-826
...	-827
▁av	-828
▁Al	-829
▁cle	-830
ene	-831
ral	-832
▁Day	-833
ix	-834
▁gener	-835
ified	-836
▁min	-837
▁sure	-838
▁includ	-839
pend	-840
▁prom	-841
arn	-842
ata	-843
▁inter	-844
▁water	-845
ES	-846
▁name	-847
uthor	-848
▁cond	-849
▁201	-850
selves	-851
▁No	-852
▁<	-853
▁now	-854
▁nor	-855
▁away	-856
▁gl	-857
▁let	-858
▁Hind	-859
▁found	-860
ork	-861
ars	-862
ined	-863
ug	-864
oun	-865
ee	-866
▁lar	-867
ared	-868
ety	-869
ern	-870
▁want	-871
▁number	-872
roup	-873
ship	-874
conom	-875
▁state	-876
▁men	-877
▁lo	-878
ists	-879
."	-880
▁lead	-881
▁heav	-882
▁Our	-883
▁fin	-884
day	-885
tc	-886
▁conc	-887
▁during	-888
▁conf	-889
ana	-890
▁inf	-891
less	-892
▁fam	-893
angu	-894
the	-895
▁Cent	-896
ters	-897
▁same	-898
ict	-899
▁main	-900
ody	-901
▁fore	-902
▁section	-903
ledge	-904
▁while	-905
ys	-906
▁heart	-907
ruct	-908
imes	-909
iod	-910
▁spec	-911
▁whom	-912
▁cur	-913
▁occ	-914
ology	-915
▁Q	-916
▁present	-917
▁det	-918
▁each	-919
ired	-920
ron	-921
▁rece	-922
▁case	-923
▁6	-924
▁development	-925
▁land	-926
▁ask	-927
ered	-928
▁here	-929
▁est	-930
lim	-931
▁sin	-932
aken	-933
▁art	-934
▁pay	-935
▁cor	-936
ality	-937
▁organ	-938
▁resp	-939
▁Te	-940
▁process	-941
ption	-942
▁book	-943
▁ser	-944
▁called	-945
▁stud	-946
▁cour	-947
▁adv	-948
▁both	-949
ains	-950
▁order	-951
▁another	-952
ya	-953
▁def	-954
▁etc	-955
har	-956
▁loc	-957
su	-958
▁things	-959
▁dem	-960
▁law	-961
▁open	-962
▁comple	-963
▁truth	-964
▁word	-965
▁Then	-966
ience	-967
▁return	-968
▁prev	-969
ics	-970
wards	-971
▁Res	-972
man	-973
▁fac	-974
▁educ	-975
▁sur	-976
ize	-977
lease	-978
amp	-979
▁aff	-980
▁bus	-981
ained	-982
▁Ar	-983
▁start	-984
▁mark	-985
▁ce	-986
port	-987
▁period	-988
▁public	-989
▁indust	-990
bers	-991
▁dev	-992
▁term	-993
▁different	-994
▁list	-995
ention	-996
lish	-997
▁beh	-998
▁indeed	-999
EN	-1000
▁partic	-1001
▁play	-1002
▁file	-1003
▁Mu	-1004
▁Do	-1005
▁best	-1006
▁Par	-1007
▁Mus	-1008
▁ref	-1009
▁find	-1010
▁three	-1011
▁certain	-1012
ov	-1013
▁came	-1014
▁commun	-1015
▁Mess	-1016
▁without	-1017
▁8	-1018
▁Tr	-1019
▁fil	-1020
▁fact	-1021
▁wind	-1022
▁econom	-1023
erg	-1024
▁sou	-1025
▁knowledge	-1026
▁cro	-1027
▁show	-1028
▁bro	-1029
▁7	-1030
▁fear	-1031
▁fa	-1032
▁National	-1033
▁sl	-1034
▁techn	-1035
▁poss	-1036
▁relig	-1037
stitution	-1038
▁0	-1039
ived	-1040
▁read	-1041
▁ext	-1042
ines	-1043
▁‘	-1044
▁means	-1045
mit	-1046
▁interest	-1047
▁support	-1048
▁appro	-1049
▁hand	-1050
▁author	-1051
▁look	-1052
aid	-1053
ai	-1054
▁much	-1055
ament	-1056
▁high	-1057
▁avail	-1058
▁information	-1059
▁progr	-1060
ploy	-1061
▁except	-1062
▁Mah	-1063
▁Shri	-1064
▁grow	-1065
▁ty	-1066
esh	-1067
▁gra	-1068
ner	-1069
▁vis	-1070
stand	-1071
ither	-1072
▁tem	-1073
ination	-1074
▁langu	-1075
ough	-1076
▁stand	-1077
here	-1078
ield	-1079
▁pun	-1080
▁respect	-1081
iving	-1082
ually	-1083
crib	-1084
▁incre	-1085
▁direct	-1086
▁med	-1087
▁contin	-1088
▁full	-1089
▁disbelie	-1090
ized	-1091
ccess	-1092
▁government	-1093
▁Minister	-1094
:%	-1095
rence	-1096
▁(1	-1097
ocial	-1098
▁var	-1099
▁OF	-1100
▁Say	-1101
ffic	-1102
▁human	-1103
▁women	-1104
oh	-1105
ret	-1106
ms	-1107
▁think	-1108
▁oper	-1109
ify	-1110
cl	-1111
▁sk	-1112
▁Or	-1113
▁small	-1114
gg	-1115
▁unto	-1116
▁meet	-1117
▁project	-1118
▁group	-1119
▁clear	-1120
▁At	-1121
▁Man	-1122
eds	-1123
▁That	-1124
▁prof	-1125
▁created	-1126
▁18	-1127
ins	-1128
error	-1129
ware	-1130
▁sim	-1131
▁cannot	-1132
ool	-1133
ried	-1134
thing	-1135
▁Le	-1136
▁last	-1137
olution	-1138
▁ver	-1139
▁exam	-1140
▁effect	-1141
▁appe	-1142
▁som	-1143
▁happ	-1144
▁My	-1145
▁important	-1146
▁che	-1147
▁rest	-1148
ctor	-1149
▁become	-1150
▁cult	-1151
ency	-1152
inal	-1153
▁proper	-1154
lected	-1155
▁bring	-1156
▁–	-1157
▁What	-1158
ND	-1159
▁How	-1160
asht	-1161
▁div	-1162
stitut	-1163
▁message	-1164
▁Be	-1165
ks	-1166
▁ca	-1167
ways	-1168
mb	-1169
▁company	-1170
▁Book	-1171
rap	-1172
▁business	-1173
▁New	-1174
hip	-1175
▁amount	-1176
older	-1177
▁surely	-1178
▁taken	-1179
RB	-1180
▁today	-1181
enef	-1182
erc	-1183
▁never	-1184
▁known	-1185
lf	-1186
ember	-1187
▁These	-1188
por	-1189
▁estab	-1190
▁income	-1191
ider	-1192
▁might	-1193
▁pat	-1194
▁wrong	-1195
ER	-1196
▁punish	-1197
ases	-1198
▁head	-1199
▁pri	-1200
ining	-1201
akes	-1202
gress	-1203
az	-1204
ense	-1205
▁Pl	-1206
AR	-1207
▁children	-1208
den	-1209
bs	-1210
icy	-1211
istr	-1212
ls	-1213
min	-1214
▁various	-1215
▁ele	-1216
▁Me	-1217
▁applic	-1218
▁within	-1219
▁days	-1220
▁Ram	-1221
▁dest	-1222
ote	-1223
▁put	-1224
▁fun	-1225
ID	-1226
orts	-1227
work	-1228
▁sch	-1229
▁forg	-1230
▁9	-1231
▁bank	-1232
▁month	-1233
ss	-1234
▁accept	-1235
▁activ	-1236
▁four	-1237
tend	-1238
▁Muslim	-1239
▁themselves	-1240
▁old	-1241
▁better	-1242
reed	-1243
▁view	-1244
▁times	-1245
ode	-1246
▁faith	-1247
▁frie	-1248
▁PR	-1249
▁den	-1250
▁proble	-1251
put	-1252
▁mind	-1253
▁sit	-1254
ternal	-1255
▁evil	-1256
▁allow	-1257
▁done	-1258
▁large	-1259
▁success	-1260
▁ide	-1261
▁mar	-1262
▁body	-1263
to	-1264
ething	-1265
▁Ab	-1266
▁bas	-1267
▁Raj	-1268
▁left	-1269
ii	-1270
▁real	-1271
▁move	-1272
▁window	-1273
rought	-1274
▁social	-1275
▁Isl	-1276
avan	-1277
▁employ	-1278
▁going	-1279
▁others	-1280
▁par	-1281
▁level	-1282
TI	-1283
▁keep	-1284
▁address	-1285
oin	-1286
▁Eng	-1287
lished	-1288
▁education	-1289
rol	-1290
ically	-1291
ues	-1292
▁Gu	-1293
▁10	-1294
▁leg	-1295
ateg	-1296
ulation	-1297
ium	-1298
line	-1299
ery	-1300
▁bo	-1301
▁too	-1302
ization	-1303
▁imm	-1304
▁exper	-1305
ferred	-1306
▁build	-1307
oint	-1308
ator	-1309
par	-1310
ram	-1311
ey	-1312
alf	-1313
▁polit	-1314
ury	-1315
ession	-1316
▁soci	-1317
▁tre	-1318
▁light	-1319
atic	-1320
▁invest	-1321
▁towards	-1322
▁free	-1323
▁chang	-1324
rah	-1325
▁pop	-1326
▁due	-1327
itions	-1328
▁less	-1329
ON	-1330
▁dra	-1331
ran	-1332
▁result	-1333
▁sche	-1334
▁benef	-1335
iron	-1336
▁kind	-1337
▁Who	-1338
eric	-1339
▁available	-1340
▁One	-1341
enger	-1342
▁jud	-1343
▁quest	-1344
ief	-1345
▁dep	-1346
▁hist	-1347
ording	-1348
▁rev	-1349
ailed	-1350
▁Im	-1351
ged	-1352
▁war	-1353
irc	-1354
▁Central	-1355
▁trad	-1356
▁health	-1357
tt	-1358
alk	-1359
inc	-1360
ason	-1361
oss	-1362
▁heavens	-1363
▁issu	-1364
▁offic	-1365
▁Del	-1366
ird	-1367
▁language	-1368
ENT	-1369
▁understand	-1370
▁Ass	-1371
▁brought	-1372
▁prote	-1373
iversity	-1374
000	-1375
▁mo	-1376
▁199	-1377
▁exist	-1378
na	-1379
ering	-1380
▁value	-1381
ng	-1382
▁national	-1383
ances	-1384
▁command	-1385
ala	-1386
▁ri	-1387
cri	-1388
uss	-1389
▁punishment	-1390
▁cause	-1391
▁family	-1392
201	-1393
▁She	-1394
str	-1395
▁poet	-1396
ajor	-1397
▁Dep	-1398
iful	-1399
tal	-1400
▁class	-1401
▁bre	-1402
▁tas	-1403
▁const	-1404
ructure	-1405
▁{	-1406
▁food	-1407
▁change	-1408
▁lim	-1409
▁15	-1410
ternational	-1411
▁str	-1412
▁death	-1413
ately	-1414
▁Sub	-1415
ceed	-1416
ification	-1417
ising	-1418
▁associ	-1419
▁run	-1420
▁something	-1421
▁met	-1422
aim	-1423
▁Bhavan	-1424
urity	-1425
hing	-1426
▁market	-1427
▁Islam	-1428
▁house	-1429
▁special	-1430
▁service	-1431
▁Add	-1432
isions	-1433
ready	-1434
▁plan	-1435
rict	-1436
▁non	-1437
used	-1438
rial	-1439
ocu	-1440
section	-1441
▁vill	-1442
▁self	-1443
▁ru	-1444
phe	-1445
uty	-1446
ource	-1447
▁Rs	-1448
ential	-1449
▁mer	-1450
cut	-1451
▁supp	-1452
▁ey	-1453
ricult	-1454
▁Rasht	-1455
▁hard	-1456
irit	-1457
▁far	-1458
AN	-1459
▁Z	-1460
▁program	-1461
▁Can	-1462
▁father	-1463
ivid	-1464
uk	-1465
▁object	-1466
▁reve	-1467
▁field	-1468
ait	-1469
▁comput	-1470
▁area	-1471
▁matter	-1472
▁subject	-1473
▁provided	-1474
▁12	-1475
orn	-1476
itte	-1477
agement	-1478
▁near	-1479
▁data	-1480
iqu	-1481
urther	-1482
nect	-1483
▁product	-1484
▁ple	-1485
ured	-1486
▁love	-1487
▁net	-1488
▁already	-1489
han	-1490
rapati	-1491
▁Americ	-1492
▁op	-1493
▁Sec	-1494
▁regard	-1495
ali	-1496
▁enc	-1497
ference	-1498
▁sw	-1499
▁true	-1500
▁whole	-1501
reng	-1502
▁:	-1503
▁date	-1504
▁Dis	-1505
▁eng	-1506
gether	-1507
▁together	-1508
▁night	-1509
▁hig	-1510
▁Ag	-1511
▁members	-1512
▁Sing	-1513
▁charact	-1514
▁few	-1515
ability	-1516
▁rese	-1517
▁ann	-1518
oney	-1519
▁Gand	-1520
▁second	-1521
▁common	-1522
▁gave	-1523
▁capital	-1524
raph	-1525
▁worship	-1526
aring	-1527
▁perform	-1528
▁cr	-1529
cing	-1530
▁services	-1531
▁Us	-1532
▁countries	-1533
▁signs	-1534
▁Indeed	-1535
▁Your	-1536
▁following	-1537
reen	-1538
▁del	-1539
▁Rashtrapati	-1540
io	-1541
ancial	-1542
iding	-1543
▁Delhi	-1544
▁care	-1545
ently	-1546
▁20	-1547
▁Cont	-1548
▁expl	-1549
ma	-1550
▁Brit	-1551
▁above	-1552
▁liter	-1553
▁god	-1554
▁hold	-1555
▁tax	-1556
▁Those	-1557
be	-1558
▁11	-1559
eness	-1560
▁Spe	-1561
▁pray	-1562
ners	-1563
▁Pre	-1564
▁little	-1565
▁pract	-1566
come	-1567
▁dou	-1568
▁streng	-1569
land	-1570
▁provide	-1571
ogn	-1572
▁areas	-1573
▁based	-1574
liament	-1575
▁himself	-1576
ope	-1577
▁major	-1578
▁nation	-1579
eous	-1580
▁particular	-1581
ians	-1582
▁age	-1583
▁respons	-1584
itness	-1585
otion	-1586
▁economic	-1587
▁path	-1588
▁Rep	-1589
▁cost	-1590
▁asse	-1591
▁action	-1592
ying	-1593
ems	-1594
▁test	-1595
itor	-1596
val	-1597
aining	-1598
ilities	-1599
▁thought	-1600
oses	-1601
▁making	-1602
▁plac	-1603
▁words	-1604
isation	-1605
▁belong	-1606
▁consider	-1607
▁policy	-1608
artment	-1609
▁eas	-1610
ividual	-1611
▁hearts	-1612
adesh	-1613
HE	-1614
▁init	-1615
▁until	-1616
▁having	-1617
▁Acc	-1618
ger	-1619
▁el	-1620
▁Commission	-1621
ilit	-1622
▁able	-1623
ges	-1624
▁still	-1625
uro	-1626
▁beg	-1627
aled	-1628
ling	-1629
istry	-1630
▁though	-1631
▁pain	-1632
▁seen	-1633
▁ve	-1634
▁ever	-1635
▁current	-1636
chie	-1637
lection	-1638
▁around	-1639
oura	-1640
▁sector	-1641
osed	-1642
▁sol	-1643
▁took	-1644
viron	-1645
iver	-1646
▁society	-1647
▁type	-1648
idence	-1649
ards	-1650
ories	-1651
AL	-1652
▁instru	-1653
▁sing	-1654
▁necess	-1655
▁%	-1656
▁Cour	-1657
ara	-1658
▁occas	-1659
▁aut	-1660
▁farm	-1661
▁whose	-1662
jee	-1663
akh	-1664
▁States	-1665
ises	-1666
▁send	-1667
▁always	-1668
icult	-1669
▁individual	-1670
▁mus	-1671
uct	-1672
els	-1673
ammad	-1674
▁orig	-1675
▁along	-1676
play	-1677
▁spirit	-1678
▁rul	-1679
▁repres	-1680
▁post	-1681
▁express	-1682
▁seek	-1683
vironment	-1684
▁believers	-1685
▁nothing	-1686
▁Cl	-1687
▁PRES	-1688
▁enter	-1689
▁local	-1690
hy	-1691
ats	-1692
▁mult	-1693
▁therefore	-1694
▁meas	-1695
▁fav	-1696
▁ut	-1697
veral	-1698
▁whether	-1699
cil	-1700
▁thing	-1701
▁contrib	-1702
▁'%	-1703
▁including	-1704
▁Em	-1705
▁clause	-1706
▁deeds	-1707
▁political	-1708
▁creat	-1709
▁guid	-1710
▁thee	-1711
lement	-1712
▁folder	-1713
▁mill	-1714
▁create	-1715
br	-1716
▁achie	-1717
▁Bank	-1718
▁Beng	-1719
oad	-1720
▁witness	-1721
▁school	-1722
▁Gener	-1723
▁With	-1724
arent	-1725
▁further	-1726
▁religion	-1727
▁yet	-1728
▁vers	-1729
▁point	-1730
▁young	-1731
▁mean	-1732
ails	-1733
▁five	-1734
ames	-1735
ched	-1736
▁Reg	-1737
ication	-1738
▁Gandhi	-1739
▁Show	-1740
umb	-1741
reme	-1742
com	-1743
IN	-1744
▁Rem	-1745
▁growth	-1746
bt	-1747
▁Col	-1748
hammad	-1749
ustom	-1750
▁Prov	-1751
pportun	-1752
eration	-1753
oard	-1754
▁live	-1755
pose	-1756
▁side	-1757
▁complete	-1758
cribed	-1759
af	-1760
▁equal	-1761
▁control	-1762
▁later	-1763
▁received	-1764
after	-1765
▁total	-1766
ream	-1767
atever	-1768
▁nature	-1769
▁British	-1770
▁became	-1771
▁Not	-1772
ier	-1773
▁es	-1774
▁institut	-1775
erve	-1776
lling	-1777
▁home	-1778
ta	-1779
ann	-1780
ours	-1781
▁Ph	-1782
▁held	-1783
▁peace	-1784
▁docu	-1785
▁impro	-1786
ources	-1787
▁Please	-1788
rael	-1789
▁since	-1790
ude	-1791
▁Sy	-1792
ittee	-1793
▁hands	-1794
itional	-1795
hat	-1796
illed	-1797
▁inde	-1798
ached	-1799
ministr	-1800
▁circ	-1801
▁cred	-1802
▁leave	-1803
▁opportun	-1804
ead	-1805
▁dr	-1806
incip	-1807
The	-1808
▁diff	-1809
▁Messenger	-1810
▁friend	-1811
▁Most	-1812
▁After	-1813
▁next	-1814
▁record	-1815
▁THE	-1816
▁occasion	-1817
ences	-1818
▁mor	-1819
▁short	-1820
▁(2	-1821
▁question	-1822
▁strong	-1823
▁function	-1824
▁English	-1825
IDENT	-1826
opy	-1827
outh	-1828
herjee	-1829
atch	-1830
▁required	-1831
▁x	-1832
▁ill	-1833
▁mater	-1834
▁knows	-1835
▁region	-1836
▁Hindi	-1837
▁Prime	-1838
ches	-1839
for	-1840
▁previous	-1841
▁PRESIDENT	-1842
▁son	-1843
▁forth	-1844
OR	-1845
▁feel	-1846
▁Israel	-1847
▁key	-1848
ergy	-1849
ivil	-1850
▁Singh	-1851
▁brother	-1852
dom	-1853
▁Develop	-1854
▁reward	-1855
▁share	-1856
▁selected	-1857
▁mis	-1858
▁money	-1859
ibility	-1860
▁position	-1861
▁reason	-1862
▁text	-1863
▁Pe	-1864
omes	-1865
▁possible	-1866
ior	-1867
▁industry	-1868
just	-1869
▁flow	-1870
▁foreign	-1871
▁several	-1872
amb	-1873
▁relations	-1874
ME	-1875
stitute	-1876
▁port	-1877
udd	-1878
uation	-1879
change	-1880
▁dom	-1881
We	-1882
▁connect	-1883
▁priv	-1884
▁activities	-1885
cious	-1886
▁application	-1887
IT	-1888
▁either	-1889
▁research	-1890
▁certainly	-1891
▁Hindu	-1892
anab	-1893
▁concern	-1894
ps	-1895
▁Ministry	-1896
▁mother	-1897
▁authority	-1898
IA	-1899
▁dise	-1900
IS	-1901
▁Offic	-1902
▁access	-1903
earch	-1904
end	-1905
ouncil	-1906
most	-1907
hold	-1908
▁z	-1909
▁Cong	-1910
▁Parliament	-1911
ively	-1912
gu	-1913
aster	-1914
▁commit	-1915
ony	-1916
▁Some	-1917
▁Sw	-1918
▁sat	-1919
▁error	-1920
▁face	-1921
▁contact	-1922
▁character	-1923
▁University	-1924
▁progress	-1925
▁recogn	-1926
icle	-1927
▁itself	-1928
▁technology	-1929
▁sum	-1930
mission	-1931
▁fall	-1932
urely	-1933
▁financial	-1934
cell	-1935
ross	-1936
▁Comp	-1937
ension	-1938
▁plant	-1939
▁fut	-1940
cent	-1941
▁obs	-1942
▁example	-1943
ring	-1944
▁went	-1945
▁anything	-1946
idd	-1947
rodu	-1948
▁inn	-1949
▁link	-1950
▁visit	-1951
▁ur	-1952
▁don	-1953
▁opp	-1954
uf	-1955
▁anim	-1956
▁air	-1957
augh	-1958
aries	-1959
ault	-1960
men	-1961
▁production	-1962
see	-1963
ully	-1964
▁elect	-1965
▁rate	-1966
▁trust	-1967
▁assess	-1968
▁provisions	-1969
▁lab	-1970
▁using	-1971
▁difficult	-1972
bar	-1973
arat	-1974
▁history	-1975
▁grant	-1976
mber	-1977
▁deal	-1978
iation	-1979
▁quality	-1980
▁Af	-1981
▁mag	-1982
▁Here	-1983
une	-1984
isl	-1985
▁property	-1986
▁agricult	-1987
▁represent	-1988
ibr	-1989
▁established	-1990
bsite	-1991
ilt	-1992
.201	-1993
▁Pradesh	-1994
lu	-1995
ened	-1996
▁nat	-1997
▁line	-1998
▁works	-1999
▁working	-2000
imum	-2001
▁stat	-2002
▁purpose	-2003
▁Ver	-2004
▁Court	-2005
▁ident	-2006
phet	-2007
▁16	-2008
ograph	-2009
aps	-2010
ince	-2011
▁harm	-2012
▁enj	-2013
▁Direct	-2014
▁Fin	-2015
▁fire	-2016
▁therein	-2017
▁report	-2018
▁material	-2019
▁Dr	-2020
▁scheme	-2021
▁ded	-2022
▁suff	-2023
▁Co	-2024
▁soul	-2025
▁necessary	-2026
by	-2027
ilar	-2028
▁ens	-2029
▁started	-2030
▁big	-2031
ape	-2032
▁course	-2033
▁Serv	-2034
▁image	-2035
▁behind	-2036
obal	-2037
▁entire	-2038
ills	-2039
▁App	-2040
▁save	-2041
rab	-2042
▁meeting	-2043
▁IND	-2044
▁hath	-2045
▁mercy	-2046
▁hy	-2047
▁Could	-2048
▁Des	-2049
▁’	-2050
aun	-2051
▁future	-2052
▁referred	-2053
▁files	-2054
▁Development	-2055
itiz	-2056
▁hon	-2057
▁Euro	-2058
▁network	-2059
▁dri	-2060
▁top	-2061
▁By	-2062
ably	-2063
acity	-2064
▁demand	-2065
know	-2066
ets	-2067
irth	-2068
▁High	-2069
▁196	-2070
▁continu	-2071
▁ten	-2072
▁vi	-2073
▁close	-2074
▁fund	-2075
osp	-2076
▁related	-2077
▁greater	-2078
▁redu	-2079
▁Congress	-2080
▁security	-2081
erciful	-2082
mend	-2083
▁fight	-2084
▁Know	-2085
▁asked	-2086
mitted	-2087
▁bar	-2088
▁Open	-2089
▁court	-2090
▁25	-2091
▁implement	-2092
▁i	-2093
ethod	-2094
airs	-2095
▁got	-2096
▁news	-2097
▁Thus	-2098
pur	-2099
esides	-2100
edi	-2101
▁mail	-2102
▁decl	-2103
▁institutions	-2104
▁higher	-2105
engers	-2106
▁community	-2107
▁agree	-2108
▁Now	-2109
▁six	-2110
▁General	-2111
▁whatever	-2112
▁written	-2113
▁000	-2114
▁RRB	-2115
▁House	-2116
aged	-2117
ointed	-2118
▁mount	-2119
▁city	-2120
▁treat	-2121
▁revealed	-2122
unt	-2123
▁once	-2124
▁students	-2125
▁198	-2126
▁Europe	-2127
urs	-2128
▁warn	-2129
AT	-2130
ipp	-2131
▁specified	-2132
olk	-2133
▁guidance	-2134
▁comes	-2135
▁living	-2136
rast	-2137
▁cal	-2138
ton	-2139
▁leaders	-2140
▁stri	-2141
▁195	-2142
▁forward	-2143
side	-2144
▁Mar	-2145
▁paid	-2146
▁List	-2147
▁1.	-2148
▁months	-2149
▁Ev	-2150
ani	-2151
▁step	-2152
▁14	-2153
fully	-2154
bit	-2155
▁modern	-2156
▁website	-2157
▁ones	-2158
▁repl	-2159
uly	-2160
▁ans	-2161
▁sal	-2162
ung	-2163
ront	-2164
▁lay	-2165
▁13	-2166
▁rele	-2167
▁Union	-2168
▁Su	-2169
▁soon	-2170
ned	-2171
word	-2172
▁tell	-2173
▁told	-2174
▁past	-2175
▁according	-2176
poses	-2177
▁verily	-2178
ones	-2179
▁Nor	-2180
▁goods	-2181
▁prep	-2182
▁story	-2183
▁believed	-2184
▁role	-2185
▁determ	-2186
ruction	-2187
▁righteous	-2188
):	-2189
▁Sat	-2190
atives	-2191
▁Committee	-2192
▁Pol	-2193
▁Department	-2194
orrow	-2195
▁abs	-2196
▁pot	-2197
hood	-2198
▁cell	-2199
▁environment	-2200
IC	-2201
der	-2202
▁eyes	-2203
▁recom	-2204
itive	-2205
anch	-2206
▁force	-2207
▁thy	-2208
ji	-2209
ison	-2210
▁claim	-2211
▁Er	-2212
▁separ	-2213
▁Such	-2214
▁initi	-2215
ush	-2216
▁destro	-2217
▁LRB	-2218
▁194	-2219
▁wis	-2220
▁doing	-2221
▁problem	-2222
ires	-2223
▁king	-2224
lled	-2225
rish	-2226
▁pub	-2227
▁lot	-2228
reedom	-2229
rop	-2230
▁(1)	-2231
▁till	-2232
▁office	-2233
▁Constitution	-2234
▁Muslims	-2235
▁computer	-2236
▁phys	-2237
▁Sp	-2238
idered	-2239
lier	-2240
▁method	-2241
ored	-2242
▁invol	-2243
aves	-2244
▁building	-2245
abha	-2246
▁ter	-2247
▁turned	-2248
▁Qur	-2249
▁particip	-2250
▁century	-2251
acher	-2252
▁design	-2253
istic	-2254
ideo	-2255
▁Mad	-2256
▁Govern	-2257
▁international	-2258
▁however	-2259
▁Mr	-2260
▁why	-2261
▁vari	-2262
ek	-2263
▁party	-2264
▁Bengal	-2265
▁ange	-2266
▁basis	-2267
▁blood	-2268
soever	-2269
itation	-2270
▁acqu	-2271
▁Let	-2272
oid	-2273
▁parts	-2274
▁appointed	-2275
▁considered	-2276
ival	-2277
▁speak	-2278
ita	-2279
▁problems	-2280
irt	-2281
▁bea	-2282
▁needs	-2283
▁htt	-2284
▁Select	-2285
▁X	-2286
▁super	-2287
▁energy	-2288
▁administr	-2289
▁purposes	-2290
▁197	-2291
▁Sche	-2292
▁learn	-2293
▁loss	-2294
▁arm	-2295
▁sun	-2296
▁movement	-2297
▁ess	-2298
▁arch	-2299
▁Surely	-2300
▁changes	-2301
▁Part	-2302
▁vol	-2303
▁Moses	-2304
▁trib	-2305
ina	-2306
▁Lo	-2307
▁tree	-2308
▁manner	-2309
ript	-2310
▁integr	-2311
essee	-2312
▁fru	-2313
▁Cor	-2314
▁Verily	-2315
?"	-2316
▁crit	-2317
ificate	-2318
▁dele	-2319
▁Fire	-2320
▁Council	-2321
▁discuss	-2322
sue	-2323
ulf	-2324
▁firm	-2325
▁Techn	-2326
with	-2327
action	-2328
▁custom	-2329
▁single	-2330
acy	-2331
▁tor	-2332
hether	-2333
▁persons	-2334
ont	-2335
▁deep	-2336
▁terms	-2337
▁host	-2338
▁pen	-2339
ological	-2340
▁trade	-2341
▁However	-2342
▁citiz	-2343
▁princip	-2344
▁17	-2345
istan	-2346
▁scient	-2347
▁check	-2348
▁often	-2349
▁Information	-2350
▁village	-2351
▁gre	-2352
▁assist	-2353
▁spread	-2354
asing	-2355
▁mention	-2356
▁cho	-2357
▁server	-2358
▁display	-2359
ouses	-2360
▁establish	-2361
ategory	-2362
▁fr	-2363
▁bra	-2364
▁poor	-2365
▁30	-2366
▁press	-2367
▁sense	-2368
▁religious	-2369
▁carry	-2370
▁destroy	-2371
▁Muk	-2372
▁books	-2373
nic	-2374
TION	-2375
▁sac	-2376
▁begin	-2377
▁remember	-2378
▁messages	-2379
▁undert	-2380
▁passed	-2381
▁anc	-2382
▁protect	-2383
▁assessee	-2384
▁task	-2385
cription	-2386
▁makes	-2387
vey	-2388
▁Bl	-2389
aper	-2390
aught	-2391
imate	-2392
▁general	-2393
ixed	-2394
ousand	-2395
▁gives	-2396
▁issued	-2397
▁wealth	-2398
go	-2399
aint	-2400
▁management	-2401
▁terror	-2402
▁America	-2403
ama	-2404
▁allowed	-2405
▁mach	-2406
▁maint	-2407
▁Set	-2408
▁er	-2409
rect	-2410
▁low	-2411
▁INDIA	-2412
▁civil	-2413
▁thus	-2414
▁Muhammad	-2415
▁Ed	-2416
▁none	-2417
▁squ	-2418
▁wish	-2419
▁*	-2420
▁reach	-2421
atory	-2422
▁expect	-2423
▁sound	-2424
▁patient	-2425
▁freedom	-2426
▁compan	-2427
▁viol	-2428
▁aud	-2429
▁http	-2430
▁benefit	-2431
▁everything	-2432
ke	-2433
▁taking	-2434
sequ	-2435
▁conditions	-2436
wer	-2437
▁aware	-2438
▁efforts	-2439
▁size	-2440
▁natural	-2441
▁increase	-2442
▁conduct	-2443
▁red	-2444
▁Chand	-2445
then	-2446
▁fel	-2447
▁norm	-2448
vi	-2449
hara	-2450
inary	-2451
va	-2452
▁extend	-2453
ift	-2454
krit	-2455
uses	-2456
▁matters	-2457
▁fig	-2458
▁institution	-2459
▁really	-2460
ox	-2461
idden	-2462
▁neither	-2463
▁Public	-2464
▁million	-2465
new	-2466
▁reject	-2467
▁fast	-2468
itude	-2469
▁alone	-2470
▁global	-2471
▁duty	-2472
▁pet	-2473
▁partners	-2474
▁2.	-2475
ples	-2476
▁enjoy	-2477
believers	-2478
ots	-2479
▁cover	-2480
use	-2481
▁culture	-2482
▁jour	-2483
tax	-2484
over	-2485
▁ant	-2486
▁least	-2487
▁grie	-2488
itable	-2489
▁bur	-2490
rown	-2491
ental	-2492
▁subs	-2493
ech	-2494
▁talk	-2495
▁thousand	-2496
▁developed	-2497
▁source	-2498
▁doubt	-2499
▁search	-2500
▁parent	-2501
▁exc	-2502
▁early	-2503
cies	-2504
▁followed	-2505
▁consum	-2506
▁industrial	-2507
rec	-2508
▁Whether	-2509
▁Kh	-2510
▁chall	-2511
▁Wor	-2512
▁training	-2513
attle	-2514
ilk	-2515
iles	-2516
nam	-2517
▁Bi	-2518
▁Mon	-2519
▁assessment	-2520
▁member	-2521
rs	-2522
▁transfer	-2523
▁li	-2524
▁stay	-2525
kind	-2526
▁pros	-2527
iveness	-2528
adem	-2529
gment	-2530
▁independ	-2531
▁Trans	-2532
▁Where	-2533
▁Cannot	-2534
▁creation	-2535
▁dead	-2536
▁Are	-2537
▁conv	-2538
▁temple	-2539
▁Ap	-2540
iction	-2541
▁opens	-2542
▁gen	-2543
▁woman	-2544
▁Error	-2545
▁neg	-2546
▁programm	-2547
▁credit	-2548
▁di	-2549
▁saying	-2550
ptions	-2551
▁May	-2552
▁Int	-2553
tings	-2554
▁dire	-2555
mon	-2556
vere	-2557
oke	-2558
▁log	-2559
alend	-2560
uge	-2561
▁adop	-2562
▁outside	-2563
▁literature	-2564
],	-2565
app	-2566
▁eat	-2567
▁san	-2568
▁tou	-2569
▁soft	-2570
▁achieve	-2571
▁capacity	-2572
aste	-2573
▁ground	-2574
alay	-2575
ols	-2576
▁democ	-2577
▁bless	-2578
▁Even	-2579
emed	-2580
▁drink	-2581
▁provision	-2582
▁town	-2583
ew	-2584
abad	-2585
▁Prophet	-2586
rist	-2587
▁wife	-2588
▁arr	-2589
▁birth	-2590
▁half	-2591
usion	-2592
▁File	-2593
▁event	-2594
2.	-2595
▁Qu	-2596
▁disease	-2597
▁gard	-2598
▁sea	-2599
ique	-2600
ulated	-2601
▁payment	-2602
▁charge	-2603
▁fem	-2604
▁mass	-2605
▁population	-2606
▁stra	-2607
▁rights	-2608
ane	-2609
▁programme	-2610
▁Rec	-2611
▁Div	-2612
▁mode	-2613
omb	-2614
ows	-2615
▁aim	-2616
▁disbelieve	-2617
▁saw	-2618
▁sust	-2619
▁remain	-2620
▁wide	-2621
▁angels	-2622
enty	-2623
iddle	-2624
▁personal	-2625
▁compet	-2626
▁write	-2627
▁People	-2628
alse	-2629
▁hope	-2630
▁lost	-2631
▁mankind	-2632
▁insp	-2633
his	-2634
▁pal	-2635
wise	-2636
pecial	-2637
▁Name	-2638
▁immedi	-2639
▁document	-2640
ada	-2641
▁Mod	-2642
▁resources	-2643
▁Cal	-2644
nding	-2645
▁ir	-2646
▁SA	-2647
▁try	-2648
▁Mukherjee	-2649
rastructure	-2650
ares	-2651
▁receive	-2652
▁cut	-2653
▁transl	-2654
ler	-2655
RA	-2656
yle	-2657
▁judge	-2658
▁Per	-2659
▁Aut	-2660
▁include	-2661
undred	-2662
▁almost	-2663
▁stru	-2664
▁sugg	-2665
▁propos	-2666
face	-2667
▁cases	-2668
▁suggest	-2669
▁innov	-2670
▁lat	-2671
▁deny	-2672
ufact	-2673
vert	-2674
estern	-2675
uration	-2676
▁kept	-2677
▁rule	-2678
▁Section	-2679
▁earlier	-2680
▁request	-2681
empt	-2682
▁Rel	-2683
aff	-2684
▁price	-2685
▁revel	-2686
▁writing	-2687
pril	-2688
▁accom	-2689
duc	-2690
▁exe	-2691
anskrit	-2692
▁24	-2693
▁deli	-2694
▁across	-2695
▁lakh	-2696
▁Merciful	-2697
▁raised	-2698
▁continue	-2699
irm	-2700
▁seven	-2701
▁experience	-2702
▁IN	-2703
isf	-2704
▁bal	-2705
▁install	-2706
ging	-2707
▁similar	-2708
▁typ	-2709
▁cast	-2710
▁user	-2711
▁Sabha	-2712
▁multip	-2713
Ex	-2714
▁TO	-2715
▁strength	-2716
//	-2717
://	-2718
▁Afric	-2719
▁Project	-2720
▁torment	-2721
▁Mem	-2722
▁says	-2723
▁enough	-2724
ables	-2725
▁official	-2726
▁require	-2727
▁condition	-2728
ifest	-2729
▁products	-2730
▁boy	-2731
▁fu	-2732
▁ign	-2733
erved	-2734
ees	-2735
gest	-2736
▁Institute	-2737
rection	-2738
▁operation	-2739
▁pow	-2740
▁space	-2741
▁tar	-2742
▁Mahar	-2743
▁district	-2744
▁astr	-2745
▁job	-2746
▁enem	-2747
▁third	-2748
▁Tra	-2749
▁Jan	-2750
▁Che	-2751
▁structure	-2752
▁projects	-2753
EC	-2754
▁Fl	-2755
rote	-2756
▁farmers	-2757
▁Republic	-2758
▁West	-2759
▁affect	-2760
▁private	-2761
uary	-2762
▁desire	-2763
RI	-2764
▁laun	-2765
▁hundred	-2766
▁Arab	-2767
▁apply	-2768
rences	-2769
▁Budd	-2770
▁guard	-2771
▁investment	-2772
▁rad	-2773
igation	-2774
well	-2775
▁lear	-2776
▁science	-2777
lebr	-2778
oly	-2779
▁states	-2780
let	-2781
▁astray	-2782
▁introdu	-2783
▁Jud	-2784
▁Board	-2785
▁guide	-2786
▁influ	-2787
▁below	-2788
anda	-2789
ivity	-2790
▁pra	-2791
▁wait	-2792
ators	-2793
▁fulf	-2794
oud	-2795
▁signific	-2796
alendar	-2797
▁Pers	-2798
▁Work	-2799
▁carried	-2800
▁conne	-2801
▁tour	-2802
▁eight	-2803
▁US	-2804
owed	-2805
ager	-2806
▁forms	-2807
▁teacher	-2808
▁front	-2809
ava	-2810
ribution	-2811
pecially	-2812
haps	-2813
▁failed	-2814
▁guided	-2815
▁United	-2816
fficient	-2817
▁exchange	-2818
▁decided	-2819
ww	-2820
▁Asia	-2821
▁East	-2822
▁Sur	-2823
▁draw	-2824
▁April	-2825
ney	-2826
▁hear	-2827
▁Off	-2828
▁rural	-2829
▁Med	-2830
▁id	-2831
llah	-2832
▁Pun	-2833
▁depos	-2834
▁ancient	-2835
▁reform	-2836
▁provides	-2837
agar	-2838
▁attack	-2839
▁Brah	-2840
▁bear	-2841
▁From	-2842
▁prepared	-2843
0,	-2844
▁issue	-2845
▁places	-2846
▁relating	-2847
▁economy	-2848
estic	-2849
▁South	-2850
▁approach	-2851
ades	-2852
ales	-2853
lear	-2854
▁music	-2855
htm	-2856
▁bound	-2857
▁behalf	-2858
▁Sanskrit	-2859
▁decision	-2860
▁King	-2861
▁Pal	-2862
▁World	-2863
▁promise	-2864
▁page	-2865
▁strengthen	-2866
utes	-2867
▁Their	-2868
▁improve	-2869
▁disbelievers	-2870
▁coop	-2871
umn	-2872
6.	-2873
▁Use	-2874
▁produce	-2875
mir	-2876
▁Ins	-2877
▁built	-2878
▁dark	-2879
▁issues	-2880
ban	-2881
▁manufact	-2882
gram	-2883
▁led	-2884
▁defe	-2885
urance	-2886
vant	-2887
▁foc	-2888
iture	-2889
▁Ak	-2890
amed	-2891
▁actually	-2892
▁Har	-2893
▁Gur	-2894
eral	-2895
▁accord	-2896
AS	-2897
▁proceed	-2898
▁situation	-2899
ump	-2900
▁stop	-2901
▁instrument	-2902
reg	-2903
▁Cert	-2904
▁popular	-2905
osop	-2906
▁tele	-2907
inion	-2908
▁lives	-2909
▁Pranab	-2910
▁whoever	-2911
▁prayer	-2912
eb	-2913
▁Chief	-2914
▁secret	-2915
ici	-2916
ourage	-2917
3.	-2918
ex	-2919
▁rain	-2920
▁video	-2921
▁Educ	-2922
▁Up	-2923
▁Technology	-2924
▁ensure	-2925
▁meaning	-2926
▁profession	-2927
bed	-2928
▁da	-2929
▁crore	-2930
aka	-2931
▁study	-2932
▁193	-2933
icro	-2934
▁subst	-2935
▁rich	-2936
▁100	-2937
ening	-2938
chan	-2939
▁happy	-2940
▁groups	-2941
▁Pur	-2942
▁false	-2943
▁Account	-2944
▁satisf	-2945
▁deb	-2946
▁Income	-2947
ibrary	-2948
uted	-2949
pri	-2950
▁unbelievers	-2951
que	-2952
▁besides	-2953
▁Every	-2954
▁values	-2955
▁forb	-2956
▁road	-2957
jab	-2958
▁indic	-2959
▁physical	-2960
▁essential	-2961
▁ste	-2962
▁published	-2963
▁especially	-2964
▁friends	-2965
▁rules	-2966
gar	-2967
▁original	-2968
ume	-2969
asure	-2970
▁Def	-2971
ilosop	-2972
mes	-2973
▁Cons	-2974
▁Leg	-2975
▁opportunity	-2976
adu	-2977
▁har	-2978
▁coming	-2979
.,	-2980
▁regular	-2981
▁accepted	-2982
mark	-2983
▁Indust	-2984
band	-2985
▁wall	-2986
▁univers	-2987
▁conscious	-2988
urrection	-2989
▁river	-2990
▁Child	-2991
▁occur	-2992
yond	-2993
▁Right	-2994
▁vict	-2995
utions	-2996
oe	-2997
▁providing	-2998
ites	-2999
▁celebr	-3000
▁sens	-3001
0.	-3002
ED	-3003
▁evidence	-3004
'.	-3005
▁concerned	-3006
▁Secret	-3007
anation	-3008
▁load	-3009
▁Net	-3010
▁Have	-3011
▁lower	-3012
▁During	-3013
▁caused	-3014
▁Category	-3015
ulate	-3016
▁letter	-3017
▁increased	-3018
▁dig	-3019
▁details	-3020
▁ways	-3021
▁facilities	-3022
▁View	-3023
▁giving	-3024
▁specific	-3025
▁teach	-3026
▁attend	-3027
light	-3028
▁easy	-3029
hest	-3030
▁reached	-3031
▁21	-3032
▁wrote	-3033
7.	-3034
▁Christ	-3035
▁depend	-3036
▁becomes	-3037
▁obt	-3038
▁status	-3039
▁Fore	-3040
▁stage	-3041
aving	-3042
▁Under	-3043
▁fair	-3044
osition	-3045
ley	-3046
▁dam	-3047
External	-3048
ott	-3049
▁Will	-3050
▁While	-3051
▁wid	-3052
▁names	-3053
▁manifest	-3054
▁Cre	-3055
▁possess	-3056
▁International	-3057
cle	-3058
▁citizens	-3059
aughter	-3060
war	-3061
▁Sign	-3062
▁Hereafter	-3063
▁began	-3064
▁percent	-3065
▁thereof	-3066
▁prescribed	-3067
▁copy	-3068
▁break	-3069
▁"%	-3070
8.	-3071
att	-3072
▁Dist	-3073
▁programmes	-3074
▁arri	-3075
▁bill	-3076
▁belongs	-3077
▁infrastructure	-3078
load	-3079
iting	-3080
▁morning	-3081
▁color	-3082
fort	-3083
oday	-3084
▁feed	-3085
▁rather	-3086
▁measure	-3087
kar	-3088
▁room	-3089
mbly	-3090
▁Sm	-3091
▁Save	-3092
▁expend	-3093
▁remind	-3094
hib	-3095
ras	-3096
▁die	-3097
▁mut	-3098
uction	-3099
▁Officer	-3100
▁comb	-3101
▁instead	-3102
▁appear	-3103
▁cultural	-3104
▁Krish	-3105
ervation	-3106
do	-3107
abled	-3108
▁Service	-3109
▁unless	-3110
▁March	-3111
oon	-3112
encies	-3113
head	-3114
▁Guj	-3115
▁Commissioner	-3116
ented	-3117
▁yourselves	-3118
▁beyond	-3119
▁lib	-3120
▁Ma	-3121
▁bird	-3122
▁justice	-3123
▁Ge	-3124
5.	-3125
inn	-3126
▁importance	-3127
▁Expl	-3128
ocation	-3129
.)	-3130
ober	-3131
▁clean	-3132
▁concer	-3133
▁origin	-3134
ev	-3135
irst	-3136
▁coll	-3137
▁Governor	-3138
▁central	-3139
▁shown	-3140
rog	-3141
▁oil	-3142
▁bi	-3143
vest	-3144
▁chast	-3145
▁forest	-3146
▁(2)	-3147
cribe	-3148
▁prim	-3149
UR	-3150
▁Pak	-3151
▁Val	-3152
▁device	-3153
ection	-3154
▁placed	-3155
▁camp	-3156
▁stone	-3157
▁sky	-3158
▁Africa	-3159
▁idea	-3160
▁languages	-3161
.'	-3162
▁Art	-3163
▁mere	-3164
▁song	-3165
▁Hell	-3166
▁accounts	-3167
▁responsible	-3168
▁returned	-3169
▁bit	-3170
ground	-3171
▁emerg	-3172
▁takes	-3173
▁fail	-3174
▁fort	-3175
▁prior	-3176
9.	-3177
abor	-3178
resh	-3179
▁North	-3180
▁Director	-3181
▁weak	-3182
▁disp	-3183
4.	-3184
ration	-3185
7,	-3186
ili	-3187
▁NA	-3188
▁answer	-3189
▁agreement	-3190
gn	-3191
▁Bal	-3192
▁rivers	-3193
▁und	-3194
▁aver	-3195
raw	-3196
oice	-3197
▁lies	-3198
elf	-3199
▁Sam	-3200
▁schol	-3201
▁loan	-3202
▁poin	-3203
▁Other	-3204
▁inform	-3205
▁appoint	-3206
ressed	-3207
sect	-3208
▁Sim	-3209
▁Failed	-3210
▁password	-3211
▁potential	-3212
▁Moh	-3213
▁der	-3214
▁1,	-3215
▁heard	-3216
▁effective	-3217
▁(3	-3218
though	-3219
ule	-3220
oted	-3221
▁gir	-3222
wh	-3223
▁Gl	-3224
▁Centre	-3225
▁heaven	-3226
▁govern	-3227
ell	-3228
omet	-3229
▁Plan	-3230
▁coun	-3231
▁Of	-3232
▁hor	-3233
▁Gang	-3234
▁Education	-3235
▁beginning	-3236
0}	-3237
▁bad	-3238
▁Sup	-3239
▁win	-3240
known	-3241
▁servants	-3242
▁powers	-3243
▁Forg	-3244
▁understanding	-3245
2,	-3246
This	-3247
tion	-3248
);	-3249
▁round	-3250
▁spiritual	-3251
▁Ac	-3252
▁deg	-3253
▁style	-3254
uck	-3255
▁burn	-3256
▁quite	-3257
▁added	-3258
racy	-3259
inate	-3260
▁gone	-3261
AP	-3262
▁existing	-3263
▁Evolution	-3264
rug	-3265
▁parents	-3266
▁else	-3267
▁Quran	-3268
▁CO	-3269
▁article	-3270
▁contract	-3271
".	-3272
▁Scheme	-3273
▁unjust	-3274
riage	-3275
haraoh	-3276
▁histor	-3277
▁default	-3278
▁philosop	-3279
sc	-3280
II	-3281
▁offer	-3282
icles	-3283
▁simple	-3284
oo	-3285
▁speech	-3286
▁vision	-3287
▁emb	-3288
▁connection	-3289
▁folk	-3290
▁setting	-3291
▁notice	-3292
▁treatment	-3293
▁mom	-3294
▁Kash	-3295
▁Many	-3296
▁Move	-3297
▁legal	-3298
▁nar	-3299
▁obey	-3300
▁ge	-3301
▁Sa	-3302
standing	-3303
▁activity	-3304
rem	-3305
8,	-3306
IL	-3307
▁Group	-3308
anced	-3309
▁31	-3310
ami	-3311
▁lie	-3312
raham	-3313
▁System	-3314
ctors	-3315
▁bond	-3316
▁Bar	-3317
▁fif	-3318
▁presented	-3319
▁sn	-3320
▁mot	-3321
▁certificate	-3322
▁Unt	-3323
▁Gard	-3324
▁youth	-3325
▁Research	-3326
▁ship	-3327
▁asset	-3328
▁Author	-3329
arge	-3330
▁compl	-3331
▁favour	-3332
▁exerc	-3333
▁excell	-3334
▁existence	-3335
▁colle	-3336
▁agricultural	-3337
▁Dele	-3338
▁option	-3339
▁black	-3340
20	-3341
▁goes	-3342
▁concerning	-3343
ingu	-3344
▁strugg	-3345
ancy	-3346
amil	-3347
▁kill	-3348
▁Out	-3349
▁emp	-3350
▁proced	-3351
▁basic	-3352
oting	-3353
RO	-3354
iff	-3355
▁direction	-3356
▁employment	-3357
oom	-3358
antly	-3359
].	-3360
▁scale	-3361
▁sle	-3362
▁felt	-3363
▁getting	-3364
▁ris	-3365
▁Punjab	-3366
▁wanted	-3367
▁knew	-3368
▁female	-3369
▁Air	-3370
▁argu	-3371
▁addition	-3372
▁commer	-3373
▁parties	-3374
nal	-3375
▁Sar	-3376
▁anal	-3377
▁beaut	-3378
▁Therefore	-3379
▁swe	-3380
▁virt	-3381
▁houses	-3382
▁running	-3383
▁plus	-3384
▁unit	-3385
▁fixed	-3386
uls	-3387
▁learning	-3388
▁warm	-3389
▁Resurrection	-3390
▁verses	-3391
rim	-3392
▁formed	-3393
▁Trib	-3394
▁remove	-3395
▁collect	-3396
▁Utt	-3397
iva	-3398
ulations	-3399
ils	-3400
body	-3401
isement	-3402
▁born	-3403
▁week	-3404
cember	-3405
▁assign	-3406
CC	-3407
▁sil	-3408
▁Corpor	-3409
▁pack	-3410
▁aspect	-3411
ules	-3412
▁Prof	-3413
▁Sch	-3414
▁engine	-3415
road	-3416
▁mentioned	-3417
▁aw	-3418
▁Why	-3419
▁hus	-3420
▁Asse	-3421
▁Ay	-3422
▁tri	-3423
▁generally	-3424
ze	-3425
Allah	-3426
▁produced	-3427
▁ep	-3428
▁poll	-3429
▁forces	-3430
▁systems	-3431
▁Search	-3432
AY	-3433
▁Kal	-3434
la	-3435
lt	-3436
▁destroyed	-3437
istered	-3438
▁usually	-3439
▁Cur	-3440
▁Chair	-3441
▁cy	-3442
▁plants	-3443
where	-3444
▁wise	-3445
atures	-3446
▁ideas	-3447
▁sight	-3448
▁responsibility	-3449
cer	-3450
▁novel	-3451
▁pie	-3452
▁sold	-3453
▁Ved	-3454
▁limit	-3455
▁cove	-3456
porary	-3457
▁immediately	-3458
▁50	-3459
▁sex	-3460
▁Today	-3461
oured	-3462
▁practice	-3463
sy	-3464
oved	-3465
▁Pri	-3466
▁contro	-3467
▁prosper	-3468
▁tried	-3469
▁3.	-3470
▁Supreme	-3471
▁associated	-3472
▁mand	-3473
▁note	-3474
ength	-3475
▁26	-3476
▁animals	-3477
▁According	-3478
▁generation	-3479
▁safe	-3480
▁white	-3481
▁wishes	-3482
ctober	-3483
▁base	-3484
▁milit	-3485
▁presence	-3486
rew	-3487
▁Legisl	-3488
▁painful	-3489
umbai	-3490
▁continued	-3491
co	-3492
▁Kashmir	-3493
▁content	-3494
oor	-3495
▁units	-3496
▁Enter	-3497
▁award	-3498
-1	-3499
▁statement	-3500
▁Tem	-3501
▁blind	-3502
▁dream	-3503
▁opportunities	-3504
▁ON	-3505
▁Just	-3506
▁Program	-3507
▁Mark	-3508
▁banks	-3509
▁Dev	-3510
rick	-3511
▁regarding	-3512
▁poetry	-3513
▁Pat	-3514
▁serious	-3515
Ind	-3516
▁stor	-3517
▁fest	-3518
▁pict	-3519
▁active	-3520
▁feet	-3521
▁American	-3522
▁Any	-3523
▁famous	-3524
ching	-3525
▁symb	-3526
▁correct	-3527
omen	-3528
▁forgiveness	-3529
▁desp	-3530
▁anyone	-3531
▁Ser	-3532
▁Yet	-3533
▁Islamic	-3534
▁cross	-3535
▁companies	-3536
▁industries	-3537
osing	-3538
▁revelations	-3539
OS	-3540
▁imag	-3541
▁item	-3542
▁Explanation	-3543
IR	-3544
▁numbers	-3545
▁includes	-3546
rep	-3547
▁contains	-3548
cend	-3549
▁Sri	-3550
▁Provided	-3551
▁traditional	-3552
▁walk	-3553
▁purch	-3554
▁medical	-3555
▁version	-3556
▁obl	-3557
arily	-3558
▁gold	-3559
ovember	-3560
fect	-3561
▁workers	-3562
▁greet	-3563
etic	-3564
EL	-3565
▁conce	-3566
▁please	-3567
▁particularly	-3568
▁insect	-3569
▁directory	-3570
▁Wise	-3571
▁increasing	-3572
aximum	-3573
▁circum	-3574
▁legisl	-3575
▁assistance	-3576
▁concept	-3577
▁bow	-3578
right	-3579
enth	-3580
▁Pakistan	-3581
▁tradition	-3582
miss	-3583
▁fra	-3584
muk	-3585
view	-3586
▁fully	-3587
▁War	-3588
adise	-3589
▁Shah	-3590
▁former	-3591
▁af	-3592
▁Conf	-3593
▁Address	-3594
▁fold	-3595
▁Only	-3596
▁plug	-3597
set	-3598
▁Hy	-3599
▁green	-3600
9,	-3601
aksh	-3602
ipur	-3603
▁supply	-3604
▁transport	-3605
iers	-3606
▁granted	-3607
▁normal	-3608
▁petition	-3609
▁relevant	-3610
rows	-3611
ties	-3612
▁supported	-3613
▁successful	-3614
▁attempt	-3615
itle	-3616
ply	-3617
vious	-3618
▁prob	-3619
aches	-3620
▁accordance	-3621
▁Red	-3622
▁Tag	-3623
▁autom	-3624
cutta	-3625
▁severe	-3626
5,	-3627
▁Adv	-3628
▁session	-3629
▁scientific	-3630
▁select	-3631
▁limited	-3632
▁Create	-3633
adi	-3634
ateral	-3635
iter	-3636
▁laid	-3637
iling	-3638
▁moon	-3639
▁sons	-3640
▁Tamil	-3641
iet	-3642
▁Message	-3643
▁perhaps	-3644
▁contribution	-3645
icial	-3646
▁Uttar	-3647
▁spend	-3648
▁collection	-3649
▁team	-3650
▁minister	-3651
▁police	-3652
asa	-3653
▁ago	-3654
▁respond	-3655
▁IT	-3656
▁Tur	-3657
▁Last	-3658
athe	-3659
▁software	-3660
▁23	-3661
▁Ty	-3662
▁broad	-3663
▁worth	-3664
▁Start	-3665
▁moment	-3666
▁expenditure	-3667
▁code	-3668
ids	-3669
▁Mal	-3670
▁Truth	-3671
▁serve	-3672
text	-3673
ternet	-3674
ini	-3675
▁final	-3676
▁distin	-3677
▁Calcutta	-3678
▁Mo	-3679
▁apost	-3680
ptember	-3681
▁husband	-3682
izing	-3683
urt	-3684
▁Tw	-3685
▁target	-3686
ero	-3687
▁repe	-3688
▁inj	-3689
▁January	-3690
rid	-3691
iverse	-3692
▁agriculture	-3693
▁consist	-3694
ighty	-3695
▁Which	-3696
▁announ	-3697
lied	-3698
ellect	-3699
asth	-3700
▁prin	-3701
▁format	-3702
itect	-3703
▁directly	-3704
▁memory	-3705
▁advance	-3706
▁film	-3707
▁dial	-3708
▁mountains	-3709
aug	-3710
▁Bang	-3711
▁quick	-3712
▁Pharaoh	-3713
amental	-3714
apter	-3715
▁sufficient	-3716
▁Pra	-3717
▁assets	-3718
▁challeng	-3719
verse	-3720
▁expression	-3721
▁administration	-3722
avi	-3723
▁jo	-3724
dden	-3725
▁cities	-3726
▁attract	-3727
▁recommend	-3728
▁Lok	-3729
▁strateg	-3730
▁sacr	-3731
▁medic	-3732
▁looking	-3733
equ	-3734
▁Sah	-3735
▁Thou	-3736
▁covered	-3737
▁villages	-3738
▁changed	-3739
ores	-3740
uman	-3741
▁middle	-3742
▁paper	-3743
▁relationship	-3744
ugust	-3745
▁gods	-3746
ays	-3747
▁Ob	-3748
▁opinion	-3749
▁discip	-3750
▁denied	-3751
▁measures	-3752
▁Mumbai	-3753
▁separate	-3754
▁prevent	-3755
▁benefits	-3756
hab	-3757
▁appropri	-3758
▁travel	-3759
▁forgive	-3760
▁relation	-3761
ishn	-3762
▁laws	-3763
▁192	-3764
▁attention	-3765
icit	-3766
▁male	-3767
▁types	-3768
ional	-3769
▁drug	-3770
▁phot	-3771
ae	-3772
alty	-3773
med	-3774
hent	-3775
▁speed	-3776
▁inside	-3777
obile	-3778
▁steps	-3779
▁Management	-3780
inite	-3781
▁Import	-3782
▁promised	-3783
1.	-3784
▁occup	-3785
▁weight	-3786
▁transgress	-3787
▁eye	-3788
▁Abraham	-3789
▁Its	-3790
▁sides	-3791
▁calc	-3792
▁cooperation	-3793
▁Bab	-3794
order	-3795
▁hours	-3796
▁standard	-3797
▁Messengers	-3798
▁Organ	-3799
▁faces	-3800
▁fruit	-3801
▁Children	-3802
▁sym	-3803
▁script	-3804
has	-3805
▁largest	-3806
▁effort	-3807
▁opened	-3808
▁highest	-3809
▁IS	-3810
ateful	-3811
hru	-3812
▁qual	-3813
▁Forgiving	-3814
iii	-3815
▁card	-3816
▁officers	-3817
▁beautiful	-3818
▁permission	-3819
▁dy	-3820
▁straight	-3821
▁AND	-3822
▁milk	-3823
▁range	-3824
ulpt	-3825
from	-3826
▁Bas	-3827
▁pred	-3828
▁prot	-3829
▁wills	-3830
hra	-3831
▁Inst	-3832
▁arrange	-3833
▁foot	-3834
▁length	-3835
▁longer	-3836
▁proof	-3837
▁twenty	-3838
▁chastisement	-3839
▁threat	-3840
▁extent	-3841
▁release	-3842
▁San	-3843
▁stream	-3844
▁protection	-3845
▁dram	-3846
ratic	-3847
▁Western	-3848
▁game	-3849
▁pattern	-3850
▁Ker	-3851
inent	-3852
▁polic	-3853
▁calendar	-3854
▁connected	-3855
▁esc	-3856
▁pure	-3857
▁taste	-3858
▁shows	-3859
osis	-3860
▁upd	-3861
▁joint	-3862
▁someone	-3863
▁documents	-3864
▁corru	-3865
▁performance	-3866
atha	-3867
▁Sik	-3868
yan	-3869
▁extra	-3870
arer	-3871
add	-3872
▁cam	-3873
▁export	-3874
▁pan	-3875
iment	-3876
▁deemed	-3877
▁academ	-3878
▁enemy	-3879
▁mechan	-3880
▁resident	-3881
!"	-3882
▁north	-3883
▁Wind	-3884
pro	-3885
▁Tax	-3886
▁Port	-3887
PS	-3888
ole	-3889
▁appeal	-3890
▁implementation	-3891
ken	-3892
▁Jew	-3893
▁chief	-3894
▁June	-3895
▁December	-3896
▁played	-3897
▁entered	-3898
▁nations	-3899
AC	-3900
▁fre	-3901
▁Form	-3902
It	-3903
▁Folder	-3904
▁included	-3905
ously	-3906
▁execut	-3907
▁mental	-3908
istration	-3909
▁completed	-3910
▁educational	-3911
▁Well	-3912
under	-3913
▁Copy	-3914
▁hosp	-3915
▁sins	-3916
▁somet	-3917
fall	-3918
▁Inter	-3919
tic	-3920
▁rupe	-3921
lict	-3922
▁violence	-3923
▁intellect	-3924
▁leading	-3925
▁standing	-3926
▁rail	-3927
▁balance	-3928
▁Bharat	-3929
▁height	-3930
▁complex	-3931
6,	-3932
▁Inf	-3933
▁Char	-3934
▁Ann	-3935
▁centre	-3936
▁construction	-3937
My	-3938
▁(%	-3939
▁exceed	-3940
In	-3941
▁items	-3942
▁knowing	-3943
▁doers	-3944
▁0.	-3945
hens	-3946
▁offe	-3947
▁chann	-3948
▁sudden	-3949
▁Krishna	-3950
▁saved	-3951
▁belief	-3952
ops	-3953
▁advice	-3954
▁struggle	-3955
And	-3956
oga	-3957
icip	-3958
▁furn	-3959
▁funds	-3960
ilateral	-3961
",	-3962
pir	-3963
board	-3964
▁watch	-3965
▁convey	-3966
▁Gujarat	-3967
▁otherwise	-3968
leg	-3969
▁Bill	-3970
▁species	-3971
omin	-3972
ifying	-3973
▁PM	-3974
pty	-3975
pper	-3976
▁Vis	-3977
ography	-3978
▁Time	-3979
▁repent	-3980
mical	-3981
▁Post	-3982
▁util	-3983
▁contain	-3984
▁democracy	-3985
EE	-3986
▁Agricult	-3987
rene	-3988
▁emph	-3989
▁stre	-3990
RL	-3991
▁labour	-3992
▁rank	-3993
▁Ah	-3994
▁apprec	-3995
▁dwell	-3996
▁south	-3997
11	-3998
pted	-3999
▁journey	-4000
▁ton	-4001
He	-4002
icated	-4003
▁hyp	-4004
ferences	-4005
▁Indians	-4006
NA	-4007
▁Home	-4008
▁ready	-4009
▁sister	-4010
▁Dh	-4011
erous	-4012
▁operations	-4013
▁focus	-4014
▁Policy	-4015
▁config	-4016
▁minus	-4017
asc	-4018
▁cry	-4019
▁First	-4020
▁pursu	-4021
▁stock	-4022
▁Finance	-4023
▁employees	-4024
▁amend	-4025
gy	-4026
tered	-4027
▁Assist	-4028
▁results	-4029
▁stories	-4030
▁dece	-4031
▁Langu	-4032
▁pleasure	-4033
▁functions	-4034
press	-4035
▁frame	-4036
▁Sal	-4037
▁drive	-4038
▁Unable	-4039
▁Bomb	-4040
▁Text	-4041
▁imper	-4042
▁unique	-4043
▁fathers	-4044
▁located	-4045
▁Fund	-4046
▁circumst	-4047
▁Sol	-4048
▁grace	-4049
▁(4	-4050
onse	-4051
▁wood	-4052
enced	-4053
▁Back	-4054
ensive	-4055
▁Pass	-4056
stituted	-4057
▁October	-4058
If	-4059
html	-4060
▁Law	-4061
▁cou	-4062
▁hour	-4063
ula	-4064
▁suc	-4065
▁heavy	-4066
▁significant	-4067
▁territ	-4068
▁revolution	-4069
ipt	-4070
▁tal	-4071
▁situ	-4072
▁commercial	-4073
che	-4074
▁rise	-4075
ashtra	-4076
▁growing	-4077
▁Aud	-4078
▁site	-4079
▁schemes	-4080
▁domestic	-4081
▁Script	-4082
▁Power	-4083
▁named	-4084
oll	-4085
▁recent	-4086
▁mighty	-4087
▁consideration	-4088
▁table	-4089
▁gardens	-4090
▁hot	-4091
▁useful	-4092
▁More	-4093
▁rock	-4094
What	-4095
▁perman	-4096
atically	-4097
▁Assembly	-4098
de	-4099
▁Gr	-4100
uled	-4101
▁Ur	-4102
▁Hist	-4103
▁apart	-4104
▁valid	-4105
pranab	-4106
mukherjee	-4107
pranabmukherjee	-4108
▁facilit	-4109
▁marriage	-4110
,"	-4111
▁stated	-4112
▁storage	-4113
ighb	-4114
▁trees	-4115
▁Nehru	-4116
▁staff	-4117
CT	-4118
▁vac	-4119
▁leaves	-4120
raft	-4121
▁adopted	-4122
roud	-4123
▁Science	-4124
▁block	-4125
▁CD	-4126
▁tool	-4127
aya	-4128
pense	-4129
▁secure	-4130
odies	-4131
4,	-4132
top	-4133
apan	-4134
▁resol	-4135
▁SAW	-4136
▁join	-4137
itled	-4138
ruary	-4139
',	-4140
inery	-4141
▁Contact	-4142
▁committed	-4143
▁prec	-4144
▁Excell	-4145
▁Remove	-4146
igr	-4147
▁Delete	-4148
▁divided	-4149
ask	-4150
▁leader	-4151
▁technical	-4152
▁involved	-4153
▁mid	-4154
▁contained	-4155
resp	-4156
-201	-4157
aker	-4158
ebruary	-4159
▁helped	-4160
▁powerful	-4161
▁sus	-4162
cause	-4163
iry	-4164
▁pil	-4165
▁media	-4166
▁temples	-4167
▁gain	-4168
▁Bombay	-4169
▁Secretary	-4170
▁UN	-4171
▁figure	-4172
▁engaged	-4173
▁declared	-4174
▁Path	-4175
▁famil	-4176
osen	-4177
▁cells	-4178
▁disob	-4179
▁September	-4180
▁appropriate	-4181
▁exists	-4182
▁consult	-4183
▁portion	-4184
▁fields	-4185
▁temper	-4186
▁payable	-4187
▁sculpt	-4188
lication	-4189
adh	-4190
▁Office	-4191
▁consequ	-4192
▁praise	-4193
▁causes	-4194
▁questions	-4195
aran	-4196
aters	-4197
fection	-4198
▁Gh	-4199
▁registered	-4200
▁Head	-4201
▁architect	-4202
▁emphas	-4203
▁policies	-4204
▁Pand	-4205
▁November	-4206
▁thinking	-4207
▁model	-4208
▁divine	-4209
▁amongst	-4210
▁hearing	-4211
▁promote	-4212
ora	-4213
▁entry	-4214
AD	-4215
▁officer	-4216
▁reading	-4217
rust	-4218
▁won	-4219
▁Over	-4220
▁military	-4221
▁Bus	-4222
▁Nath	-4223
▁prostr	-4224
ications	-4225
▁developing	-4226
ests	-4227
▁Nep	-4228
▁fruits	-4229
itch	-4230
▁withd	-4231
▁profit	-4232
▁Ret	-4233
▁review	-4234
▁cloud	-4235
▁Edit	-4236
▁processing	-4237
athy	-4238
▁capt	-4239
▁animal	-4240
▁neighb	-4241
▁deduction	-4242
▁reference	-4243
You	-4244
▁Image	-4245
▁depart	-4246
▁extreme	-4247
▁shape	-4248
▁events	-4249
urg	-4250
▁22	-4251
rehens	-4252
▁Enable	-4253
▁families	-4254
▁Satan	-4255
▁lines	-4256
▁lived	-4257
▁ID	-4258
▁Gra	-4259
mer	-4260
▁4.	-4261
▁seed	-4262
pid	-4263
▁AT	-4264
▁China	-4265
▁shares	-4266
ti	-4267
▁earn	-4268
▁email	-4269
▁symbol	-4270
arma	-4271
▁veget	-4272
▁miss	-4273
▁images	-4274
▁track	-4275
▁tid	-4276
▁magn	-4277
▁external	-4278
▁succeed	-4279
▁influence	-4280
iled	-4281
▁seem	-4282
▁expressed	-4283
assion	-4284
Mu	-4285
cher	-4286
▁corpor	-4287
▁gather	-4288
▁sometimes	-4289
▁Nay	-4290
iences	-4291
▁refuge	-4292
▁messengers	-4293
ogle	-4294
▁Inc	-4295
ounty	-4296
▁circumstances	-4297
▁fit	-4298
▁interests	-4299
▁standards	-4300
xy	-4301
asons	-4302
▁incl	-4303
▁likely	-4304
like	-4305
umber	-4306
▁needed	-4307
3,	-4308
▁nuc	-4309
▁touch	-4310
▁ST	-4311
▁excl	-4312
▁gar	-4313
▁Stand	-4314
▁Car	-4315
aging	-4316
▁remained	-4317
▁response	-4318
▁Paradise	-4319
OL	-4320
▁seems	-4321
▁desires	-4322
▁Unto	-4323
▁Check	-4324
▁expand	-4325
▁Her	-4326
▁web	-4327
▁magic	-4328
▁waste	-4329
MS	-4330
uff	-4331
inet	-4332
▁box	-4333
▁choose	-4334
▁square	-4335
▁Gandhiji	-4336
ought	-4337
shipp	-4338
▁dance	-4339
▁dated	-4340
▁raise	-4341
ING	-4342
▁Bihar	-4343
▁ignor	-4344
▁August	-4345
▁URL	-4346
▁wel	-4347
icate	-4348
▁pric	-4349
1,	-4350
lies	-4351
▁master	-4352
▁remains	-4353
▁truly	-4354
▁attach	-4355
grat	-4356
▁variety	-4357
▁II	-4358
▁wo	-4359
ression	-4360
▁Kerala	-4361
enge	-4362
▁consciousness	-4363
▁constitution	-4364
aja	-4365
reprene	-4366
▁fish	-4367
▁taught	-4368
lying	-4369
▁compon	-4370
atma	-4371
▁rejected	-4372
▁interp	-4373
▁average	-4374
▁additional	-4375
▁quar	-4376
▁killed	-4377
aur	-4378
▁fill	-4379
▁Roy	-4380
▁ball	-4381
nes	-4382
▁trial	-4383
▁graph	-4384
▁remark	-4385
▁location	-4386
▁worshipp	-4387
llig	-4388
Muhammad	-4389
▁Knowing	-4390
▁extended	-4391
unk	-4392
▁egg	-4393
▁column	-4394
▁elements	-4395
oj	-4396
oming	-4397
▁Chairman	-4398
▁Nar	-4399
▁mouth	-4400
▁sup	-4401
ading	-4402
usive	-4403
▁calls	-4404
▁enable	-4405
rain	-4406
▁Ear	-4407
▁Also	-4408
▁terrorism	-4409
IV	-4410
unal	-4411
▁80	-4412
▁School	-4413
▁levels	-4414
▁Conference	-4415
▁refers	-4416
▁surface	-4417
cast	-4418
▁Palest	-4419
▁wives	-4420
▁chosen	-4421
uous	-4422
▁proud	-4423
▁Corporation	-4424
iance	-4425
olute	-4426
▁input	-4427
▁maintain	-4428
▁partnership	-4429
▁saf	-4430
icked	-4431
▁trying	-4432
▁lack	-4433
asthan	-4434
▁Exchange	-4435
▁advant	-4436
▁sectors	-4437
▁July	-4438
▁inaug	-4439
aji	-4440
▁cop	-4441
▁cash	-4442
▁print	-4443
▁Fil	-4444
iring	-4445
▁Germ	-4446
▁earned	-4447
▁evening	-4448
▁voice	-4449
▁perfect	-4450
▁whosoever	-4451
▁Det	-4452
▁unf	-4453
▁skin	-4454
▁medium	-4455
▁store	-4456
▁series	-4457
sec	-4458
▁joy	-4459
vention	-4460
▁settle	-4461
▁brings	-4462
AM	-4463
▁described	-4464
▁27	-4465
nded	-4466
▁Great	-4467
▁Japan	-4468
▁poly	-4469
▁avoid	-4470
▁difference	-4471
EM	-4472
▁28	-4473
▁Di	-4474
▁Buddh	-4475
erative	-4476
▁Att	-4477
▁dang	-4478
anges	-4479
▁worked	-4480
▁2,	-4481
▁Turk	-4482
▁gets	-4483
▁distance	-4484
my	-4485
▁Soci	-4486
▁prem	-4487
▁plain	-4488
▁quant	-4489
actions	-4490
▁larger	-4491
▁machine	-4492
▁construct	-4493
▁root	-4494
▁crops	-4495
▁reflect	-4496
▁Maharashtra	-4497
▁distribution	-4498
lick	-4499
▁mutual	-4500
▁“”	-4501
atter	-4502
▁independence	-4503
idy	-4504
ray	-4505
▁diss	-4506
aign	-4507
▁hell	-4508
▁risk	-4509
▁expected	-4510
uries	-4511
▁observed	-4512
▁abroad	-4513
▁Inte	-4514
▁died	-4515
▁Som	-4516
ivered	-4517
▁cultiv	-4518
▁opening	-4519
abh	-4520
▁poems	-4521
▁forget	-4522
▁associate	-4523
overy	-4524
▁Elect	-4525
▁cattle	-4526
▁Fr	-4527
ifice	-4528
▁Bhag	-4529
▁teachers	-4530
eties	-4531
▁output	-4532
ube	-4533
▁online	-4534
▁stead	-4535
▁borrow	-4536
▁clearly	-4537
▁applications	-4538
▁Pres	-4539
▁dust	-4540
▁brothers	-4541
▁objective	-4542
▁sale	-4543
▁looked	-4544
apt	-4545
▁fine	-4546
ague	-4547
▁Guru	-4548
▁Hindus	-4549
▁truthful	-4550
▁launched	-4551
aling	-4552
▁sleep	-4553
▁tidings	-4554
▁determined	-4555
▁messenger	-4556
Our	-4557
pped	-4558
▁Pan	-4559
▁Sum	-4560
▁annual	-4561
▁Mission	-4562
▁association	-4563
ught	-4564
▁Madh	-4565
▁remem	-4566
▁defined	-4567
ndra	-4568
▁Had	-4569
ception	-4570
▁listen	-4571
▁European	-4572
▁introduced	-4573
▁;	-4574
iny	-4575
▁exercise	-4576
▁hidden	-4577
▁friendly	-4578
▁pill	-4579
▁wisdom	-4580
▁independent	-4581
olid	-4582
▁removed	-4583
▁fellow	-4584
▁honour	-4585
ius	-4586
▁Nob	-4587
▁Services	-4588
ands	-4589
▁majority	-4590
▁deliver	-4591
teen	-4592
onal	-4593
▁Chandra	-4594
▁Description	-4595
▁burden	-4596
▁academic	-4597
▁Men	-4598
verty	-4599
▁rupees	-4600
▁screen	-4601
▁Av	-4602
▁vast	-4603
▁Because	-4604
▁February	-4605
pan	-4606
ahar	-4607
ocal	-4608
▁glad	-4609
ologies	-4610
▁element	-4611
▁poverty	-4612
istics	-4613
▁Tagore	-4614
▁remote	-4615
▁safety	-4616
▁throughout	-4617
▁Iran	-4618
▁affairs	-4619
▁convers	-4620
▁Change	-4621
oms	-4622
ousing	-4623
▁spent	-4624
▁literary	-4625
ij	-4626
▁maximum	-4627
▁km	-4628
▁songs	-4629
▁electric	-4630
For	-4631
nel	-4632
▁191	-4633
▁homes	-4634
▁procedure	-4635
▁Did	-4636
▁Stat	-4637
▁delivered	-4638
▁ourselves	-4639
ARD	-4640
alted	-4641
▁army	-4642
▁confirm	-4643
▁hel	-4644
▁station	-4645
enture	-4646
▁easily	-4647
ESS	-4648
▁goal	-4649
▁ideal	-4650
▁beauty	-4651
▁impact	-4652
▁initial	-4653
▁35	-4654
ysis	-4655
▁Sir	-4656
apers	-4657
▁Ke	-4658
aram	-4659
▁trou	-4660
▁unc	-4661
▁submit	-4662
▁offered	-4663
▁studies	-4664
amet	-4665
▁Nav	-4666
▁breast	-4667
▁characters	-4668
▁philosophy	-4669
OP	-4670
▁gains	-4671
heduled	-4672
▁cat	-4673
▁Rail	-4674
▁unity	-4675
▁contem	-4676
▁Kum	-4677
▁Mag	-4678
itis	-4679
enior	-4680
▁Karn	-4681
▁context	-4682
▁assigned	-4683
▁Ant	-4684
▁Khan	-4685
▁equip	-4686
▁disbelieved	-4687
▁mort	-4688
▁Division	-4689
ixt	-4690
venant	-4691
▁confidence	-4692
.0	-4693
uties	-4694
▁department	-4695
▁lad	-4696
▁moving	-4697
▁distingu	-4698
rone	-4699
▁door	-4700
▁Display	-4701
▁congrat	-4702
▁greatest	-4703
▁heed	-4704
isc	-4705
▁Rama	-4706
▁birds	-4707
▁Mahatma	-4708
▁charges	-4709
abilities	-4710
▁fresh	-4711
irty	-4712
▁bed	-4713
▁organisation	-4714
ML	-4715
▁Dem	-4716
▁views	-4717
▁suffer	-4718
▁dim	-4719
▁soil	-4720
▁griev	-4721
ika	-4722
epend	-4723
▁points	-4724
TH	-4725
▁authent	-4726
▁hospital	-4727
▁fle	-4728
elines	-4729
urate	-4730
▁History	-4731
▁40	-4732
▁Web	-4733
▁Network	-4734
ese	-4735
gen	-4736
▁dry	-4737
▁Prom	-4738
▁Health	-4739
▁seeking	-4740
▁approved	-4741
▁flag	-4742
▁empty	-4743
▁District	-4744
ktop	-4745
▁lik	-4746
▁rapid	-4747
▁initiatives	-4748
▁Both	-4749
▁enterpr	-4750
▁schools	-4751
▁communication	-4752
▁Ext	-4753
▁fert	-4754
▁River	-4755
▁Special	-4756
▁namely	-4757
ira	-4758
▁Belie	-4759
cript	-4760
▁divide	-4761
▁settings	-4762
▁debt	-4763
▁inher	-4764
era	-4765
▁dialog	-4766
chand	-4767
▁yield	-4768
▁Social	-4769
▁Ham	-4770
▁acts	-4771
▁kinds	-4772
▁Rajasthan	-4773
una	-4774
▁“%	-4775
▁jur	-4776
▁hide	-4777
▁souls	-4778
▁Default	-4779
▁replied	-4780
▁forbidden	-4781
oph	-4782
▁Akbar	-4783
▁articles	-4784
▁holding	-4785
▁innovation	-4786
▁Google	-4787
▁reduced	-4788
▁wherein	-4789
▁blessings	-4790
AG	-4791
▁(3)	-4792
▁1961	-4793
▁mainly	-4794
omp	-4795
▁{0}	-4796
▁Data	-4797
aped	-4798
▁Ste	-4799
”.	-4800
osh	-4801
dule	-4802
▁habit	-4803
▁kingdom	-4804
mat	-4805
▁shr	-4806
▁2000	-4807
▁Among	-4808
▁Colle	-4809
▁happen	-4810
▁Bad	-4811
▁gas	-4812
enses	-4813
▁oath	-4814
▁pleased	-4815
gra	-4816
▁sell	-4817
▁micro	-4818
▁merely	-4819
lfare	-4820
▁follows	-4821
▁welfare	-4822
US	-4823
ronic	-4824
▁daily	-4825
▁Ra	-4826
▁profits	-4827
▁machinery	-4828
▁challenges	-4829
▁conver	-4830
▁Lab	-4831
aneous	-4832
▁season	-4833
▁returns	-4834
ux	-4835
omy	-4836
▁frequ	-4837
▁Nat	-4838
▁prop	-4839
▁organization	-4840
▁grand	-4841
▁sections	-4842
▁IP	-4843
▁grad	-4844
▁vital	-4845
Do	-4846
▁happened	-4847
BI	-4848
▁sort	-4849
▁Besides	-4850
▁partner	-4851
▁appointment	-4852
▁undertaking	-4853
imal	-4854
▁carrying	-4855
▁Programme	-4856
▁Himalay	-4857
▁Bel	-4858
▁cra	-4859
▁devotion	-4860
▁excess	-4861
▁generations	-4862
▁Lim	-4863
anged	-4864
▁neck	-4865
▁Since	-4866
▁minimum	-4867
▁installed	-4868
▁ban	-4869
atab	-4870
▁(19	-4871
▁Each	-4872
▁minor	-4873
▁feeling	-4874
▁excellent	-4875
▁promotion	-4876
▁lic	-4877
osphere	-4878
▁Though	-4879
▁intellig	-4880
▁surround	-4881
▁turns	-4882
▁altern	-4883
▁recompense	-4884
▁Mary	-4885
▁lest	-4886
▁prison	-4887
▁wrongdo	-4888
▁Water	-4889
▁Second	-4890
ATION	-4891
▁primary	-4892
▁authorities	-4893
venue	-4894
▁cook	-4895
▁sought	-4896
▁sustain	-4897
ja	-4898
▁fat	-4899
▁utter	-4900
▁creating	-4901
▁practices	-4902
12	-4903
phone	-4904
▁wants	-4905
respond	-4906
▁Two	-4907
rency	-4908
▁slow	-4909
aying	-4910
▁...	-4911
▁mal	-4912
▁rej	-4913
arant	-4914
▁Environment	-4915
▁notification	-4916
ilty	-4917
▁nine	-4918
▁attrib	-4919
▁joined	-4920
▁Key	-4921
arati	-4922
▁keeping	-4923
▁regional	-4924
▁battle	-4925
▁Mer	-4926
▁buy	-4927
▁See	-4928
▁Free	-4929
▁encoura	-4930
▁Official	-4931
▁covenant	-4932
ET	-4933
▁nut	-4934
izations	-4935
▁Bengali	-4936
▁mir	-4937
▁urban	-4938
▁Commun	-4939
▁highly	-4940
rate	-4941
▁cold	-4942
▁library	-4943
▁prepar	-4944
▁Financial	-4945
▁MS	-4946
achal	-4947
▁affected	-4948
▁campaign	-4949
▁Type	-4950
▁ult	-4951
▁thank	-4952
▁dispute	-4953
ancing	-4954
ips	-4955
▁huge	-4956
▁household	-4957
▁5.	-4958
▁Cap	-4959
▁cance	-4960
▁receipt	-4961
asi	-4962
lly	-4963
▁ast	-4964
▁branch	-4965
aces	-4966
▁plat	-4967
conomic	-4968
▁diseases	-4969
▁festival	-4970
rees	-4971
▁resource	-4972
gin	-4973
vis	-4974
▁Aff	-4975
▁filled	-4976
▁Members	-4977
▁individuals	-4978
UN	-4979
▁wonder	-4980
▁Certificate	-4981
▁destination	-4982
ataka	-4983
vision	-4984
▁positive	-4985
▁communities	-4986
roll	-4987
▁mist	-4988
iciency	-4989
▁believing	-4990
▁completely	-4991
▁Hour	-4992
▁prosperity	-4993
▁ji	-4994
▁degree	-4995
▁east	-4996
▁sett	-4997
▁Rules	-4998
▁Language	-4999
▁darkness	-5000
oot	-5001
▁Emp	-5002
▁Arch	-5003
▁Aust	-5004
▁critic	-5005
▁reasons	-5006
▁submitted	-5007
ollow	-5008
▁tong	-5009
▁cand	-5010
▁Authority	-5011
▁wild	-5012
▁Assam	-5013
▁drawn	-5014
▁probably	-5015
▁bab	-5016
▁colour	-5017
▁confident	-5018
▁opt	-5019
▁cru	-5020
▁rare	-5021
▁garden	-5022
▁Date	-5023
▁Russ	-5024
▁actual	-5025
ensation	-5026
▁Gardens	-5027
▁impl	-5028
▁theme	-5029
▁delivery	-5030
ishing	-5031
▁Ganga	-5032
▁Excellency	-5033
iate	-5034
▁integral	-5035
▁materials	-5036
▁requirements	-5037
ander	-5038
tenance	-5039
▁guilty	-5040
▁reality	-5041
▁latter	-5042
▁relief	-5043
▁board	-5044
▁learned	-5045
▁syn	-5046
udget	-5047
▁jinn	-5048
icient	-5049
▁demon	-5050
▁moral	-5051
▁agreed	-5052
▁entitled	-5053
▁pressure	-5054
▁Bu	-5055
▁distrib	-5056
DE	-5057
een	-5058
seen	-5059
▁Est	-5060
▁crim	-5061
▁latest	-5062
▁passing	-5063
ura	-5064
▁Non	-5065
▁sick	-5066
▁visible	-5067
▁Kov	-5068
▁Click	-5069
▁features	-5070
▁greetings	-5071
▁ende	-5072
ertain	-5073
▁wronged	-5074
▁leadership	-5075
▁SH	-5076
igible	-5077
▁Joh	-5078
ricts	-5079
▁Company	-5080
▁aid	-5081
oseph	-5082
▁late	-5083
▁Panch	-5084
▁volunt	-5085
▁Foreign	-5086
TP	-5087
mi	-5088
arian	-5089
▁aspects	-5090
▁picture	-5091
▁Speaking	-5092
pic	-5093
▁girl	-5094
▁Ib	-5095
▁duties	-5096
▁2014	-5097
▁Library	-5098
ped	-5099
▁bodies	-5100
Is	-5101
eting	-5102
▁mission	-5103
▁everyone	-5104
▁disput	-5105
▁thereby	-5106
▁yourself	-5107
▁correspond	-5108
▁sacred	-5109
▁meant	-5110
▁England	-5111
▁principles	-5112
ayana	-5113
valid	-5114
imately	-5115
▁regions	-5116
▁universal	-5117
▁adequ	-5118
▁shared	-5119
▁reply	-5120
50	-5121
amin	-5122
▁facility	-5123
▁teaching	-5124
▁juris	-5125
▁seized	-5126
▁internal	-5127
othe	-5128
▁reforms	-5129
▁performed	-5130
▁selection	-5131
ayan	-5132
▁fell	-5133
▁substant	-5134
CE	-5135
▁Andhra	-5136
▁encourage	-5137
▁fab	-5138
▁Park	-5139
▁hair	-5140
▁Trust	-5141
▁moved	-5142
▁description	-5143
▁iron	-5144
▁hypoc	-5145
▁methods	-5146
▁collabor	-5147
▁background	-5148
charge	-5149
▁assum	-5150
▁editor	-5151
▁resolution	-5152
▁Yoga	-5153
▁tiss	-5154
▁compr	-5155
▁string	-5156
▁foundation	-5157
force	-5158
▁Subs	-5159
▁incident	-5160
▁inspired	-5161
AB	-5162
hu	-5163
▁click	-5164
▁estim	-5165
▁College	-5166
▁60	-5167
▁victory	-5168
▁although	-5169
▁participation	-5170
aul	-5171
ester	-5172
▁prices	-5173
▁dear	-5174
clause	-5175
▁button	-5176
▁planning	-5177
▁establishment	-5178
▁Word	-5179
isition	-5180
box	-5181
▁Life	-5182
▁beings	-5183
athi	-5184
▁west	-5185
▁myself	-5186
ifications	-5187
iber	-5188
▁title	-5189
cean	-5190
▁users	-5191
▁delight	-5192
▁petitioner	-5193
▁ic	-5194
▁tab	-5195
urities	-5196
▁entreprene	-5197
▁governance	-5198
-2018	-5199
▁Internet	-5200
▁bestowed	-5201
▁division	-5202
▁intellectual	-5203
UL	-5204
▁released	-5205
▁uns	-5206
▁admon	-5207
▁ahead	-5208
▁inner	-5209
▁Current	-5210
▁forever	-5211
▁Governments	-5212
rench	-5213
▁Mail	-5214
▁trave	-5215
▁daughter	-5216
▁ang	-5217
inger	-5218
asm	-5219
odes	-5220
▁transform	-5221
OC	-5222
ache	-5223
▁limits	-5224
▁suitable	-5225
▁Like	-5226
ricket	-5227
▁audio	-5228
▁Config	-5229
▁arrest	-5230
itt	-5231
ocol	-5232
▁Sun	-5233
astic	-5234
oning	-5235
▁nearly	-5236
▁channel	-5237
▁options	-5238
ERS	-5239
bell	-5240
sych	-5241
▁tur	-5242
▁double	-5243
▁attached	-5244
▁Scripture	-5245
grim	-5246
▁delete	-5247
rible	-5248
▁exact	-5249
othing	-5250
▁Export	-5251
▁folders	-5252
▁critical	-5253
▁registration	-5254
ka	-5255
▁endeav	-5256
▁sources	-5257
▁challenge	-5258
▁insurance	-5259
thy	-5260
▁sacrifice	-5261
▁Self	-5262
▁Reserve	-5263
▁climate	-5264
▁deposit	-5265
▁consists	-5266
▁Kar	-5267
▁grass	-5268
▁defence	-5269
pel	-5270
▁Send	-5271
▁crop	-5272
▁plays	-5273
▁Mighty	-5274
ottom	-5275
▁Custom	-5276
▁Maj	-5277
▁plugin	-5278
▁enabled	-5279
VD	-5280
▁Docu	-5281
▁actions	-5282
▁changing	-5283
ams	-5284
▁HT	-5285
▁Number	-5286
▁Independ	-5287
▁stood	-5288
▁manager	-5289
gypt	-5290
▁atm	-5291
▁Invalid	-5292
....	-5293
▁190	-5294
▁hero	-5295
▁obst	-5296
▁subjects	-5297
mar	-5298
▁pi	-5299
▁About	-5300
▁Micro	-5301
eks	-5302
ondon	-5303
▁Color	-5304
▁containing	-5305
▁AS	-5306
▁Ash	-5307
ingly	-5308
▁Autom	-5309
▁achieved	-5310
▁00	-5311
▁Buddha	-5312
▁waiting	-5313
mn	-5314
ipl	-5315
▁Sk	-5316
writ	-5317
india	-5318
atience	-5319
▁platform	-5320
▁reminder	-5321
▁Assistant	-5322
isms	-5323
ients	-5324
▁Print	-5325
▁orders	-5326
▁recently	-5327
idge	-5328
▁Disc	-5329
▁charged	-5330
look	-5331
acter	-5332
▁glor	-5333
▁sand	-5334
▁bilateral	-5335
▁upper	-5336
▁publication	-5337
ifies	-5338
▁reduce	-5339
▁failure	-5340
▁letters	-5341
▁Nag	-5342
▁Mount	-5343
▁nuclear	-5344
using	-5345
rical	-5346
▁centres	-5347
▁agencies	-5348
▁Knower	-5349
▁Princip	-5350
▁examination	-5351
orial	-5352
▁Tour	-5353
▁surv	-5354
▁Press	-5355
▁proport	-5356
▁treated	-5357
iy	-5358
▁Met	-5359
iders	-5360
▁Kovind	-5361
▁historical	-5362
overed	-5363
▁proved	-5364
▁insects	-5365
▁reports	-5366
▁mountain	-5367
▁Tru	-5368
▁fighting	-5369
▁swear	-5370
▁Another	-5371
▁approval	-5372
▁suffering	-5373
ubs	-5374
▁Proper	-5375
▁priority	-5376
▁scholar	-5377
▁multiple	-5378
▁recorded	-5379
▁ax	-5380
hern	-5381
▁Bah	-5382
▁doub	-5383
diction	-5384
▁counter	-5385
▁sanction	-5386
iant	-5387
▁row	-5388
▁Nepal	-5389
▁thanks	-5390
▁purchase	-5391
▁Pet	-5392
essing	-5393
▁extension	-5394
bal	-5395
▁infl	-5396
▁star	-5397
▁Civil	-5398
▁Prote	-5399
▁Palestin	-5400
▁Tribunal	-5401
▁register	-5402
▁relative	-5403
▁advantage	-5404
▁commanded	-5405
▁witnesses	-5406
▁SC	-5407
▁Mun	-5408
▁liqu	-5409
▁Party	-5410
▁served	-5411
▁Society	-5412
▁awareness	-5413
▁forgiving	-5414
hand	-5415
▁flu	-5416
▁Make	-5417
▁anti	-5418
atabase	-5419
▁chemical	-5420
▁distinct	-5421
ithm	-5422
▁tend	-5423
▁visited	-5424
▁01	-5425
▁Egypt	-5426
▁manufacturing	-5427
▁fabric	-5428
▁volume	-5429
▁Ira	-5430
▁requires	-5431
▁plot	-5432
▁marked	-5433
ho	-5434
▁reck	-5435
God	-5436
stitu	-5437
▁caste	-5438
oration	-5439
▁seeing	-5440
▁Pen	-5441
▁Associ	-5442
▁figures	-5443
▁Modi	-5444
▁Class	-5445
▁newsp	-5446
▁warner	-5447
dess	-5448
rant	-5449
▁ren	-5450
▁signed	-5451
▁hind	-5452
iration	-5453
▁president	-5454
▁Enc	-5455
▁London	-5456
▁courage	-5457
▁situated	-5458
5)	-5459
▁AD	-5460
▁Play	-5461
▁piece	-5462
fts	-5463
oral	-5464
▁guides	-5465
▁whereas	-5466
▁instance	-5467
▁refer	-5468
▁minutes	-5469
back	-5470
▁Gov	-5471
▁Code	-5472
▁leaf	-5473
▁Creat	-5474
▁Training	-5475
▁Po	-5476
▁fault	-5477
▁mobile	-5478
▁manufacture	-5479
thern	-5480
▁Writ	-5481
astern	-5482
▁match	-5483
▁monitor	-5484
oti	-5485
hance	-5486
▁happiness	-5487
▁constituted	-5488
▁universities	-5489
▁Once	-5490
▁absolute	-5491
oose	-5492
▁Cult	-5493
enance	-5494
▁preced	-5495
▁ability	-5496
imb	-5497
ammu	-5498
▁phase	-5499
▁subsequ	-5500
▁faithful	-5501
▁contacts	-5502
▁proceedings	-5503
alg	-5504
▁BC	-5505
plit	-5506
ammed	-5507
▁incor	-5508
▁election	-5509
▁Va	-5510
ghan	-5511
otic	-5512
▁lock	-5513
▁privile	-5514
rief	-5515
▁heat	-5516
▁Karnataka	-5517
esty	-5518
esus	-5519
▁commitment	-5520
▁Prem	-5521
▁Stud	-5522
▁dign	-5523
▁eleph	-5524
▁interesting	-5525
raid	-5526
▁healthy	-5527
▁successfully	-5528
▁Benef	-5529
▁Justice	-5530
▁replace	-5531
▁poem	-5532
athered	-5533
orthern	-5534
▁officials	-5535
▁appears	-5536
▁descend	-5537
rehensive	-5538
▁Top	-5539
▁hop	-5540
▁showing	-5541
▁Log	-5542
▁banking	-5543
▁parliament	-5544
aly	-5545
claim	-5546
▁Year	-5547
▁looks	-5548
▁records	-5549
▁warning	-5550
Pro	-5551
▁Iraq	-5552
▁Arabic	-5553
▁burning	-5554
▁decades	-5555
▁Jews	-5556
▁grown	-5557
▁weeks	-5558
▁Before	-5559
▁supreme	-5560
▁Security	-5561
▁DVD	-5562
plate	-5563
▁assured	-5564
▁falsehood	-5565
pta	-5566
▁Next	-5567
▁bright	-5568
▁fundamental	-5569
inated	-5570
▁defend	-5571
mendment	-5572
▁student	-5573
“”	-5574
aded	-5575
going	-5576
▁notes	-5577
mod	-5578
▁quot	-5579
▁delay	-5580
▁toward	-5581
▁discussion	-5582
▁Help	-5583
▁announced	-5584
▁2006	-5585
▁factors	-5586
▁principle	-5587
erves	-5588
rated	-5589
▁writer	-5590
▁Administr	-5591
lal	-5592
▁Don	-5593
▁2013	-5594
▁Page	-5595
▁Vishn	-5596
▁rates	-5597
▁smaller	-5598
▁scholars	-5599
ses	-5600
greg	-5601
▁bran	-5602
▁Clear	-5603
▁Jammu	-5604
▁scientists	-5605
▁jurisdiction	-5606
ittees	-5607
▁admit	-5608
▁sitting	-5609
ibilities	-5610
▁Rad	-5611
▁reb	-5612
anging	-5613
luding	-5614
▁spoke	-5615
▁tonnes	-5616
aughters	-5617
▁accident	-5618
▁friendship	-5619
erted	-5620
▁disk	-5621
▁Brahm	-5622
▁eth	-5623
▁veh	-5624
▁coord	-5625
▁herit	-5626
▁Invest	-5627
▁followers	-5628
▁mur	-5629
eless	-5630
ulating	-5631
▁democratic	-5632
rel	-5633
▁Find	-5634
▁Mand	-5635
▁Sind	-5636
abinet	-5637
▁Rajya	-5638
▁proposed	-5639
▁efficient	-5640
oken	-5641
▁Noah	-5642
▁abode	-5643
▁helps	-5644
▁overt	-5645
▁applied	-5646
▁merciful	-5647
▁coal	-5648
▁valu	-5649
▁recognised	-5650
▁transferred	-5651
▁Human	-5652
▁abund	-5653
▁phone	-5654
▁orient	-5655
▁unable	-5656
▁conflict	-5657
▁professional	-5658
bon	-5659
▁objects	-5660
▁offline	-5661
▁bringing	-5662
▁bes	-5663
holders	-5664
▁becoming	-5665
UT	-5666
▁uses	-5667
▁decide	-5668
▁negative	-5669
10	-5670
▁exec	-5671
▁sole	-5672
▁Nan	-5673
▁2005	-5674
▁weap	-5675
▁showed	-5676
▁Application	-5677
oples	-5678
▁deleg	-5679
▁explo	-5680
▁acquired	-5681
▁whatsoever	-5682
det	-5683
▁bene	-5684
▁hill	-5685
pected	-5686
▁doctor	-5687
▁heritage	-5688
▁obtained	-5689
wa	-5690
apur	-5691
▁2007	-5692
▁Call	-5693
▁skill	-5694
▁courts	-5695
▁Process	-5696
▁elected	-5697
▁Sl	-5698
▁married	-5699
▁Legislative	-5700
▁Unknown	-5701
▁concent	-5702
▁engineering	-5703
▁instruments	-5704
inity	-5705
▁Nare	-5706
▁translation	-5707
▁Bose	-5708
▁Mahab	-5709
▁abide	-5710
▁sugar	-5711
▁currently	-5712
▁Down	-5713
▁29	-5714
issa	-5715
last	-5716
▁surpr	-5717
▁implemented	-5718
anya	-5719
▁effects	-5720
▁withdraw	-5721
▁daughters	-5722
vent	-5723
▁Women	-5724
▁Ka	-5725
▁drop	-5726
▁sending	-5727
▁Business	-5728
▁currency	-5729
IP	-5730
▁adult	-5731
▁arrog	-5732
▁enhan	-5733
▁FOR	-5734
▁cave	-5735
▁download	-5736
▁patience	-5737
▁eld	-5738
▁irr	-5739
▁recall	-5740
isations	-5741
▁politics	-5742
▁1961-2018	-5743
ouch	-5744
▁recon	-5745
▁rice	-5746
▁classes	-5747
▁candid	-5748
.—	-5749
ila	-5750
▁3,	-5751
▁dispos	-5752
osit	-5753
quest	-5754
▁Joseph	-5755
▁decisions	-5756
▁compassion	-5757
▁destruction	-5758
▁administrative	-5759
had	-5760
▁ears	-5761
▁Fort	-5762
▁choice	-5763
▁damage	-5764
▁pollution	-5765
aced	-5766
▁Ben	-5767
▁indig	-5768
▁Mother	-5769
▁hasten	-5770
VE	-5771
▁sends	-5772
▁behold	-5773
▁playing	-5774
▁dia	-5775
▁Ent	-5776
▁Would	-5777
▁skills	-5778
▁appeared	-5779
▁objectives	-5780
No	-5781
▁Found	-5782
▁doesn	-5783
▁attain	-5784
▁obvious	-5785
ormal	-5786
▁factor	-5787
wor	-5788
omic	-5789
will	-5790
▁technologies	-5791
▁compared	-5792
▁gathered	-5793
▁Hon	-5794
▁fee	-5795
rites	-5796
ployment	-5797
▁ordinary	-5798
▁maintenance	-5799
▁escape	-5800
▁initiative	-5801
rier	-5802
▁Nadu	-5803
▁lawful	-5804
▁Affairs	-5805
▁equipment	-5806
▁operating	-5807
lands	-5808
▁noted	-5809
alt	-5810
▁Kan	-5811
▁minds	-5812
▁bounty	-5813
▁amb	-5814
▁recip	-5815
▁permanent	-5816
oser	-5817
ishes	-5818
▁Afghan	-5819
▁interpret	-5820
▁university	-5821
▁stands	-5822
▁-.	-5823
aman	-5824
▁Yes	-5825
ceeds	-5826
▁Mugh	-5827
▁archive	-5828
▁argument	-5829
▁thoughts	-5830
MP	-5831
▁CON	-5832
iversary	-5833
▁inherit	-5834
▁organized	-5835
▁corruption	-5836
▁drugs	-5837
▁organised	-5838
umer	-5839
▁adequate	-5840
▁conducted	-5841
pective	-5842
▁Control	-5843
▁western	-5844
▁Ministers	-5845
van	-5846
▁org	-5847
omever	-5848
▁compar	-5849
▁Ali	-5850
▁Tel	-5851
▁rob	-5852
▁Mult	-5853
▁hall	-5854
rat	-5855
▁facts	-5856
▁Chapter	-5857
▁addressed	-5858
▁CH	-5859
▁Dec	-5860
▁Ref	-5861
redit	-5862
▁Kumar	-5863
▁afford	-5864
▁agency	-5865
▁maintained	-5866
rad	-5867
▁holds	-5868
▁prose	-5869
▁settled	-5870
▁unknown	-5871
▁constant	-5872
▁kil	-5873
▁John	-5874
▁rent	-5875
ofindia	-5876
▁afraid	-5877
izon	-5878
inese	-5879
ossible	-5880
▁enemies	-5881
▁examples	-5882
oned	-5883
president	-5884
▁Industrial	-5885
ankar	-5886
ensions	-5887
▁weather	-5888
▁welcome	-5889
▁territory	-5890
▁GN	-5891
fast	-5892
▁thirty	-5893
▁citizen	-5894
▁conference	-5895
)?	-5896
udi	-5897
▁Das	-5898
▁Load	-5899
▁Vishnu	-5900
▁struct	-5901
▁suddenly	-5902
60	-5903
ni	-5904
▁arms	-5905
▁resist	-5906
▁centuries	-5907
www	-5908
antic	-5909
▁desert	-5910
▁Remember	-5911
▁identified	-5912
,—	-5913
alle	-5914
▁Tri	-5915
▁mos	-5916
▁didn	-5917
▁incur	-5918
▁pages	-5919
▁chance	-5920
▁covering	-5921
▁32	-5922
▁cow	-5923
ially	-5924
▁lose	-5925
release	-5926
▁willed	-5927
▁dedicated	-5928
presidentofindia	-5929
izes	-5930
▁evol	-5931
▁solution	-5932
Sh	-5933
itual	-5934
▁blessed	-5935
RE	-5936
▁Gaz	-5937
▁inval	-5938
▁contents	-5939
▁marketing	-5940
ros	-5941
anas	-5942
arya	-5943
▁Frie	-5944
▁solar	-5945
▁atmosphere	-5946
▁transaction	-5947
ourse	-5948
detail	-5949
odh	-5950
▁stars	-5951
▁attitude	-5952
▁6.	-5953
▁bul	-5954
brance	-5955
▁prime	-5956
▁motion	-5957
▁aims	-5958
▁favor	-5959
▁demonstr	-5960
▁designed	-5961
▁eligible	-5962
▁rid	-5963
ST	-5964
▁tom	-5965
▁feature	-5966
▁Files	-5967
▁thousands	-5968
▁wr	-5969
▁Kab	-5970
▁vir	-5971
▁tasks	-5972
▁finance	-5973
▁branches	-5974
▁Flag	-5975
▁psych	-5976
▁terrible	-5977
▁substance	-5978
eal	-5979
▁Jaw	-5980
▁closed	-5981
▁senior	-5982
▁Whoever	-5983
▁peoples	-5984
▁districts	-5985
▁Musa	-5986
▁ment	-5987
▁guarant	-5988
▁Hyder	-5989
▁finally	-5990
▁medicine	-5991
▁Engine	-5992
▁Regional	-5993
▁electricity	-5994
place	-5995
▁Sard	-5996
▁Judge	-5997
▁grateful	-5998
,'	-5999
▁spot	-6000
▁Middle	-6001
▁Orissa	-6002
▁Austral	-6003
▁enhance	-6004
▁Although	-6005
▁il	-6006
▁squared	-6007
▁Jag	-6008
▁prayers	-6009
▁reported	-6010
je	-6011
atre	-6012
▁Alm	-6013
▁Good	-6014
▁idol	-6015
▁blame	-6016
▁sanct	-6017
▁Christian	-6018
▁Ha	-6019
▁2008	-6020
▁wage	-6021
▁Swami	-6022
▁brows	-6023
▁Report	-6024
▁pilgrim	-6025
isis	-6026
▁strike	-6027
▁flowers	-6028
▁respective	-6029
luded	-6030
▁memo	-6031
iments	-6032
▁costs	-6033
▁launch	-6034
ga	-6035
▁SP	-6036
ette	-6037
▁brain	-6038
▁billion	-6039
▁identity	-6040
▁principal	-6041
anta	-6042
▁sweet	-6043
▁felicit	-6044
▁offices	-6045
▁Ter	-6046
▁hrs	-6047
▁2002	-6048
▁brief	-6049
▁heads	-6050
▁marry	-6051
▁configuration	-6052
lets	-6053
umin	-6054
▁Best	-6055
▁User	-6056
ica	-6057
▁font	-6058
▁turning	-6059
rome	-6060
▁fourth	-6061
▁train	-6062
▁Forest	-6063
ien	-6064
iced	-6065
▁Ara	-6066
▁Sikh	-6067
ndered	-6068
▁ritual	-6069
▁Agriculture	-6070
▁dog	-6071
▁theory	-6072
▁thereafter	-6073
▁Exe	-6074
osers	-6075
▁Close	-6076
▁discl	-6077
ansion	-6078
▁commod	-6079
▁Similar	-6080
▁whenever	-6081
▁ble	-6082
cutive	-6083
▁throw	-6084
▁ec	-6085
▁Bin	-6086
▁Choose	-6087
▁mock	-6088
▁Force	-6089
▁simpl	-6090
▁width	-6091
▁occurred	-6092
oles	-6093
▁lif	-6094
▁Rest	-6095
▁blue	-6096
▁Rural	-6097
▁links	-6098
▁committee	-6099
essor	-6100
▁fertil	-6101
▁Univers	-6102
▁advanced	-6103
acific	-6104
▁Small	-6105
▁Nature	-6106
▁forgot	-6107
▁500	-6108
▁tim	-6109
▁coast	-6110
▁Compan	-6111
EP	-6112
elve	-6113
▁categ	-6114
▁broken	-6115
▁whomever	-6116
▁temporary	-6117
ster	-6118
ranath	-6119
▁Produ	-6120
unction	-6121
▁Chinese	-6122
▁elections	-6123
FC	-6124
ladesh	-6125
▁oblig	-6126
▁adjust	-6127
▁Believers	-6128
▁processes	-6129
agh	-6130
anj	-6131
▁Muse	-6132
▁crow	-6133
▁Article	-6134
▁markets	-6135
▁penalty	-6136
▁properly	-6137
SS	-6138
aut	-6139
▁Id	-6140
▁Independence	-6141
▁gate	-6142
▁judgment	-6143
▁Adam	-6144
▁Ye	-6145
▁mad	-6146
osure	-6147
▁2016	-6148
▁Vice	-6149
▁band	-6150
▁seemed	-6151
▁analysis	-6152
yl	-6153
uta	-6154
▁upgr	-6155
▁reveal	-6156
▁arrived	-6157
pers	-6158
▁backs	-6159
▁union	-6160
▁Eastern	-6161
▁Speaker	-6162
▁creative	-6163
avid	-6164
anish	-6165
▁rout	-6166
▁Signs	-6167
▁Command	-6168
▁undertaken	-6169
▁Pay	-6170
▁comfort	-6171
▁disbelief	-6172
▁movements	-6173
.%	-6174
▁Mos	-6175
▁Sud	-6176
marks	-6177
▁curs	-6178
▁189	-6179
▁suit	-6180
▁properties	-6181
▁surre	-6182
▁absence	-6183
▁pled	-6184
▁accused	-6185
sha	-6186
wan	-6187
▁menu	-6188
▁orph	-6189
olkata	-6190
▁inhab	-6191
▁loans	-6192
▁mostly	-6193
▁informed	-6194
atio	-6195
ping	-6196
▁alt	-6197
▁pride	-6198
▁capable	-6199
▁displayed	-6200
▁functioning	-6201
akti	-6202
quiry	-6203
▁roof	-6204
▁leads	-6205
▁tomorrow	-6206
hus	-6207
cont	-6208
▁bind	-6209
▁Aware	-6210
▁poets	-6211
▁Divine	-6212
▁accompan	-6213
▁plans	-6214
▁sorrow	-6215
▁applicable	-6216
tes	-6217
▁Az	-6218
ipes	-6219
aints	-6220
▁runs	-6221
▁multi	-6222
▁Options	-6223
▁Judgment	-6224
▁environmental	-6225
yr	-6226
ola	-6227
▁sad	-6228
▁center	-6229
▁immense	-6230
king	-6231
▁2015	-6232
▁aside	-6233
▁fifty	-6234
▁Limited	-6235
▁organizations	-6236
oked	-6237
▁End	-6238
▁filter	-6239
▁expenses	-6240
pet	-6241
oring	-6242
▁zero	-6243
▁liquid	-6244
▁comment	-6245
▁Settings	-6246
30	-6247
TER	-6248
lude	-6249
▁deity	-6250
ourable	-6251
▁fulfil	-6252
▁journal	-6253
▁differences	-6254
▁temperature	-6255
onds	-6256
asant	-6257
▁Circ	-6258
▁Read	-6259
▁afflic	-6260
▁possession	-6261
ibly	-6262
iger	-6263
mary	-6264
phets	-6265
edient	-6266
▁Hyderabad	-6267
ym	-6268
ports	-6269
▁girls	-6270
raction	-6271
▁losers	-6272
▁Principal	-6273
uity	-6274
▁Awards	-6275
▁compensation	-6276
zz	-6277
▁bottom	-6278
▁employee	-6279
▁governments	-6280
stood	-6281
▁City	-6282
aviour	-6283
▁Apost	-6284
▁grieve	-6285
▁emotion	-6286
▁Institut	-6287
apa	-6288
uit	-6289
▁pu	-6290
char	-6291
▁Tele	-6292
▁horse	-6293
▁apostles	-6294
▁sustenance	-6295
pto	-6296
▁75	-6297
▁sequ	-6298
▁Subhas	-6299
▁expert	-6300
▁category	-6301
▁represents	-6302
▁.	-6303
▁fed	-6304
▁Oper	-6305
▁humanity	-6306
▁fulfilled	-6307
osite	-6308
urved	-6309
▁French	-6310
▁worlds	-6311
▁outstanding	-6312
▁El	-6313
▁sculpture	-6314
▁7.	-6315
while	-6316
criber	-6317
▁concl	-6318
▁exhib	-6319
▁Certain	-6320
gor	-6321
isher	-6322
▁Bur	-6323
ested	-6324
iated	-6325
▁simply	-6326
▁apostle	-6327
▁Inn	-6328
▁mel	-6329
plete	-6330
▁hurt	-6331
asters	-6332
▁Server	-6333
operative	-6334
▁automatically	-6335
ena	-6336
uli	-6337
▁188	-6338
▁walls	-6339
▁deeply	-6340
wered	-6341
▁Museum	-6342
▁entirely	-6343
▁decor	-6344
▁formal	-6345
▁deleted	-6346
▁extremely	-6347
▁Food	-6348
▁sor	-6349
▁illust	-6350
▁Nations	-6351
▁Ban	-6352
▁equally	-6353
▁Narendra	-6354
▁(4)	-6355
▁Tool	-6356
▁creatures	-6357
▁formation	-6358
▁commission	-6359
▁wrongdoers	-6360
▁4,	-6361
alam	-6362
▁sees	-6363
▁sexual	-6364
▁survey	-6365
▁Gan	-6366
otton	-6367
▁strive	-6368
▁belonging	-6369
▁Kor	-6370
▁Lal	-6371
▁Link	-6372
▁arbit	-6373
▁narrow	-6374
▁chargeable	-6375
▁distinguished	-6376
▁aspir	-6377
▁starting	-6378
▁allowance	-6379
▁proportion	-6380
IF	-6381
▁10,	-6382
▁flower	-6383
▁explain	-6384
▁refused	-6385
▁proposal	-6386
active	-6387
▁impart	-6388
▁offers	-6389
▁Password	-6390
▁directed	-6391
▁opposition	-6392
PC	-6393
iform	-6394
▁Support	-6395
▁Scheduled	-6396
enous	-6397
▁1999	-6398
▁owners	-6399
▁transactions	-6400
rd	-6401
▁Award	-6402
▁pregn	-6403
▁transp	-6404
▁Apostle	-6405
▁Related	-6406
▁composed	-6407
▁initiated	-6408
hel	-6409
uru	-6410
▁absor	-6411
▁Kolkata	-6412
▁architecture	-6413
{0}	-6414
▁Fa	-6415
▁Init	-6416
▁fuel	-6417
theists	-6418
▁calling	-6419
▁Soft	-6420
▁solid	-6421
▁wicked	-6422
▁Pacific	-6423
▁Association	-6424
NG	-6425
▁Dar	-6426
▁Video	-6427
▁quickly	-6428
▁Has	-6429
coming	-6430
▁Light	-6431
▁dynam	-6432
▁speaking	-6433
▁wherever	-6434
▁improvement	-6435
▁Tab	-6436
▁deed	-6437
▁digital	-6438
▁tourism	-6439
▁Mohammed	-6440
▁115	-6441
▁hom	-6442
▁Line	-6443
▁colon	-6444
▁Further	-6445
▁customer	-6446
yal	-6447
ooth	-6448
▁perce	-6449
▁towns	-6450
▁Mughal	-6451
▁believes	-6452
OM	-6453
orter	-6454
▁dealing	-6455
▁Economic	-6456
▁Lic	-6457
▁Jesus	-6458
▁Joint	-6459
▁border	-6460
▁equity	-6461
▁specify	-6462
▁prostrate	-6463
pends	-6464
▁clot	-6465
▁steel	-6466
▁Deputy	-6467
▁stones	-6468
▁update	-6469
SL	-6470
▁fought	-6471
▁Bangladesh	-6472
xic	-6473
pring	-6474
▁prove	-6475
▁twelve	-6476
▁beneath	-6477
▁Province	-6478
▁explained	-6479
▁promoting	-6480
▁cool	-6481
aration	-6482
▁sincere	-6483
▁Industry	-6484
▁admitted	-6485
▁sustainable	-6486
▁instructions	-6487
oman	-6488
▁dro	-6489
ename	-6490
▁clay	-6491
▁Trade	-6492
▁hypocrites	-6493
▁Urdu	-6494
▁theirs	-6495
▁railway	-6496
▁recited	-6497
abet	-6498
erate	-6499
iplom	-6500
▁Access	-6501
▁career	-6502
▁council	-6503
▁remaining	-6504
edia	-6505
▁Pras	-6506
▁happens	-6507
▁Mat	-6508
▁tro	-6509
▁Plug	-6510
▁shad	-6511
▁Sardar	-6512
▁befall	-6513
▁conven	-6514
▁Through	-6515
▁Schedule	-6516
▁90	-6517
▁Build	-6518
amation	-6519
▁Garden	-6520
▁tribal	-6521
▁Persian	-6522
St	-6523
▁vig	-6524
remony	-6525
▁bones	-6526
▁Jawahar	-6527
▁pension	-6528
▁Something	-6529
▁5,	-6530
▁Chen	-6531
▁race	-6532
▁tools	-6533
▁invited	-6534
▁Christians	-6535
ris	-6536
▁core	-6537
▁glory	-6538
▁soldiers	-6539
withstanding	-6540
TS	-6541
earing	-6542
▁leaving	-6543
▁Mahabhar	-6544
oes	-6545
oding	-6546
▁pane	-6547
▁Never	-6548
▁renew	-6549
urb	-6550
agers	-6551
▁scope	-6552
▁Common	-6553
▁render	-6554
▁exports	-6555
▁trouble	-6556
▁Document	-6557
▁Insurance	-6558
▁hur	-6559
▁bone	-6560
fortun	-6561
▁asking	-6562
▁rising	-6563
▁judgement	-6564
▁respectively	-6565
▁holy	-6566
▁actor	-6567
▁revenue	-6568
aud	-6569
rary	-6570
▁Tar	-6571
▁immediate	-6572
DA	-6573
that	-6574
▁Look	-6575
▁pull	-6576
▁owner	-6577
▁obtain	-6578
▁Israeli	-6579
▁writers	-6580
▁bag	-6581
▁cricket	-6582
▁Full	-6583
▁flat	-6584
▁accompl	-6585
▁satisfied	-6586
▁contributions	-6587
▁ves	-6588
▁Geor	-6589
▁Keep	-6590
▁Status	-6591
▁hat	-6592
owing	-6593
▁Unit	-6594
▁breed	-6595
▁depth	-6596
▁recite	-6597
▁recognition	-6598
HA	-6599
▁adj	-6600
▁spr	-6601
▁Babu	-6602
▁tissue	-6603
▁overall	-6604
cts	-6605
▁palm	-6606
▁stick	-6607
▁twice	-6608
▁cere	-6609
▁crisis	-6610
▁counsel	-6611
▁framework	-6612
LE	-6613
OV	-6614
▁2001	-6615
▁Noble	-6616
▁drown	-6617
▁thread	-6618
▁drinking	-6619
▁contribute	-6620
▁contemporary	-6621
roc	-6622
▁IC	-6623
aved	-6624
▁hen	-6625
▁unp	-6626
▁wear	-6627
▁offering	-6628
DU	-6629
ming	-6630
▁invalid	-6631
De	-6632
▁Shiva	-6633
▁communications	-6634
▁rect	-6635
▁drama	-6636
▁answered	-6637
▁evolution	-6638
▁Later	-6639
▁neighbour	-6640
▁facilitate	-6641
)!	-6642
oval	-6643
inder	-6644
▁spect	-6645
▁pieces	-6646
▁detailed	-6647
▁employed	-6648
▁era	-6649
▁Note	-6650
▁Take	-6651
▁labor	-6652
▁split	-6653
▁harvest	-6654
▁settlement	-6655
▁personality	-6656
IM	-6657
kan	-6658
▁Ans	-6659
▁tea	-6660
▁legs	-6661
▁depends	-6662
ads	-6663
▁Except	-6664
▁tongue	-6665
Al	-6666
▁shar	-6667
father	-6668
▁lying	-6669
▁availability	-6670
▁Rab	-6671
▁Vol	-6672
▁stayed	-6673
▁continues	-6674
▁map	-6675
Indeed	-6676
▁Member	-6677
room	-6678
▁Editor	-6679
▁couple	-6680
▁firmly	-6681
▁Disable	-6682
▁restrict	-6683
▁understood	-6684
osa	-6685
▁kn	-6686
▁ends	-6687
▁shop	-6688
▁Table	-6689
▁Madhya	-6690
▁intended	-6691
▁revelation	-6692
pes	-6693
▁wa	-6694
▁Term	-6695
▁Malay	-6696
▁chain	-6697
▁affair	-6698
▁unl	-6699
▁thick	-6700
Moses	-6701
edience	-6702
▁acknow	-6703
▁appell	-6704
▁hardly	-6705
▁desired	-6706
▁equality	-6707
▁regarded	-6708
▁Assessing	-6709
▁behaviour	-6710
▁hyd	-6711
▁News	-6712
▁desktop	-6713
▁trading	-6714
▁consumer	-6715
ushed	-6716
▁Perm	-6717
▁icon	-6718
uality	-6719
▁flood	-6720
▁shaped	-6721
▁arising	-6722
▁repeated	-6723
▁Lt	-6724
urally	-6725
▁Local	-6726
▁derived	-6727
▁preview	-6728
mic	-6729
anka	-6730
▁slight	-6731
▁charity	-6732
▁sisters	-6733
▁communal	-6734
▁judicial	-6735
▁solutions	-6736
IG	-6737
ds	-6738
▁Main	-6739
▁gift	-6740
▁conceal	-6741
▁evident	-6742
▁component	-6743
care	-6744
ruit	-6745
▁Oft	-6746
▁gall	-6747
ishment	-6748
version	-6749
▁clouds	-6750
▁computing	-6751
▁religions	-6752
▁celebrated	-6753
ded	-6754
▁sam	-6755
▁ties	-6756
▁layer	-6757
▁migr	-6758
▁alarm	-6759
▁Comput	-6760
▁Himself	-6761
▁interested	-6762
▁arrangement	-6763
riya	-6764
▁lamp	-6765
▁audit	-6766
▁seeds	-6767
ona	-6768
ayer	-6769
▁database	-6770
ulty	-6771
inter	-6772
▁eggs	-6773
▁pert	-6774
▁Innov	-6775
▁grain	-6776
▁driven	-6777
▁diverse	-6778
▁KDE	-6779
▁Sem	-6780
▁Vir	-6781
ector	-6782
▁stake	-6783
▁apparent	-6784
▁hardship	-6785
▁difficulty	-6786
▁traditions	-6787
▁acquisition	-6788
▁comprehensive	-6789
rer	-6790
gent	-6791
▁Tell	-6792
▁ease	-6793
ounded	-6794
▁alive	-6795
▁index	-6796
▁waters	-6797
▁buildings	-6798
▁intelligence	-6799
Why	-6800
garh	-6801
▁Ele	-6802
▁Upd	-6803
ensity	-6804
▁guidelines	-6805
-19	-6806
ords	-6807
▁rub	-6808
▁Priv	-6809
▁doll	-6810
▁Foundation	-6811
▁worshipped	-6812
Who	-6813
▁Run	-6814
▁crores	-6815
▁persist	-6816
▁customers	-6817
▁suggested	-6818
▁Dra	-6819
▁fet	-6820
appe	-6821
▁hun	-6822
▁Laksh	-6823
▁ships	-6824
▁servant	-6825
▁Buddhist	-6826
▁Army	-6827
▁detail	-6828
▁efficiency	-6829
▁Ja	-6830
▁185	-6831
▁sets	-6832
▁symp	-6833
▁Liter	-6834
▁Friends	-6835
▁overcome	-6836
▁disgra	-6837
▁definite	-6838
▁estimated	-6839
mun	-6840
▁Card	-6841
▁span	-6842
▁naught	-6843
▁entrust	-6844
▁strategy	-6845
▁improving	-6846
▁preferred	-6847
▁Hand	-6848
▁observe	-6849
▁collected	-6850
▁achievement	-6851
PI	-6852
▁fram	-6853
▁Green	-6854
▁radio	-6855
▁budget	-6856
▁discussed	-6857
▁enjoyment	-6858
ocks	-6859
▁Academ	-6860
▁numerous	-6861
▁hit	-6862
▁pit	-6863
▁Gold	-6864
▁Being	-6865
▁Comment	-6866
▁fix	-6867
▁exch	-6868
▁onto	-6869
▁Allow	-6870
▁hills	-6871
▁begins	-6872
▁victim	-6873
▁repentance	-6874
On	-6875
arh	-6876
iel	-6877
iche	-6878
▁Due	-6879
▁dan	-6880
rahim	-6881
▁2012	-6882
▁advised	-6883
▁judges	-6884
▁Test	-6885
▁busy	-6886
▁facing	-6887
▁Palestinian	-6888
▁grew	-6889
▁filed	-6890
▁roads	-6891
▁forests	-6892
iri	-6893
▁floor	-6894
▁Houses	-6895
▁Window	-6896
esterday	-6897
▁expansion	-6898
▁Lot	-6899
▁outer	-6900
▁spite	-6901
▁proclaim	-6902
▁recognized	-6903
▁consumption	-6904
book	-6905
▁Lat	-6906
▁Rece	-6907
▁aband	-6908
▁deliber	-6909
ums	-6910
what	-6911
▁Jain	-6912
▁incorpor	-6913
▁allot	-6914
▁Pandit	-6915
▁Windows	-6916
▁integrated	-6917
iliar	-6918
▁Spec	-6919
▁permitted	-6920
▁considerable	-6921
UM	-6922
lo	-6923
▁36	-6924
▁Ask	-6925
▁rot	-6926
▁Size	-6927
▁eval	-6928
▁lect	-6929
▁Annual	-6930
▁linked	-6931
▁Count	-6932
▁masses	-6933
▁millions	-6934
▁impossible	-6935
irs	-6936
opal	-6937
▁vit	-6938
▁flight	-6939
▁imperial	-6940
▁improved	-6941
▁telephone	-6942
▁investments	-6943
▁Bra	-6944
▁2017	-6945
▁embra	-6946
▁highlight	-6947
▁inspiration	-6948
oli	-6949
▁202	-6950
tical	-6951
▁pious	-6952
ny	-6953
▁Bet	-6954
▁Commer	-6955
▁Pad	-6956
▁Tham	-6957
▁Germany	-6958
▁housing	-6959
nan	-6960
▁Deb	-6961
▁phen	-6962
inance	-6963
▁Chait	-6964
inating	-6965
▁felicitations	-6966
▁Ce	-6967
time	-6968
▁David	-6969
welling	-6970
▁decree	-6971
▁stages	-6972
▁meetings	-6973
▁Afghanistan	-6974
▁La	-6975
▁Dal	-6976
pelled	-6977
▁amalg	-6978
ificial	-6979
▁offence	-6980
.2014	-6981
entle	-6982
▁observ	-6983
▁spoken	-6984
▁Accounts	-6985
▁identify	-6986
▁Committees	-6987
▁'.	-6988
mits	-6989
▁buff	-6990
▁pick	-6991
▁agent	-6992
▁curse	-6993
▁Energy	-6994
▁Global	-6995
▁deposits	-6996
▁regulations	-6997
▁aggreg	-6998
▁vessel	-6999
▁yellow	-7000
▁mailing	-7001
▁commence	-7002
▁completion	-7003
▁reasonable	-7004
ota	-7005
▁45	-7006
atar	-7007
▁Get	-7008
▁raw	-7009
ashing	-7010
▁Earth	-7011
▁toler	-7012
▁talking	-7013
▁worldly	-7014
▁Dig	-7015
▁Road	-7016
▁shel	-7017
▁prohib	-7018
▁Tourism	-7019
▁Similarly	-7020
▁excellence	-7021
anga	-7022
▁Jay	-7023
▁Left	-7024
▁harmony	-7025
▁emphasis	-7026
▁guardian	-7027
▁steadfast	-7028
ION	-7029
▁Asian	-7030
▁armed	-7031
▁criminal	-7032
▁Saty	-7033
▁surg	-7034
▁adorn	-7035
▁acting	-7036
▁willing	-7037
▁incurred	-7038
asw	-7039
och	-7040
▁street	-7041
▁disobey	-7042
▁empower	-7043
▁discharge	-7044
▁attachment	-7045
As	-7046
DR	-7047
pens	-7048
▁Gupta	-7049
▁breath	-7050
▁farmer	-7051
▁Kingdom	-7052
▁describ	-7053
▁Whatever	-7054
▁via	-7055
icent	-7056
▁thor	-7057
▁Email	-7058
▁Credit	-7059
▁encomp	-7060
▁edge	-7061
▁mirac	-7062
jection	-7063
justice	-7064
▁helper	-7065
Be	-7066
eer	-7067
life	-7068
▁idols	-7069
▁Master	-7070
▁rebell	-7071
▁quantity	-7072
otes	-7073
▁Gree	-7074
iciary	-7075
▁noble	-7076
▁continuous	-7077
▁organisations	-7078
1}	-7079
utt	-7080
izer	-7081
▁ratio	-7082
▁Follow	-7083
▁warned	-7084
▁demands	-7085
▁respite	-7086
▁faithless	-7087
▁remembrance	-7088
▁Appe	-7089
▁Temple	-7090
ographical	-7091
▁signature	-7092
AGE	-7093
▁bh	-7094
anath	-7095
▁mixed	-7096
▁reprodu	-7097
▁constructed	-7098
▁representative	-7099
▁Rev	-7100
▁zone	-7101
▁stored	-7102
▁distributed	-7103
▁conservation	-7104
OME	-7105
▁Tor	-7106
▁Phot	-7107
▁Ambed	-7108
▁propag	-7109
▁rulers	-7110
▁liberal	-7111
▁Jawaharlal	-7112
▁mov	-7113
▁Police	-7114
▁starts	-7115
orous	-7116
vation	-7117
▁stamp	-7118
▁Ambedkar	-7119
EG	-7120
▁du	-7121
icipal	-7122
▁violent	-7123
▁irrigation	-7124
▁remarkable	-7125
▁whomsoever	-7126
umes	-7127
▁Equ	-7128
▁Mac	-7129
▁goals	-7130
▁allows	-7131
▁Capital	-7132
▁touched	-7133
▁appearance	-7134
aks	-7135
ected	-7136
ureau	-7137
▁marks	-7138
▁electronic	-7139
▁Fed	-7140
▁crime	-7141
▁encry	-7142
▁sites	-7143
▁eastern	-7144
▁complaint	-7145
▁encompass	-7146
▁satisfaction	-7147
ued	-7148
asty	-7149
etary	-7150
essions	-7151
▁prepare	-7152
▁interface	-7153
▁33	-7154
▁valley	-7155
▁Cabinet	-7156
▁pointed	-7157
▁Knowledge	-7158
itya	-7159
odal	-7160
ranch	-7161
▁Land	-7162
▁baby	-7163
▁impr	-7164
▁meat	-7165
▁defin	-7166
▁Integr	-7167
▁Manager	-7168
▁productivity	-7169
ikh	-7170
yas	-7171
▁vacc	-7172
▁involve	-7173
▁Himachal	-7174
▁sed	-7175
▁hast	-7176
▁scen	-7177
▁college	-7178
otal	-7179
▁Sab	-7180
▁sav	-7181
▁dawn	-7182
▁ensuring	-7183
▁securities	-7184
▁doom	-7185
▁Online	-7186
▁disabled	-7187
▁notified	-7188
▁personnel	-7189
▁clust	-7190
▁struck	-7191
▁Bharati	-7192
▁paramet	-7193
▁superior	-7194
▁recognize	-7195
▁difficulties	-7196
▁transmission	-7197
▁Jh	-7198
aren	-7199
▁tot	-7200
▁van	-7201
uddin	-7202
▁Banks	-7203
▁Companies	-7204
”;	-7205
▁rou	-7206
▁Ibrahim	-7207
▁External	-7208
imony	-7209
▁Farm	-7210
▁camel	-7211
▁spring	-7212
▁tender	-7213
▁Panchay	-7214
▁convert	-7215
▁windows	-7216
▁determination	-7217
▁silver	-7218
▁Amendment	-7219
▁requested	-7220
▁categories	-7221
▁competition	-7222
rum	-7223
▁fulfill	-7224
▁Agricultural	-7225
▁interpretation	-7226
▁tag	-7227
▁Democ	-7228
▁falls	-7229
▁virtue	-7230
▁Subject	-7231
▁theatre	-7232
▁Calendar	-7233
▁corporate	-7234
▁relatives	-7235
▁directions	-7236
▁finds	-7237
▁universe	-7238
CH	-7239
emic	-7240
▁elim	-7241
▁jobs	-7242
▁Ahmed	-7243
▁aught	-7244
▁enact	-7245
▁verse	-7246
▁Lad	-7247
▁1956	-7248
ounter	-7249
▁ocean	-7250
▁affection	-7251
▁discussions	-7252
.“	-7253
▁Od	-7254
▁cried	-7255
▁herself	-7256
▁planned	-7257
▁participate	-7258
aron	-7259
▁bat	-7260
izontal	-7261
▁Territ	-7262
▁trained	-7263
▁writings	-7264
▁diversity	-7265
▁injustice	-7266
▁mechanism	-7267
▁acid	-7268
▁jail	-7269
▁Level	-7270
▁metal	-7271
▁Source	-7272
▁degrees	-7273
▁strengthening	-7274
how	-7275
▁Amb	-7276
▁Cop	-7277
▁bug	-7278
organ	-7279
▁Guard	-7280
▁Vedic	-7281
▁haply	-7282
▁founded	-7283
▁executive	-7284
▁voluntary	-7285
▁convention	-7286
▁Dom	-7287
▁Tog	-7288
▁sympt	-7289
▁Filter	-7290
▁divers	-7291
YS	-7292
enn	-7293
▁Fac	-7294
their	-7295
▁pair	-7296
▁upto	-7297
▁occurs	-7298
▁realize	-7299
▁enterprise	-7300
ima	-7301
▁Chenn	-7302
▁usual	-7303
▁chapter	-7304
▁Ang	-7305
ether	-7306
▁White	-7307
▁Spirit	-7308
▁Software	-7309
▁accommod	-7310
▁vegetables	-7311
▁righteousness	-7312
?'	-7313
▁None	-7314
▁palace	-7315
▁addresses	-7316
usal	-7317
icted	-7318
▁HTML	-7319
▁abst	-7320
▁grat	-7321
▁Peace	-7322
▁Prasad	-7323
▁suffered	-7324
▁gradually	-7325
▁infection	-7326
▁intention	-7327
ALL	-7328
▁Cell	-7329
▁breasts	-7330
▁courses	-7331
▁employer	-7332
They	-7333
aked	-7334
anks	-7335
illa	-7336
bered	-7337
▁cart	-7338
▁vain	-7339
▁Super	-7340
▁claimed	-7341
’.	-7342
olic	-7343
iques	-7344
▁Vers	-7345
▁offs	-7346
▁draft	-7347
▁older	-7348
▁socio	-7349
▁ordered	-7350
▁liability	-7351
▁practical	-7352
▁prominent	-7353
DP	-7354
OU	-7355
AND	-7356
▁UT	-7357
wers	-7358
▁Screen	-7359
▁coc	-7360
rance	-7361
▁park	-7362
▁owned	-7363
▁condem	-7364
▁corner	-7365
▁equals	-7366
▁saving	-7367
▁devoted	-7368
▁Parliamentary	-7369
▁10.	-7370
▁Vij	-7371
▁Four	-7372
▁alle	-7373
cession	-7374
▁differ	-7375
▁domain	-7376
▁invent	-7377
▁Ramayana	-7378
▁8.	-7379
▁Way	-7380
▁Cond	-7381
▁silk	-7382
urated	-7383
▁needy	-7384
▁removal	-7385
▁achievements	-7386
bles	-7387
▁Var	-7388
rease	-7389
▁Raja	-7390
▁pard	-7391
▁Madras	-7392
▁greatly	-7393
▁duration	-7394
Pe	-7395
atell	-7396
chron	-7397
house	-7398
▁subt	-7399
▁panel	-7400
▁widely	-7401
▁Ayurved	-7402
▁departments	-7403
aze	-7404
▁rhy	-7405
▁Apart	-7406
ulatory	-7407
▁Exalted	-7408
▁anniversary	-7409
▁2011	-7410
▁axis	-7411
▁stopped	-7412
▁effectively	-7413
▁Wid	-7414
▁Guid	-7415
▁resc	-7416
▁accum	-7417
▁eternal	-7418
▁distress	-7419
▁Australia	-7420
▁increases	-7421
▁acceptance	-7422
”,	-7423
part	-7424
▁URI	-7425
▁nurs	-7426
▁quiet	-7427
▁equival	-7428
▁resolve	-7429
▁elephant	-7430
▁arrangements	-7431
▁cos	-7432
▁ran	-7433
▁sev	-7434
ounds	-7435
▁Mode	-7436
▁liars	-7437
▁approx	-7438
inations	-7439
▁awarded	-7440
▁inhabit	-7441
obe	-7442
lines	-7443
aching	-7444
▁advoc	-7445
▁wholly	-7446
▁accurate	-7447
▁attended	-7448
▁contributed	-7449
▁significance	-7450
unc	-7451
▁Eff	-7452
▁York	-7453
▁boys	-7454
orders	-7455
istries	-7456
▁devices	-7457
da	-7458
yn	-7459
ker	-7460
▁70	-7461
▁Mir	-7462
▁sake	-7463
▁plaint	-7464
▁printed	-7465
▁streams	-7466
▁assembly	-7467
▁programs	-7468
▁forwarded	-7469
chief	-7470
▁bell	-7471
▁glass	-7472
▁beside	-7473
▁papers	-7474
▁southern	-7475
jan	-7476
▁300	-7477
▁humble	-7478
▁Exp	-7479
▁Lah	-7480
▁NPS	-7481
▁lev	-7482
▁nom	-7483
▁Task	-7484
▁yours	-7485
▁disappe	-7486
▁recommendations	-7487
END	-7488
bind	-7489
▁viz	-7490
▁2004	-7491
iously	-7492
▁Const	-7493
▁Mercy	-7494
▁flesh	-7495
▁forty	-7496
▁innoc	-7497
▁claims	-7498
▁drawing	-7499
▁pillars	-7500
▁specially	-7501
)."	-7502
inces	-7503
▁2003	-7504
▁faculty	-7505
▁subjected	-7506
▁controlled	-7507
IME	-7508
▁-,	-7509
asures	-7510
ronics	-7511
▁delic	-7512
▁Details	-7513
▁Perhaps	-7514
upon	-7515
▁Mor	-7516
▁myth	-7517
▁Audio	-7518
▁weapons	-7519
▁ignorance	-7520
▁investors	-7521
▁partition	-7522
ua	-7523
off	-7524
urse	-7525
▁eve	-7526
▁Russia	-7527
▁sovere	-7528
▁determine	-7529
▁receiving	-7530
▁fly	-7531
▁shrine	-7532
▁recovery	-7533
▁terrorist	-7534
14	-7535
rounds	-7536
reement	-7537
▁License	-7538
bre	-7539
▁AN	-7540
▁deaf	-7541
▁scene	-7542
▁usage	-7543
▁components	-7544
OT	-7545
▁Luc	-7546
▁Tir	-7547
▁Lanka	-7548
▁illeg	-7549
▁accompanied	-7550
▁Universities	-7551
▁kings	-7552
▁covers	-7553
▁strange	-7554
▁sentence	-7555
acc	-7556
▁IM	-7557
▁Kam	-7558
▁Bhut	-7559
▁ungr	-7560
▁permiss	-7561
▁phenomen	-7562
Ad	-7563
umph	-7564
▁Far	-7565
tched	-7566
lihood	-7567
▁educated	-7568
▁companions	-7569
zy	-7570
▁bridge	-7571
▁unseen	-7572
▁package	-7573
▁ceremony	-7574
▁Chaitanya	-7575
▁producing	-7576
▁admonition	-7577
▁monitoring	-7578
▁MSME	-7579
▁Binoy	-7580
gorithm	-7581
▁danger	-7582
▁2009	-7583
▁stress	-7584
▁Connect	-7585
▁deities	-7586
▁Location	-7587
▁structures	-7588
▁nav	-7589
peror	-7590
▁fasc	-7591
▁Major	-7592
▁cloth	-7593
▁Action	-7594
▁profile	-7595
▁ego	-7596
▁www	-7597
allel	-7598
aming	-7599
▁Ever	-7600
attered	-7601
▁bacter	-7602
▁familiar	-7603
▁strategic	-7604
▁Wik	-7605
▁lege	-7606
▁aggress	-7607
▁187	-7608
▁clar	-7609
▁urge	-7610
▁cotton	-7611
▁indirect	-7612
medi	-7613
wing	-7614
▁browser	-7615
down	-7616
long	-7617
▁bears	-7618
▁player	-7619
▁prefer	-7620
▁Executive	-7621
▁mak	-7622
pping	-7623
▁Orig	-7624
▁enforce	-7625
▁Download	-7626
▁infinite	-7627
▁Certainly	-7628
▁reckoning	-7629
▁substantial	-7630
oram	-7631
azing	-7632
isted	-7633
▁acce	-7634
▁classical	-7635
icket	-7636
▁exem	-7637
▁myst	-7638
▁salt	-7639
▁fluid	-7640
▁proxy	-7641
▁seeks	-7642
▁worst	-7643
▁wrath	-7644
ailable	-7645
▁creates	-7646
▁testimony	-7647
▁encouraged	-7648
het	-7649
▁Hence	-7650
▁Rights	-7651
▁permit	-7652
▁retrie	-7653
▁musical	-7654
▁prophet	-7655
▁realise	-7656
▁dwelling	-7657
itra	-7658
leum	-7659
▁Burn	-7660
▁chair	-7661
▁ended	-7662
▁League	-7663
▁diplom	-7664
▁publish	-7665
▁valuable	-7666
▁discipline	-7667
HER	-7668
▁Short	-7669
▁adopt	-7670
▁cup	-7671
.2016	-7672
There	-7673
arest	-7674
▁bull	-7675
▁tear	-7676
▁Sector	-7677
▁eminent	-7678
▁imagine	-7679
▁prevail	-7680
▁sharing	-7681
▁tremend	-7682
▁ignorant	-7683
▁internet	-7684
▁subsequent	-7685
▁34	-7686
▁Bo	-7687
gage	-7688
iable	-7689
▁Shiv	-7690
▁node	-7691
akrish	-7692
ashion	-7693
▁oaths	-7694
ository	-7695
▁Install	-7696
▁Sin	-7697
▁pron	-7698
▁vide	-7699
▁lessons	-7700
▁testing	-7701
▁innovative	-7702
▁distinction	-7703
▁Center	-7704
▁Medical	-7705
▁arranged	-7706
▁northern	-7707
▁resulting	-7708
ham	-7709
lin	-7710
liest	-7711
▁Koran	-7712
▁lesson	-7713
▁biggest	-7714
▁despite	-7715
▁constitu	-7716
▁normally	-7717
ECH	-7718
ITY	-7719
▁Person	-7720
▁Forward	-7721
▁director	-7722
▁authorised	-7723
▁respondent	-7724
thi	-7725
alore	-7726
ounce	-7727
▁vary	-7728
▁Somet	-7729
expected	-7730
▁quarter	-7731
▁Selection	-7732
▁alternative	-7733
lex	-7734
pat	-7735
▁Da	-7736
When	-7737
ding	-7738
▁Value	-7739
▁faced	-7740
▁mothers	-7741
TIONAL	-7742
▁client	-7743
▁emerging	-7744
▁representatives	-7745
▁Cle	-7746
worthy	-7747
▁debate	-7748
operation	-7749
▁collaboration	-7750
ria	-7751
▁(6	-7752
▁slaves	-7753
▁constantly	-7754
▁combination	-7755
EF	-7756
bl	-7757
▁NAB	-7758
▁bath	-7759
▁narr	-7760
idences	-7761
▁falling	-7762
▁knoweth	-7763
▁carefully	-7764
▁bomb	-7765
▁dreams	-7766
Laughter	-7767
artments	-7768
▁exactly	-7769
▁killing	-7770
▁entrusted	-7771
▁submission	-7772
▁Legislature	-7773
▁Fe	-7774
▁Prot	-7775
▁Said	-7776
▁Nagar	-7777
▁patri	-7778
▁listed	-7779
▁finding	-7780
▁qualities	-7781
▁legislation	-7782
za	-7783
.2015	-7784
▁Vidy	-7785
▁compuls	-7786
▁presentation	-7787
80	-7788
▁Ek	-7789
eper	-7790
▁Ary	-7791
▁Tal	-7792
▁mun	-7793
amber	-7794
▁midst	-7795
▁minute	-7796
▁Officers	-7797
▁historic	-7798
▁painting	-7799
▁competent	-7800
▁wed	-7801
angle	-7802
being	-7803
▁airc	-7804
▁ring	-7805
▁unaw	-7806
▁cards	-7807
▁loves	-7808
▁Manipur	-7809
▁cultivation	-7810
▁Ltd	-7811
▁Rah	-7812
acing	-7813
▁beat	-7814
▁snow	-7815
▁Again	-7816
pection	-7817
▁humili	-7818
▁reader	-7819
▁missing	-7820
▁pictures	-7821
▁ungrateful	-7822
▁IIT	-7823
▁Sen	-7824
▁Hide	-7825
▁tube	-7826
roleum	-7827
▁flour	-7828
▁solve	-7829
▁terminal	-7830
Re	-7831
':%	-7832
rers	-7833
▁diam	-7834
encing	-7835
▁sales	-7836
▁decade	-7837
▁forced	-7838
▁injury	-7839
▁closely	-7840
▁discrim	-7841
▁arrogant	-7842
▁imprison	-7843
▁reaching	-7844
ela	-7845
itud	-7846
omon	-7847
▁Taj	-7848
▁advis	-7849
▁cycle	-7850
▁weakness	-7851
▁preparation	-7852
▁congratulate	-7853
▁transformation	-7854
Os	-7855
▁gradu	-7856
▁hence	-7857
▁France	-7858
▁engage	-7859
▁mandapa	-7860
▁disgrace	-7861
UG	-7862
husi	-7863
▁Kir	-7864
▁merg	-7865
ipping	-7866
▁worse	-7867
lasting	-7868
▁poetic	-7869
▁goddess	-7870
▁helping	-7871
▁sinners	-7872
▁Japanese	-7873
▁Maharaja	-7874
▁commands	-7875
▁sensitive	-7876
▁represented	-7877
oso	-7878
▁anx	-7879
▁Sund	-7880
▁grief	-7881
▁sports	-7882
ador	-7883
▁Does	-7884
▁motor	-7885
▁Plugin	-7886
▁eating	-7887
entation	-7888
▁females	-7889
▁raising	-7890
▁reserve	-7891
▁triumph	-7892
▁authentication	-7893
fl	-7894
▁150	-7895
utory	-7896
▁dealt	-7897
▁Courts	-7898
▁arguments	-7899
wal	-7900
▁divor	-7901
▁finger	-7902
▁vehicle	-7903
▁technique	-7904
)]	-7905
olt	-7906
▁44	-7907
▁je	-7908
▁Ach	-7909
▁pig	-7910
▁alike	-7911
▁wages	-7912
▁declare	-7913
▁traffic	-7914
▁ordained	-7915
▁technological	-7916
rut	-7917
▁Durg	-7918
orters	-7919
▁anger	-7920
▁roots	-7921
▁resort	-7922
▁Template	-7923
▁entrepreneur	-7924
asy	-7925
▁Abd	-7926
alaya	-7927
▁diet	-7928
▁rose	-7929
▁Object	-7930
▁carbon	-7931
▁ending	-7932
▁signal	-7933
▁enthusi	-7934
▁opposite	-7935
▁regularly	-7936
uv	-7937
tha	-7938
pent	-7939
▁strict	-7940
▁Working	-7941
▁largely	-7942
▁Interest	-7943
▁livelihood	-7944
▁requirement	-7945
▁kg	-7946
achi	-7947
▁Order	-7948
▁chrom	-7949
▁flowing	-7950
▁studied	-7951
▁offspring	-7952
▁proposals	-7953
▁indigenous	-7954
▁consequences	-7955
xts	-7956
▁12.	-7957
▁kid	-7958
▁inev	-7959
▁hosts	-7960
▁seats	-7961
▁slave	-7962
▁Britain	-7963
▁Railway	-7964
▁pleases	-7965
▁inserted	-7966
jud	-7967
▁02	-7968
araj	-7969
▁kne	-7970
▁mine	-7971
▁deriv	-7972
▁Vaishn	-7973
▁invoke	-7974
mentation	-7975
▁concerns	-7976
▁reaction	-7977
▁subscribe	-7978
▁Industries	-7979
▁experiences	-7980
▁constitutional	-7981
pad	-7982
▁Sita	-7983
▁keen	-7984
▁scar	-7985
▁tourist	-7986
▁execution	-7987
▁instruction	-7988
iya	-7989
▁ben	-7990
▁wat	-7991
▁Font	-7992
▁NABARD	-7993
▁advert	-7994
▁fearing	-7995
▁imposed	-7996
▁generated	-7997
igned	-7998
▁Miss	-7999
▁keys	-8000
App	-8001
usuf	-8002
▁closer	-8003
▁prince	-8004
iculture	-8005
▁passion	-8006
▁uniform	-8007
▁conferred	-8008
PA	-8009
SA	-8010
ashi	-8011
cles	-8012
India	-8013
▁Resp	-8014
▁admin	-8015
▁royal	-8016
▁worthy	-8017
▁bearing	-8018
▁commencement	-8019
ema	-8020
endra	-8021
power	-8022
▁bats	-8023
▁sixt	-8024
▁entity	-8025
▁contrary	-8026
▁yesterday	-8027
▁consisting	-8028
Go	-8029
▁depri	-8030
▁Majesty	-8031
▁finished	-8032
CD	-8033
mal	-8034
iary	-8035
ller	-8036
▁Fam	-8037
▁Exam	-8038
▁Supp	-8039
▁route	-8040
▁wings	-8041
▁learnt	-8042
▁complic	-8043
▁civilization	-8044
akk	-8045
▁od	-8046
rors	-8047
▁rom	-8048
ifted	-8049
▁chose	-8050
▁deals	-8051
▁announce	-8052
▁oriented	-8053
adur	-8054
▁pix	-8055
elfare	-8056
▁careful	-8057
▁Sometimes	-8058
Ch	-8059
ille	-8060
rase	-8061
▁Nic	-8062
▁Yoj	-8063
▁shame	-8064
▁tribes	-8065
▁PRAN	-8066
irement	-8067
▁defeat	-8068
▁wished	-8069
▁farming	-8070
▁managed	-8071
▁Resource	-8072
▁tremendous	-8073
ogue	-8074
▁CRA	-8075
▁Auto	-8076
▁Viet	-8077
▁synt	-8078
▁wheat	-8079
▁manage	-8080
ordinate	-8081
▁feeding	-8082
ictionary	-8083
▁Additional	-8084
▁DAY	-8085
▁Five	-8086
▁Chrome	-8087
▁Empire	-8088
▁nutrit	-8089
▁drowned	-8090
▁enlight	-8091
criptions	-8092
▁Properties	-8093
▁introduction	-8094
oul	-8095
▁Faith	-8096
▁react	-8097
connect	-8098
▁Hearing	-8099
▁attacks	-8100
▁representation	-8101
PP	-8102
nda	-8103
▁mob	-8104
▁2019	-8105
▁Gita	-8106
▁lady	-8107
▁Quest	-8108
▁broke	-8109
▁Labour	-8110
secution	-8111
▁emerged	-8112
▁equivalent	-8113
▁Aj	-8114
▁Br	-8115
ogen	-8116
▁aimed	-8117
▁liable	-8118
▁visual	-8119
▁Welfare	-8120
▁feelings	-8121
▁realised	-8122
▁succeeded	-8123
DI	-8124
rupt	-8125
▁lakhs	-8126
▁loose	-8127
▁Gazette	-8128
▁amounts	-8129
▁venture	-8130
▁investig	-8131
▁mischief	-8132
▁consequence	-8133
cure	-8134
▁Holy	-8135
▁quit	-8136
utation	-8137
▁German	-8138
▁elabor	-8139
▁customs	-8140
▁techniques	-8141
His	-8142
▁Siva	-8143
▁shell	-8144
▁throne	-8145
▁fashion	-8146
▁criticism	-8147
▁participants	-8148
nty	-8149
▁Hor	-8150
▁Money	-8151
▁George	-8152
▁salary	-8153
▁Mahabharata	-8154
▁essentially	-8155
ugu	-8156
atri	-8157
▁abn	-8158
▁woe	-8159
▁chest	-8160
▁dress	-8161
▁teeth	-8162
▁ruling	-8163
▁supporting	-8164
▁corresponding	-8165
amboo	-8166
▁alter	-8167
▁carved	-8168
▁Marathi	-8169
▁favours	-8170
heb	-8171
▁”“	-8172
wood	-8173
your	-8174
arita	-8175
izers	-8176
vance	-8177
▁monu	-8178
▁cease	-8179
▁envis	-8180
▁Turkey	-8181
▁printer	-8182
▁modified	-8183
▁supposed	-8184
16	-8185
pa	-8186
vals	-8187
▁dignity	-8188
▁commonly	-8189
▁earliest	-8190
▁strengthened	-8191
-2	-8192
▁Sac	-8193
▁gross	-8194
otheism	-8195
▁Governance	-8196
▁Engineering	-8197
DUCT	-8198
NAME	-8199
▁Phys	-8200
▁alleg	-8201
▁Scient	-8202
▁Chennai	-8203
▁seconds	-8204
▁prospect	-8205
▁happening	-8206
▁calculated	-8207
▁healthcare	-8208
urch	-8209
▁sheep	-8210
▁defect	-8211
▁pledge	-8212
▁united	-8213
▁causing	-8214
▁Protection	-8215
▁operational	-8216
ensus	-8217
▁dread	-8218
oresaid	-8219
▁Thamud	-8220
▁invite	-8221
▁prompt	-8222
▁Nothing	-8223
▁opposed	-8224
▁rightly	-8225
▁Configure	-8226
ATE	-8227
ilal	-8228
urit	-8229
▁orn	-8230
▁Gora	-8231
▁Books	-8232
▁Mohan	-8233
▁sheet	-8234
▁topic	-8235
▁Defence	-8236
▁fifteen	-8237
▁Hinduism	-8238
▁symptoms	-8239
▁converted	-8240
IB	-8241
cers	-8242
onym	-8243
eries	-8244
inals	-8245
▁Vive	-8246
▁overse	-8247
ographic	-8248
▁aforesaid	-8249
HT	-8250
ba	-8251
▁Cy	-8252
▁enl	-8253
lor	-8254
▁{1}	-8255
ariat	-8256
chant	-8257
▁encl	-8258
▁bread	-8259
▁ideals	-8260
▁Minimum	-8261
▁mix	-8262
▁Indo	-8263
▁NAME	-8264
▁vent	-8265
▁Black	-8266
▁catch	-8267
▁repay	-8268
▁Proced	-8269
▁clothes	-8270
including	-8271
▁consumers	-8272
▁9.	-8273
▁ISO	-8274
▁tub	-8275
▁vote	-8276
▁clubs	-8277
▁fears	-8278
▁laugh	-8279
▁atomic	-8280
▁telling	-8281
▁printing	-8282
▁secondary	-8283
▁—	-8284
HAR	-8285
▁Lib	-8286
▁incent	-8287
▁Pension	-8288
▁extract	-8289
▁companion	-8290
▁endeavour	-8291
▁conclusion	-8292
▁statements	-8293
CS	-8294
DF	-8295
▁Thy	-8296
▁Yusuf	-8297
▁exalted	-8298
▁dependent	-8299
▁entertain	-8300
▁performing	-8301
iso	-8302
yer	-8303
▁48	-8304
▁CS	-8305
hesis	-8306
▁Kann	-8307
▁poison	-8308
▁deceased	-8309
▁protected	-8310
▁recommended	-8311
▁Job	-8312
ignty	-8313
▁isol	-8314
▁honor	-8315
picious	-8316
▁cancer	-8317
▁caught	-8318
ificates	-8319
▁consent	-8320
▁rapidly	-8321
▁backward	-8322
▁amendment	-8323
▁witnessed	-8324
PRO	-8325
▁lord	-8326
▁Mahal	-8327
▁fever	-8328
▁lands	-8329
▁noise	-8330
▁pairs	-8331
▁belied	-8332
▁intense	-8333
ultaneous	-8334
▁Messages	-8335
▁possessed	-8336
▁/%	-8337
▁Hall	-8338
▁disse	-8339
adation	-8340
ilation	-8341
▁Throne	-8342
▁Meeting	-8343
▁integrity	-8344
etan	-8345
again	-8346
▁boat	-8347
▁seat	-8348
▁stim	-8349
ferent	-8350
▁Relig	-8351
▁secre	-8352
▁grievous	-8353
▁discovered	-8354
▁inhabitants	-8355
▁maintaining	-8356
roat	-8357
▁11.	-8358
▁Sea	-8359
▁flo	-8360
▁Encry	-8361
▁diagn	-8362
▁Bhutan	-8363
▁Punjabi	-8364
▁decreed	-8365
▁restore	-8366
▁patients	-8367
▁stations	-8368
ih	-8369
key	-8370
▁37	-8371
▁Whoso	-8372
▁bonds	-8373
▁stuff	-8374
▁passage	-8375
▁periods	-8376
▁Selected	-8377
▁involving	-8378
▁Dw	-8379
itors	-8380
▁wing	-8381
▁pipes	-8382
▁negoti	-8383
▁paying	-8384
▁secular	-8385
▁disputes	-8386
▁produces	-8387
▁percentage	-8388
2)	-8389
oty	-8390
▁6,	-8391
reet	-8392
ipher	-8393
liness	-8394
▁Solar	-8395
▁decline	-8396
▁preserve	-8397
▁questioned	-8398
CO	-8399
isha	-8400
this	-8401
▁Anj	-8402
▁Fir	-8403
▁pup	-8404
▁vim	-8405
pless	-8406
▁clim	-8407
▁Three	-8408
▁Contin	-8409
▁festiv	-8410
▁humans	-8411
▁illness	-8412
▁Previous	-8413
▁Standard	-8414
▁circular	-8415
▁describe	-8416
▁Professor	-8417
▁implementing	-8418
rin	-8419
▁Cam	-8420
▁flex	-8421
▁rough	-8422
▁involves	-8423
▁procedures	-8424
▁''	-8425
▁Que	-8426
▁Sant	-8427
▁Soon	-8428
▁bills	-8429
▁bliss	-8430
▁ruler	-8431
▁devote	-8432
▁putting	-8433
▁Investment	-8434
▁interaction	-8435
▁parliamentary	-8436
▁Attach	-8437
ibraries	-8438
▁impress	-8439
▁totally	-8440
▁Projects	-8441
▁ultimate	-8442
▁varieties	-8443
▁declaration	-8444
ste	-8445
ques	-8446
utch	-8447
itals	-8448
▁fate	-8449
▁Space	-8450
▁analy	-8451
▁carries	-8452
▁inclusive	-8453
▁newspaper	-8454
▁possibility	-8455
sp	-8456
Then	-8457
asks	-8458
▁cas	-8459
▁2010	-8460
▁keeps	-8461
▁paras	-8462
▁ranks	-8463
▁insert	-8464
▁separated	-8465
▁collective	-8466
▁influenced	-8467
atra	-8468
▁dyn	-8469
arency	-8470
▁serving	-8471
▁rendered	-8472
▁Allahabad	-8473
▁reduction	-8474
▁consultation	-8475
▁genu	-8476
▁tail	-8477
▁Transl	-8478
▁condol	-8479
▁talent	-8480
▁discover	-8481
▁naturally	-8482
▁Innovation	-8483
▁constitute	-8484
▁enterprises	-8485
▁empire	-8486
▁Quality	-8487
iam	-8488
▁88	-8489
lend	-8490
roph	-8491
▁thin	-8492
▁GNOME	-8493
▁adding	-8494
▁readers	-8495
xx	-8496
bits	-8497
▁marg	-8498
▁Leave	-8499
▁Place	-8500
▁arise	-8501
▁lasting	-8502
▁Islamist	-8503
▁privilege	-8504
▁surrender	-8505
▁polytheists	-8506
IST	-8507
dev	-8508
oub	-8509
▁ash	-8510
▁Pack	-8511
▁Arabs	-8512
▁elder	-8513
▁grave	-8514
▁stray	-8515
▁kilomet	-8516
▁unaware	-8517
▁attained	-8518
▁celebrate	-8519
Se	-8520
mp	-8521
gue	-8522
onts	-8523
ipped	-8524
osity	-8525
▁Give	-8526
▁boost	-8527
▁disapp	-8528
▁seated	-8529
▁sequence	-8530
▁ministers	-8531
ECT	-8532
▁Field	-8533
igration	-8534
▁mistake	-8535
▁achieving	-8536
▁childhood	-8537
▁Monotheism	-8538
AO	-8539
▁8,	-8540
▁Ir	-8541
▁LD	-8542
asis	-8543
▁Sav	-8544
ixture	-8545
▁Region	-8546
▁(.	-8547
▁AM	-8548
▁Goa	-8549
▁2020	-8550
▁Agra	-8551
▁Devi	-8552
▁gained	-8553
▁gentle	-8554
▁proofs	-8555
▁enhanced	-8556
▁guarantee	-8557
kim	-8558
onent	-8559
▁monthly	-8560
wide	-8561
▁PAR	-8562
oking	-8563
▁smooth	-8564
▁thrown	-8565
zing	-8566
hetic	-8567
▁clip	-8568
agraph	-8569
▁calam	-8570
▁Format	-8571
▁radical	-8572
▁Election	-8573
▁computers	-8574
▁experiment	-8575
▁permanently	-8576
ipe	-8577
▁Bro	-8578
▁Woe	-8579
▁max	-8580
▁Cast	-8581
▁Stop	-8582
▁dict	-8583
▁pace	-8584
ignment	-8585
▁Yojana	-8586
▁aircraft	-8587
▁somebody	-8588
▁emotional	-8589
▁retribution	-8590
▁Institutions	-8591
▁transgressors	-8592
ships	-8593
▁pand	-8594
▁pret	-8595
actory	-8596
▁mouse	-8597
▁despair	-8598
▁Railways	-8599
▁arrested	-8600
▁hundreds	-8601
▁stronger	-8602
▁aggregate	-8603
▁Han	-8604
aryana	-8605
ipedia	-8606
▁Truly	-8607
▁Insert	-8608
▁Monitor	-8609
▁enjoyed	-8610
▁protocol	-8611
AK	-8612
▁186	-8613
write	-8614
▁summer	-8615
▁walking	-8616
▁inaugurated	-8617
▁Tom	-8618
▁rig	-8619
▁(1),	-8620
▁Game	-8621
▁muse	-8622
▁stup	-8623
▁blank	-8624
▁trend	-8625
chandra	-8626
▁Should	-8627
▁evidences	-8628
▁primarily	-8629
▁accordingly	-8630
fil	-8631
▁BY	-8632
▁Fest	-8633
▁fifth	-8634
▁march	-8635
uscript	-8636
▁Valley	-8637
▁Islands	-8638
▁selling	-8639
7)	-8640
uh	-8641
uce	-8642
▁Sil	-8643
▁ancest	-8644
▁dismiss	-8645
▁reaches	-8646
▁pertaining	-8647
▁entrepreneurs	-8648
BC	-8649
▁(*	-8650
▁avo	-8651
▁fib	-8652
▁ric	-8653
ician	-8654
▁Media	-8655
▁dynamic	-8656
▁contrast	-8657
▁positions	-8658
met	-8659
vara	-8660
▁(5)	-8661
▁SPE	-8662
ulous	-8663
▁Verm	-8664
saying	-8665
▁infid	-8666
usively	-8667
▁arrive	-8668
▁hatred	-8669
▁Private	-8670
▁audience	-8671
8)	-8672
kh	-8673
Peace	-8674
▁dies	-8675
▁awards	-8676
▁assuredly	-8677
Th	-8678
▁Und	-8679
▁Zone	-8680
ushing	-8681
▁mathe	-8682
▁header	-8683
▁layout	-8684
▁algorithm	-8685
ato	-8686
name	-8687
omous	-8688
▁enorm	-8689
▁Having	-8690
▁perpet	-8691
▁slowly	-8692
▁Creator	-8693
▁Culture	-8694
▁entering	-8695
▁plaintiff	-8696
▁societies	-8697
GP	-8698
son	-8699
acob	-8700
▁Lear	-8701
▁mould	-8702
▁restra	-8703
▁worker	-8704
▁combined	-8705
▁peaceful	-8706
oys	-8707
▁Py	-8708
▁Area	-8709
▁worry	-8710
▁circle	-8711
▁stability	-8712
▁translated	-8713
▁stakeholders	-8714
CA	-8715
inced	-8716
▁SAYS	-8717
ienced	-8718
▁Brahma	-8719
▁driver	-8720
▁novels	-8721
▁islands	-8722
▁innocent	-8723
▁definition	-8724
▁NI	-8725
rehe	-8726
step	-8727
term	-8728
▁wilt	-8729
▁charm	-8730
▁sport	-8731
▁cheque	-8732
▁criter	-8733
▁Lucknow	-8734
▁Almighty	-8735
▁imported	-8736
can	-8737
▁Hari	-8738
▁Mang	-8739
▁Comple	-8740
▁handic	-8741
▁models	-8742
▁Automatic	-8743
▁exceeding	-8744
▁operative	-8745
▁paintings	-8746
▁conversion	-8747
▁characteristic	-8748
▁Notwithstanding	-8749
orne	-8750
▁15,	-8751
▁Jour	-8752
▁vibr	-8753
lessly	-8754
▁pound	-8755
▁shift	-8756
▁Always	-8757
▁deduct	-8758
▁easier	-8759
▁Natural	-8760
▁summary	-8761
▁confined	-8762
▁honoured	-8763
▁protector	-8764
▁vul	-8765
▁asce	-8766
▁oral	-8767
abling	-8768
▁fallen	-8769
▁returning	-8770
▁progressive	-8771
▁kin	-8772
icity	-8773
▁Ident	-8774
▁Survey	-8775
▁Telugu	-8776
▁Subscriber	-8777
▁remembered	-8778
▁surrounded	-8779
▁installation	-8780
▁representing	-8781
▁revolutionary	-8782
-4	-8783
var	-8784
avas	-8785
quar	-8786
▁Bul	-8787
▁mil	-8788
▁cord	-8789
▁motiv	-8790
▁rhyth	-8791
▁winter	-8792
▁Vivekan	-8793
▁factory	-8794
▁proviso	-8795
▁Ayurveda	-8796
▁Fu	-8797
▁NG	-8798
addy	-8799
oving	-8800
▁nose	-8801
▁Anand	-8802
▁winds	-8803
▁Bahadur	-8804
▁treasure	-8805
▁Organization	-8806
▁connectivity	-8807
no	-8808
▁py	-8809
erty	-8810
nity	-8811
guard	-8812
▁meal	-8813
erving	-8814
gments	-8815
▁ruled	-8816
▁Remote	-8817
▁channels	-8818
▁beneficial	-8819
▁legislative	-8820
▁dh	-8821
chers	-8822
▁Togg	-8823
commun	-8824
itative	-8825
▁handle	-8826
▁regime	-8827
▁consolid	-8828
▁residence	-8829
▁everywhere	-8830
▁proceeding	-8831
▁(_	-8832
▁TV	-8833
agra	-8834
amma	-8835
atel	-8836
rane	-8837
▁ice	-8838
amese	-8839
▁Bills	-8840
▁Imple	-8841
▁artist	-8842
▁bestow	-8843
▁Computer	-8844
▁adm	-8845
▁shut	-8846
▁expiry	-8847
▁Hindust	-8848
▁Maximum	-8849
▁Bangalore	-8850
▁pilgrimage	-8851
En	-8852
▁MP	-8853
avior	-8854
▁Govt	-8855
▁bigger	-8856
▁nearer	-8857
▁exposed	-8858
iven	-8859
▁Mot	-8860
▁Nam	-8861
▁Wel	-8862
▁Hard	-8863
ulates	-8864
▁Greek	-8865
▁maybe	-8866
▁tooth	-8867
▁forbid	-8868
▁undertake	-8869
dy	-8870
alo	-8871
atan	-8872
▁Pop	-8873
▁Sad	-8874
antra	-8875
▁succ	-8876
▁Advis	-8877
▁Chhat	-8878
▁sharp	-8879
▁sixty	-8880
▁Update	-8881
▁hunger	-8882
▁subsid	-8883
▁Several	-8884
▁appellant	-8885
▁engagement	-8886
▁perfection	-8887
amy	-8888
shi	-8889
▁Isa	-8890
▁Kore	-8891
▁shelter	-8892
▁attribute	-8893
▁commodities	-8894
▁competitive	-8895
▁developments	-8896
▁Bre	-8897
▁hunt	-8898
▁texts	-8899
▁refuse	-8900
ruitment	-8901
▁anywhere	-8902
▁multiply	-8903
hai	-8904
inct	-8905
auses	-8906
▁threw	-8907
▁organs	-8908
▁Background	-8909
▁associates	-8910
▁institutional	-8911
aph	-8912
▁Cr	-8913
▁fro	-8914
icing	-8915
▁arts	-8916
▁enjo	-8917
▁fees	-8918
itting	-8919
▁tells	-8920
▁Haryana	-8921
▁acceler	-8922
▁crucial	-8923
▁exceeds	-8924
▁unbelie	-8925
▁believer	-8926
▁overseas	-8927
▁resulted	-8928
▁thorough	-8929
gi	-8930
tr	-8931
ida	-8932
lig	-8933
was	-8934
apse	-8935
▁cul	-8936
▁exit	-8937
▁Saudi	-8938
▁SPEECH	-8939
▁Summit	-8940
▁Convention	-8941
▁references	-8942
UB	-8943
UK	-8944
lla	-8945
▁7,	-8946
▁Ji	-8947
isite	-8948
▁Nanak	-8949
▁distant	-8950
▁precise	-8951
▁spreading	-8952
▁obligation	-8953
▁sanctioned	-8954
▁conversation	-8955
▁Kol	-8956
▁Stra	-8957
ogether	-8958
▁patron	-8959
▁sinful	-8960
▁Airport	-8961
indranath	-8962
▁executed	-8963
▁imagination	-8964
alal	-8965
▁Bir	-8966
▁mart	-8967
▁auton	-8968
naments	-8969
▁organic	-8970
▁invented	-8971
▁Registration	-8972
40	-8973
59	-8974
aha	-8975
▁Kap	-8976
olent	-8977
▁newly	-8978
▁photo	-8979
▁swift	-8980
▁wheel	-8981
▁murder	-8982
rich	-8983
▁Mur	-8984
▁Sank	-8985
▁rein	-8986
▁prest	-8987
ichever	-8988
▁Basava	-8989
ammation	-8990
▁grounds	-8991
▁Himalayan	-8992
▁newspapers	-8993
wara	-8994
▁ruin	-8995
▁Phone	-8996
▁swall	-8997
▁Centres	-8998
▁applies	-8999
▁blessing	-9000
▁extensive	-9001
▁attractive	-9002
▁impression	-9003
▁institutes	-9004
TING	-9005
ildo	-9006
rian	-9007
udra	-9008
▁Long	-9009
▁Wild	-9010
▁duly	-9011
▁tied	-9012
▁Obama	-9013
▁games	-9014
▁persu	-9015
▁twain	-9016
▁Family	-9017
▁illegal	-9018
▁outcome	-9019
CP	-9020
ystem	-9021
▁Pune	-9022
▁tall	-9023
▁bamboo	-9024
▁Brahman	-9025
▁evolved	-9026
▁massive	-9027
▁parallel	-9028
▁supports	-9029
▁occasions	-9030
▁sustained	-9031
▁aspirations	-9032
▁integration	-9033
▁EVE	-9034
▁wre	-9035
▁roll	-9036
▁Aaron	-9037
▁Young	-9038
▁recover	-9039
▁maturity	-9040
▁replaced	-9041
▁Promotion	-9042
▁organisms	-9043
▁transportation	-9044
▁Ba	-9045
tery	-9046
▁Syn	-9047
▁Tib	-9048
▁lust	-9049
▁grants	-9050
▁muscle	-9051
▁indicate	-9052
▁Employment	-9053
▁countrymen	-9054
mail	-9055
liance	-9056
PRODUCT	-9057
▁Sikkim	-9058
▁Personal	-9059
▁keyboard	-9060
▁sacrific	-9061
▁tourists	-9062
JP	-9063
ENCE	-9064
aria	-9065
▁bare	-9066
ounced	-9067
owered	-9068
▁Times	-9069
▁Total	-9070
▁Nation	-9071
▁golden	-9072
▁visits	-9073
▁ascribe	-9074
▁experts	-9075
▁plugins	-9076
▁springs	-9077
▁Transfer	-9078
▁entrance	-9079
▁payments	-9080
▁Procedure	-9081
▁connections	-9082
asp	-9083
unch	-9084
▁25,	-9085
▁USA	-9086
eding	-9087
point	-9088
▁elev	-9089
▁doors	-9090
▁immun	-9091
▁genuine	-9092
▁Whenever	-9093
▁Ministries	-9094
01.	-9095
▁alph	-9096
▁calf	-9097
▁Grand	-9098
▁Title	-9099
▁bount	-9100
▁memor	-9101
▁operate	-9102
▁players	-9103
▁comments	-9104
▁extraord	-9105
▁prevented	-9106
▁accessible	-9107
▁resistance	-9108
rav	-9109
ymph	-9110
▁Kav	-9111
▁Arun	-9112
▁pear	-9113
▁angel	-9114
▁brill	-9115
▁lotus	-9116
▁posts	-9117
▁colonial	-9118
▁virtuous	-9119
▁candidates	-9120
rue	-9121
▁Gos	-9122
▁Jer	-9123
▁bin	-9124
▁fool	-9125
▁Champ	-9126
▁adapt	-9127
issions	-9128
ifically	-9129
▁realized	-9130
▁reducing	-9131
▁Wikipedia	-9132
▁ly	-9133
icer	-9134
ulus	-9135
▁hes	-9136
▁pul	-9137
▁Java	-9138
▁Mart	-9139
inking	-9140
▁Cance	-9141
▁guess	-9142
▁evildo	-9143
▁faster	-9144
▁immort	-9145
▁module	-9146
▁varied	-9147
▁Washing	-9148
▁dangerous	-9149
▁ma	-9150
wali	-9151
▁Son	-9152
eping	-9153
igarh	-9154
uting	-9155
▁Requ	-9156
▁Sovi	-9157
▁dish	-9158
▁hire	-9159
▁Indira	-9160
▁focused	-9161
▁nearest	-9162
▁prestig	-9163
▁manuscript	-9164
▁exclusively	-9165
▁awa	-9166
avana	-9167
▁cust	-9168
herent	-9169
▁Patel	-9170
▁Jewish	-9171
▁loaded	-9172
▁sounds	-9173
▁watching	-9174
▁festivals	-9175
fortunately	-9176
bh	-9177
▁Mas	-9178
aning	-9179
▁SHRI	-9180
▁Thank	-9181
▁spons	-9182
▁silent	-9183
chnology	-9184
▁presents	-9185
▁convinced	-9186
rete	-9187
▁chat	-9188
acious	-9189
▁Moreover	-9190
▁perceive	-9191
▁indicated	-9192
’,	-9193
atellite	-9194
▁Academy	-9195
▁damaged	-9196
▁younger	-9197
▁Administration	-9198
SE	-9199
▁Ord	-9200
▁cum	-9201
aired	-9202
▁wave	-9203
▁miles	-9204
▁colleges	-9205
▁organism	-9206
anth	-9207
haust	-9208
▁amid	-9209
▁Paper	-9210
▁acted	-9211
ilitation	-9212
▁frequently	-9213
▁permissions	-9214
19	-9215
Did	-9216
ino	-9217
inth	-9218
▁400	-9219
▁Str	-9220
rogen	-9221
▁Badr	-9222
▁brave	-9223
▁chromos	-9224
▁depending	-9225
BER	-9226
▁Je	-9227
isan	-9228
▁Nir	-9229
▁Ven	-9230
▁Vid	-9231
▁lod	-9232
stone	-9233
which	-9234
▁stom	-9235
ainted	-9236
▁Forum	-9237
▁debug	-9238
▁colors	-9239
▁assumed	-9240
▁earthqu	-9241
▁thankful	-9242
▁Departments	-9243
eeds	-9244
▁Gir	-9245
▁Ish	-9246
itate	-9247
▁Bhar	-9248
▁Kath	-9249
ricted	-9250
▁nerve	-9251
▁recur	-9252
▁binding	-9253
▁expanded	-9254
▁emergency	-9255
▁gathering	-9256
▁scheduled	-9257
▁membership	-9258
▁composition	-9259
ofs	-9260
asts	-9261
▁Bush	-9262
▁shade	-9263
▁Behold	-9264
▁bitter	-9265
lessness	-9266
▁adverse	-9267
▁Transport	-9268
▁institute	-9269
▁suggestions	-9270
▁Dam	-9271
▁LDAP	-9272
▁Mach	-9273
▁exped	-9274
▁Design	-9275
▁disturb	-9276
▁Directory	-9277
▁villagers	-9278
▁acceptable	-9279
▁parameters	-9280
IAN	-9281
▁Ru	-9282
bing	-9283
▁Rao	-9284
▁gri	-9285
▁Love	-9286
▁True	-9287
people	-9288
▁magaz	-9289
▁shout	-9290
▁Mosque	-9291
▁Ve	-9292
▁III	-9293
▁Smt	-9294
.2013	-9295
cient	-9296
▁Rule	-9297
▁bore	-9298
▁remed	-9299
▁Terror	-9300
▁prejud	-9301
▁troops	-9302
▁somewhat	-9303
▁incorporated	-9304
▁ho	-9305
▁Dou	-9306
▁rab	-9307
orses	-9308
▁storm	-9309
▁Return	-9310
▁fairly	-9311
▁amalgam	-9312
▁Gujarati	-9313
▁Oh	-9314
▁Kabir	-9315
▁tests	-9316
▁Mobile	-9317
▁assert	-9318
▁doubts	-9319
▁Loading	-9320
▁entries	-9321
▁utilised	-9322
▁forgotten	-9323
▁furnished	-9324
▁corporation	-9325
ARY	-9326
▁loy	-9327
▁whis	-9328
▁Polit	-9329
▁resear	-9330
▁wooden	-9331
▁answers	-9332
▁doctors	-9333
▁singing	-9334
▁startup	-9335
▁belonged	-9336
▁disorder	-9337
▁precious	-9338
▁Sucharita	-9339
▁philosoph	-9340
,%	-9341
How	-9342
who	-9343
▁65	-9344
bled	-9345
hash	-9346
▁fan	-9347
▁Vill	-9348
▁fost	-9349
ovable	-9350
▁disag	-9351
▁loading	-9352
▁regards	-9353
▁visiting	-9354
▁exchanges	-9355
▁exclusive	-9356
▁Washington	-9357
▁experienced	-9358
▁investigation	-9359
kes	-9360
ogy	-9361
shan	-9362
▁RBI	-9363
▁aer	-9364
▁tun	-9365
isible	-9366
▁loved	-9367
▁saint	-9368
▁snake	-9369
atories	-9370
▁cancel	-9371
▁shadow	-9372
▁Solomon	-9373
▁batsman	-9374
▁disaster	-9375
▁Himalayas	-9376
▁everybody	-9377
70	-9378
lec	-9379
▁20,	-9380
▁gap	-9381
erals	-9382
ocket	-9383
orted	-9384
▁doth	-9385
▁conqu	-9386
▁penet	-9387
▁deprec	-9388
▁headed	-9389
▁NATIONAL	-9390
▁scattered	-9391
jun	-9392
pura	-9393
▁11,	-9394
▁ing	-9395
ashed	-9396
▁CALL	-9397
▁Star	-9398
▁seal	-9399
▁Praise	-9400
▁assemb	-9401
▁holder	-9402
▁nearby	-9403
▁Russian	-9404
▁exception	-9405
ye	-9406
xygen	-9407
ername	-9408
▁Birth	-9409
▁uncle	-9410
▁Sheikh	-9411
▁orphans	-9412
▁Planning	-9413
▁Governors	-9414
▁hereafter	-9415
▁derivative	-9416
nut	-9417
▁ju	-9418
isal	-9419
▁Ray	-9420
ifier	-9421
▁misle	-9422
▁Portug	-9423
▁Soviet	-9424
▁copies	-9425
▁dramatic	-9426
▁punished	-9427
▁strongly	-9428
▁residential	-9429
But	-9430
uri	-9431
▁(5	-9432
▁la	-9433
▁bef	-9434
ogram	-9435
▁therewith	-9436
▁Beneficent	-9437
▁encouraging	-9438
▁simultaneous	-9439
▁CA	-9440
▁Own	-9441
▁1000	-9442
▁Zoom	-9443
▁auth	-9444
▁maid	-9445
▁Point	-9446
▁Vedas	-9447
▁devil	-9448
▁Review	-9449
▁fright	-9450
▁planet	-9451
▁Enterpr	-9452
▁arrival	-9453
▁inspire	-9454
▁neglect	-9455
▁Contacts	-9456
▁generate	-9457
▁Secretariat	-9458
gal	-9459
erge	-9460
▁Rot	-9461
▁stro	-9462
incial	-9463
screen	-9464
▁taxes	-9465
▁examine	-9466
▁Reminder	-9467
▁occupied	-9468
▁financing	-9469
▁artificial	-9470
oa	-9471
coh	-9472
aras	-9473
ulum	-9474
apped	-9475
▁Lead	-9476
▁drag	-9477
▁ward	-9478
▁Event	-9479
atively	-9480
▁barrier	-9481
▁insight	-9482
▁Festival	-9483
▁warnings	-9484
▁Agreement	-9485
▁wherewith	-9486
▁Literature	-9487
rh	-9488
All	-9489
▁CC	-9490
▁Ber	-9491
herry	-9492
ighth	-9493
▁Prim	-9494
▁jack	-9495
▁mood	-9496
retion	-9497
▁Conne	-9498
▁spell	-9499
▁diamonds	-9500
▁descendants	-9501
▁appreciation	-9502
15	-9503
EV	-9504
▁08	-9505
▁AW	-9506
ahan	-9507
anti	-9508
zone	-9509
▁Mut	-9510
▁asc	-9511
▁calm	-9512
orious	-9513
▁Speech	-9514
▁Toolbar	-9515
▁cutting	-9516
▁injured	-9517
▁acknowled	-9518
▁agreements	-9519
▁geographical	-9520
inar	-9521
soft	-9522
whel	-9523
▁Aur	-9524
▁Cost	-9525
▁Abdul	-9526
▁shock	-9527
▁retain	-9528
▁pending	-9529
▁eventually	-9530
▁Na	-9531
ifts	-9532
▁Jam	-9533
▁mac	-9534
▁1996	-9535
rected	-9536
▁Until	-9537
▁norms	-9538
▁cursed	-9539
▁recipients	-9540
▁characteristics	-9541
bra	-9542
▁CP	-9543
emor	-9544
umpet	-9545
▁1998	-9546
▁Paul	-9547
▁pool	-9548
icians	-9549
▁tribe	-9550
▁urged	-9551
omplete	-9552
▁Branch	-9553
▁splend	-9554
ifferent	-9555
▁bondmen	-9556
▁closing	-9557
▁rational	-9558
▁preceding	-9559
▁reflected	-9560
▁approaches	-9561
▁controvers	-9562
▁POP	-9563
▁Vik	-9564
▁env	-9565
▁voc	-9566
▁Real	-9567
▁Durga	-9568
▁gates	-9569
▁bought	-9570
▁inputs	-9571
▁Without	-9572
▁Position	-9573
▁reserved	-9574
▁encounter	-9575
▁recording	-9576
igg	-9577
mans	-9578
▁Put	-9579
▁cav	-9580
▁gun	-9581
▁Vish	-9582
▁drum	-9583
▁memb	-9584
▁nerv	-9585
▁plane	-9586
▁grains	-9587
▁handed	-9588
▁island	-9589
▁prayed	-9590
▁regret	-9591
▁African	-9592
▁acquire	-9593
▁revision	-9594
▁appreciate	-9595
To	-9596
zen	-9597
▁ll	-9598
▁Exc	-9599
▁Gar	-9600
▁Max	-9601
▁seas	-9602
▁cater	-9603
▁piety	-9604
▁Ganges	-9605
▁mining	-9606
▁William	-9607
▁Protocol	-9608
▁dwellers	-9609
▁prophets	-9610
▁altogether	-9611
xide	-9612
▁suck	-9613
▁Activ	-9614
▁frust	-9615
▁relie	-9616
▁freely	-9617
▁warrant	-9618
▁patterns	-9619
So	-9620
asion	-9621
▁1992	-9622
▁Band	-9623
▁epic	-9624
▁trek	-9625
▁mixture	-9626
▁silence	-9627
▁Consider	-9628
▁kindness	-9629
▁clipboard	-9630
▁interview	-9631
▁whichever	-9632
ATES	-9633
agon	-9634
▁Inv	-9635
▁drew	-9636
▁lung	-9637
▁pest	-9638
▁diver	-9639
▁Turkish	-9640
▁dynasty	-9641
▁routine	-9642
▁abundant	-9643
▁delegation	-9644
▁extraordinary	-9645
icode	-9646
▁ages	-9647
▁intr	-9648
▁lowest	-9649
▁thrust	-9650
▁boiling	-9651
▁applicant	-9652
▁enhancing	-9653
▁ornaments	-9654
▁supplement	-9655
▁aus	-9656
▁kit	-9657
▁1990	-9658
▁Were	-9659
▁breat	-9660
▁brown	-9661
▁dates	-9662
▁moves	-9663
▁repair	-9664
▁attracted	-9665
▁pec	-9666
aland	-9667
archy	-9668
lause	-9669
▁unre	-9670
▁grows	-9671
▁ridic	-9672
▁Maurit	-9673
▁openly	-9674
▁Movement	-9675
▁instruct	-9676
▁Municipal	-9677
oda	-9678
uti	-9679
zer	-9680
▁EX	-9681
airy	-9682
▁gro	-9683
▁Thee	-9684
▁rear	-9685
▁slay	-9686
▁alloc	-9687
▁perish	-9688
▁widget	-9689
13	-9690
anes	-9691
▁Rich	-9692
ighter	-9693
▁indul	-9694
▁label	-9695
▁partly	-9696
▁helpers	-9697
▁upright	-9698
▁handling	-9699
▁exploitation	-9700
▁gn	-9701
ario	-9702
utosh	-9703
▁butt	-9704
▁degr	-9705
▁gest	-9706
▁shap	-9707
itudes	-9708
▁excav	-9709
▁lease	-9710
▁Topics	-9711
▁pretty	-9712
▁purity	-9713
▁partial	-9714
▁wearing	-9715
▁photograph	-9716
▁capabilities	-9717
oz	-9718
.).	-9719
pay	-9720
tis	-9721
fold	-9722
lock	-9723
ademi	-9724
▁Draw	-9725
▁Megh	-9726
olence	-9727
▁Shall	-9728
▁seize	-9729
▁Desktop	-9730
▁Session	-9731
▁reminded	-9732
▁necessity	-9733
1)	-9734
KS	-9735
▁pour	-9736
▁cache	-9737
▁lingu	-9738
▁dialogue	-9739
▁profound	-9740
▁television	-9741
▁accommodation	-9742
bour	-9743
▁Lam	-9744
awful	-9745
ulses	-9746
▁Sult	-9747
ounder	-9748
▁Estab	-9749
▁films	-9750
▁Device	-9751
▁outlook	-9752
▁actively	-9753
▁indicates	-9754
▁statutory	-9755
film	-9756
pert	-9757
tends	-9758
▁Vert	-9759
▁Amrit	-9760
▁deter	-9761
▁optim	-9762
assador	-9763
▁Switch	-9764
quarters	-9765
ffee	-9766
▁12,	-9767
eches	-9768
icide	-9769
osted	-9770
▁Prior	-9771
▁perse	-9772
▁treaty	-9773
▁exhaust	-9774
▁glorify	-9775
▁commerce	-9776
orse	-9777
▁1947	-9778
▁Chat	-9779
▁Sang	-9780
▁pupp	-9781
▁wire	-9782
▁Patna	-9783
▁hotel	-9784
▁arises	-9785
▁metres	-9786
▁tested	-9787
▁noticed	-9788
▁breaking	-9789
▁Directors	-9790
▁ownership	-9791
Ab	-9792
ca	-9793
itan	-9794
araja	-9795
▁alms	-9796
▁hung	-9797
▁rans	-9798
▁begun	-9799
▁crowd	-9800
▁reign	-9801
essment	-9802
▁Accept	-9803
▁Modern	-9804
▁favors	-9805
▁Digital	-9806
▁premises	-9807
▁radiation	-9808
▁considering	-9809
▁Ms	-9810
▁Kon	-9811
water	-9812
▁liar	-9813
▁luck	-9814
▁talks	-9815
▁plains	-9816
▁purify	-9817
▁thinks	-9818
mination	-9819
▁pursued	-9820
▁bacteria	-9821
▁hardware	-9822
▁excessive	-9823
▁increasingly	-9824
▁Infrastructure	-9825
Are	-9826
more	-9827
▁Math	-9828
▁intu	-9829
▁semi	-9830
▁spin	-9831
▁wand	-9832
▁Jacob	-9833
▁larva	-9834
▁merit	-9835
▁Netaji	-9836
▁intent	-9837
▁vessels	-9838
▁adoption	-9839
▁preference	-9840
akar	-9841
▁dil	-9842
▁Lake	-9843
▁emerge	-9844
▁equation	-9845
▁interact	-9846
▁overwhel	-9847
▁wonderful	-9848
▁commencing	-9849
▁scriptures	-9850
▁ultimately	-9851
▁unexpected	-9852
▁innovations	-9853
mble	-9854
noon	-9855
▁Dri	-9856
rafts	-9857
▁outl	-9858
▁ther	-9859
▁dimin	-9860
▁hopes	-9861
▁nomin	-9862
▁Bureau	-9863
▁ceremon	-9864
▁locally	-9865
▁inaugurate	-9866
olved	-9867
▁Gram	-9868
▁Radh	-9869
▁depic	-9870
▁castes	-9871
▁videos	-9872
▁Narayan	-9873
▁furnish	-9874
▁supplied	-9875
▁Technical	-9876
▁travelled	-9877
▁originally	-9878
▁celebrations	-9879
iga	-9880
Lord	-9881
they	-9882
Where	-9883
▁Narm	-9884
▁Trad	-9885
▁puts	-9886
icular	-9887
▁advers	-9888
▁corrupt	-9889
▁ignored	-9890
▁imports	-9891
▁Commerce	-9892
▁schedule	-9893
▁vertical	-9894
▁abundance	-9895
▁Preferences	-9896
▁realisation	-9897
▁conventional	-9898
▁Configuration	-9899
idian	-9900
▁holid	-9901
▁Lahore	-9902
▁Preview	-9903
▁stomach	-9904
▁tribute	-9905
▁volumes	-9906
▁evildoers	-9907
▁obtaining	-9908
▁obligations	-9909
▁2)	-9910
▁mm	-9911
▁Beh	-9912
▁genus	-9913
itarian	-9914
▁Period	-9915
▁camera	-9916
▁chiefs	-9917
▁artists	-9918
▁subsidy	-9919
▁literacy	-9920
▁Integrated	-9921
iest	-9922
onut	-9923
verage	-9924
▁Debug	-9925
▁Ocean	-9926
▁Raman	-9927
▁Track	-9928
▁domin	-9929
▁eager	-9930
fathers	-9931
▁preval	-9932
▁complim	-9933
but	-9934
▁dow	-9935
▁intim	-9936
▁nodes	-9937
▁bounds	-9938
▁flying	-9939
▁pursue	-9940
▁conflic	-9941
▁genetic	-9942
akrishnan	-9943
▁cultures	-9944
▁restored	-9945
▁connecting	-9946
▁programming	-9947
ef	-9948
▁43	-9949
▁Vig	-9950
gramm	-9951
▁bulk	-9952
▁Dwark	-9953
▁Urban	-9954
▁fonts	-9955
▁Anjuta	-9956
▁assume	-9957
▁worksh	-9958
▁Akademi	-9959
▁thunder	-9960
▁fragment	-9961
Ass	-9962
odox	-9963
▁Haz	-9964
▁Ign	-9965
▁Ken	-9966
▁unb	-9967
.2019	-9968
▁pion	-9969
▁Citiz	-9970
▁Indra	-9971
▁feared	-9972
▁margin	-9973
▁pardon	-9974
▁suspend	-9975
▁disposal	-9976
▁gracious	-9977
▁mathemat	-9978
▁Standards	-9979
rob	-9980
Have	-9981
emat	-9982
▁bio	-9983
aunch	-9984
llate	-9985
▁blow	-9986
▁waves	-9987
▁Normal	-9988
▁Cultural	-9989
▁decorated	-9990
▁recognise	-9991
▁Vivekananda	-9992
▁NH	-9993
fare	-9994
▁ped	-9995
▁Turn	-9996
▁horn	-9997
▁stem	-9998
▁Width	-9999
istrate	-10000
▁Effect	-10001
▁mortal	-10002
▁Instead	-10003
▁comprom	-10004
▁enormous	-10005
▁correctly	-10006
▁therefrom	-10007
▁dedication	-10008
onic	-10009
asted	-10010
plant	-10011
▁edit	-10012
▁tape	-10013
▁Plant	-10014
▁angry	-10015
▁tries	-10016
▁Rename	-10017
▁resemb	-10018
▁themes	-10019
▁Authent	-10020
▁Guidelines	-10021
alli	-10022
▁Saf	-10023
▁lake	-10024
▁tack	-10025
ankind	-10026
oubted	-10027
▁Sahib	-10028
▁blown	-10029
▁login	-10030
▁stret	-10031
▁oldest	-10032
▁backend	-10033
▁circuit	-10034
▁Constitu	-10035
▁requests	-10036
▁bookmarks	-10037
▁protecting	-10038
▁transparency	-10039
andi	-10040
▁BAR	-10041
▁Try	-10042
▁corn	-10043
▁argue	-10044
▁males	-10045
▁queen	-10046
▁smoke	-10047
▁modify	-10048
▁commend	-10049
▁networks	-10050
▁slightly	-10051
▁broadcast	-10052
▁idolaters	-10053
sa	-10054
stru	-10055
▁cin	-10056
▁Poly	-10057
▁Prab	-10058
▁Whom	-10059
▁wider	-10060
▁Budget	-10061
▁estate	-10062
▁unlike	-10063
iliation	-10064
▁abnormal	-10065
▁conveyed	-10066
▁explanation	-10067
▁1"	-10068
them	-10069
eenth	-10070
▁Grie	-10071
▁Rate	-10072
▁Index	-10073
▁plate	-10074
ologist	-10075
▁intest	-10076
▁enables	-10077
▁skilled	-10078
▁attacked	-10079
▁invested	-10080
▁patiently	-10081
▁Processing	-10082
vas	-10083
eling	-10084
▁chart	-10085
▁horses	-10086
▁ignore	-10087
▁stable	-10088
▁summon	-10089
▁targets	-10090
▁allotted	-10091
▁computed	-10092
▁glorious	-10093
▁Malayalam	-10094
▁intermedi	-10095
▁Assistance	-10096
▁grievances	-10097
▁situations	-10098
DO	-10099
oma	-10100
MENT	-10101
oused	-10102
▁Bhai	-10103
▁desir	-10104
▁movie	-10105
▁Column	-10106
▁agenda	-10107
▁Goddess	-10108
▁testify	-10109
▁dominion	-10110
▁pregnancy	-10111
▁afterwards	-10112
▁allocation	-10113
▁Directorate	-10114
▁continuously	-10115
▁subsequently	-10116
▁42	-10117
▁Lit	-10118
agues	-10119
▁wine	-10120
ESSAGE	-10121
apping	-10122
▁Vietnam	-10123
▁colours	-10124
▁destiny	-10125
▁updated	-10126
▁occupation	-10127
▁developmental	-10128
yam	-10129
▁Pu	-10130
_01.	-10131
evil	-10132
pite	-10133
▁haz	-10134
▁lac	-10135
▁mud	-10136
▁Able	-10137
▁Chal	-10138
▁hect	-10139
akhand	-10140
▁tears	-10141
▁wound	-10142
acharya	-10143
▁Record	-10144
▁Swaraj	-10145
▁butter	-10146
▁daniel	-10147
▁orphan	-10148
▁photos	-10149
Applause	-10150
▁separately	-10151
oil	-10152
▁NE	-10153
▁Fre	-10154
▁Oil	-10155
▁Appro	-10156
▁Canada	-10157
▁adults	-10158
▁errors	-10159
▁legend	-10160
▁museum	-10161
▁PRESENT	-10162
▁afflict	-10163
▁harmful	-10164
▁license	-10165
▁reposted	-10166
▁approximately	-10167
cond	-10168
▁Miz	-10169
idity	-10170
▁Care	-10171
▁pump	-10172
▁Frame	-10173
▁flags	-10174
▁awaits	-10175
▁Oneness	-10176
▁segment	-10177
▁winning	-10178
▁sovereignty	-10179
▁Organisation	-10180
▁identification	-10181
▁CV	-10182
▁RA	-10183
▁wal	-10184
IVERS	-10185
steps	-10186
▁Poll	-10187
▁rely	-10188
▁Agency	-10189
▁Iranian	-10190
▁essence	-10191
▁oppress	-10192
▁goodness	-10193
▁province	-10194
▁forefathers	-10195
▁Notification	-10196
oka	-10197
▁vag	-10198
▁tank	-10199
iceroy	-10200
▁sixth	-10201
▁Prince	-10202
▁advise	-10203
▁native	-10204
oubtedly	-10205
▁Studies	-10206
▁estimate	-10207
▁describes	-10208
ford	-10209
▁Hig	-10210
▁Camp	-10211
▁Basic	-10212
▁gramm	-10213
▁infer	-10214
▁Tribes	-10215
▁spades	-10216
ointment	-10217
▁MESSAGE	-10218
▁credited	-10219
▁Thereafter	-10220
▁complaints	-10221
▁compassionate	-10222
dis	-10223
iki	-10224
▁()	-10225
regard	-10226
▁borne	-10227
▁fails	-10228
▁feels	-10229
▁jinns	-10230
▁risks	-10231
▁virus	-10232
▁switch	-10233
▁Neither	-10234
▁enquiry	-10235
▁Consumer	-10236
▁machines	-10237
▁variable	-10238
▁automatic	-10239
cel	-10240
▁sme	-10241
night	-10242
uated	-10243
▁adul	-10244
thodox	-10245
▁Torah	-10246
▁landl	-10247
▁legacy	-10248
▁mosque	-10249
▁resign	-10250
▁mineral	-10251
▁rejoice	-10252
▁Advanced	-10253
▁defeated	-10254
orticulture	-10255
kal	-10256
▁Vict	-10257
▁nurt	-10258
▁spir	-10259
▁Block	-10260
▁logic	-10261
▁reass	-10262
▁welcom	-10263
▁Housing	-10264
▁dividend	-10265
▁continuing	-10266
MA	-10267
PG	-10268
olf	-10269
ishe	-10270
▁Old	-10271
▁Abdu	-10272
▁Come	-10273
▁fing	-10274
▁gland	-10275
▁Rather	-10276
▁amended	-10277
▁decimal	-10278
▁38	-10279
▁55	-10280
▁Suk	-10281
▁Till	-10282
▁Shast	-10283
▁tight	-10284
▁Employ	-10285
▁attempts	-10286
▁enabling	-10287
▁SM	-10288
chen	-10289
emia	-10290
rine	-10291
▁ICT	-10292
▁ham	-10293
▁Azad	-10294
▁Bach	-10295
▁loft	-10296
abetes	-10297
idency	-10298
▁Indus	-10299
▁beach	-10300
▁foods	-10301
▁heights	-10302
▁vaccine	-10303
clamation	-10304
▁packages	-10305
▁reserves	-10306
▁retirement	-10307
▁succession	-10308
▁surrounding	-10309
▁territories	-10310
LS	-10311
VIC	-10312
agn	-10313
▁ine	-10314
▁mah	-10315
▁Loan	-10316
▁bold	-10317
cessor	-10318
▁batter	-10319
▁genius	-10320
▁manual	-10321
▁oxygen	-10322
▁Buddhism	-10323
▁Contract	-10324
▁Property	-10325
▁devotees	-10326
▁marginal	-10327
aeological	-10328
otechnology	-10329
▁comprising	-10330
▁appreciated	-10331
▁establishing	-10332
▁congratulated	-10333
▁Pa	-10334
atal	-10335
idal	-10336
thon	-10337
▁Til	-10338
▁Phil	-10339
▁sper	-10340
▁Isaac	-10341
▁Sacred	-10342
▁demerg	-10343
▁Brahmin	-10344
▁formula	-10345
▁premium	-10346
▁Northern	-10347
▁likeness	-10348
▁secretly	-10349
▁expertise	-10350
▁listening	-10351
17	-10352
JEE	-10353
ele	-10354
soon	-10355
▁Yam	-10356
▁isn	-10357
otions	-10358
▁alien	-10359
▁ports	-10360
against	-10361
▁vimana	-10362
sequently	-10363
▁Badruddin	-10364
▁accounting	-10365
▁cooperative	-10366
▁restrictions	-10367
ago	-10368
▁39	-10369
▁kh	-10370
▁exh	-10371
nagar	-10372
▁Chak	-10373
▁Evil	-10374
▁Hosp	-10375
▁Mant	-10376
▁digit	-10377
▁Chance	-10378
▁repeat	-10379
▁Offices	-10380
▁cooking	-10381
▁denomin	-10382
▁fortune	-10383
▁resolved	-10384
▁Microsoft	-10385
▁Connection	-10386
▁necessarily	-10387
elt	-10388
eers	-10389
▁VIS	-10390
These	-10391
▁Face	-10392
pector	-10393
▁fraud	-10394
▁Header	-10395
▁harmon	-10396
▁speaks	-10397
▁surgery	-10398
▁garments	-10399
▁preserved	-10400
▁tolerance	-10401
▁Institution	-10402
▁imprisonment	-10403
gl	-10404
das	-10405
eem	-10406
iti	-10407
inte	-10408
okes	-10409
▁Mis	-10410
▁vot	-10411
▁rocks	-10412
▁crafts	-10413
▁utmost	-10414
▁Initial	-10415
▁Subhash	-10416
▁nervous	-10417
▁commodity	-10418
▁defendant	-10419
habilitation	-10420
▁Implementation	-10421
nath	-10422
▁Abs	-10423
andra	-10424
there	-10425
▁MIME	-10426
▁tales	-10427
▁refund	-10428
▁enacted	-10429
▁visitors	-10430
▁seriously	-10431
▁withdrawal	-10432
▁complicated	-10433
▁certificates	-10434
ANG	-10435
stan	-10436
▁125	-10437
▁30,	-10438
▁Mim	-10439
▁din	-10440
field	-10441
▁Bhav	-10442
▁Issu	-10443
▁unem	-10444
formed	-10445
tended	-10446
▁Clean	-10447
▁trick	-10448
fulness	-10449
▁Replace	-10450
▁dischar	-10451
▁resting	-10452
▁streets	-10453
▁strings	-10454
▁pregnant	-10455
▁surprise	-10456
▁Islamists	-10457
▁disciples	-10458
▁elsewhere	-10459
%.	-10460
bly	-10461
▁vo	-10462
acco	-10463
▁GNU	-10464
▁Auro	-10465
▁Heav	-10466
▁Mill	-10467
▁Reply	-10468
▁Royal	-10469
▁crown	-10470
▁Bhagat	-10471
▁Island	-10472
▁denial	-10473
▁plenty	-10474
▁designs	-10475
▁examined	-10476
▁Resources	-10477
▁addressing	-10478
▁q	-10479
▁‘%	-10480
rous	-10481
▁Atl	-10482
▁Gen	-10483
▁PRO	-10484
▁Sidd	-10485
▁shed	-10486
▁utility	-10487
▁obedient	-10488
▁Languages	-10489
MM	-10490
UD	-10491
Yes	-10492
▁Ast	-10493
▁Rain	-10494
▁peak	-10495
▁tons	-10496
▁vouch	-10497
▁divorce	-10498
▁protein	-10499
▁thereon	-10500
▁whereof	-10501
▁Building	-10502
▁shoulder	-10503
▁substituted	-10504
pass	-10505
otism	-10506
▁abol	-10507
▁Chann	-10508
▁Street	-10509
▁guests	-10510
▁ransom	-10511
▁outward	-10512
▁virtual	-10513
assionate	-10514
▁vehicles	-10515
▁admission	-10516
▁teachings	-10517
▁Uttarakhand	-10518
▁SE	-10519
▁TH	-10520
▁Gas	-10521
▁MUK	-10522
istence	-10523
▁Jagann	-10524
▁purchased	-10525
▁sculptures	-10526
▁Regulations	-10527
iler	-10528
list	-10529
▁IPv	-10530
arted	-10531
▁Third	-10532
▁pharm	-10533
▁resur	-10534
▁token	-10535
▁Forces	-10536
▁protest	-10537
▁savings	-10538
▁Progress	-10539
▁speeches	-10540
▁withhold	-10541
▁confirming	-10542
▁Rabindranath	-10543
BS	-10544
ANT	-10545
hta	-10546
nex	-10547
▁Anal	-10548
▁aest	-10549
course	-10550
wealth	-10551
▁Night	-10552
▁await	-10553
struction	-10554
▁Electric	-10555
▁colleagues	-10556
▁formulation	-10557
▁specifically	-10558
you	-10559
That	-10560
▁Ori	-10561
▁Vaj	-10562
▁Hill	-10563
▁Prat	-10564
▁Treat	-10565
▁Sindhi	-10566
▁detect	-10567
▁nobody	-10568
▁writes	-10569
▁helpless	-10570
▁striving	-10571
▁deposited	-10572
sole	-10573
umps	-10574
▁14.	-10575
▁600	-10576
ulent	-10577
▁ling	-10578
▁acute	-10579
▁alcoh	-10580
▁uncom	-10581
▁couldn	-10582
▁behavior	-10583
▁creature	-10584
log	-10585
▁1-4	-10586
▁Sug	-10587
▁unw	-10588
pread	-10589
▁wont	-10590
HERJEE	-10591
stream	-10592
▁Broad	-10593
▁smart	-10594
▁insult	-10595
▁Teacher	-10596
▁advances	-10597
▁MUKHERJEE	-10598
uni	-10599
▁>%	-10600
▁Os	-10601
anqu	-10602
hari	-10603
nals	-10604
utra	-10605
▁15.	-10606
▁Was	-10607
▁Bras	-10608
▁Rani	-10609
ificent	-10610
manship	-10611
▁cometh	-10612
▁Station	-10613
▁Unicode	-10614
▁borders	-10615
▁drought	-10616
▁breeding	-10617
▁spending	-10618
▁discovery	-10619
▁empowerment	-10620
rawn	-10621
▁pag	-10622
itary	-10623
▁india	-10624
▁Warning	-10625
▁authors	-10626
▁promises	-10627
▁dwellings	-10628
▁publications	-10629
4)	-10630
OW	-10631
REE	-10632
▁MA	-10633
olar	-10634
▁14,	-10635
▁Hot	-10636
▁SSL	-10637
▁Tim	-10638
DRESS	-10639
▁1948	-10640
▁Dest	-10641
▁IMAP	-10642
▁aged	-10643
agraha	-10644
▁Scale	-10645
onymous	-10646
▁allied	-10647
▁Viceroy	-10648
▁credits	-10649
▁ancients	-10650
▁symbolic	-10651
▁Americans	-10652
▁dimension	-10653
▁incidents	-10654
▁conviction	-10655
▁inevitable	-10656
▁shareholders	-10657
arkar	-10658
▁1950	-10659
▁caut	-10660
▁irre	-10661
Prophet	-10662
▁Market	-10663
▁satisfy	-10664
▁victims	-10665
▁Prophets	-10666
▁possibly	-10667
▁preparing	-10668
▁conducting	-10669
▁earthquake	-10670
▁inspection	-10671
▁righteously	-10672
▁transparent	-10673
iot	-10674
▁Naz	-10675
▁lion	-10676
▁wake	-10677
erable	-10678
▁genes	-10679
▁trash	-10680
▁append	-10681
▁Journal	-10682
▁Request	-10683
▁explains	-10684
▁economies	-10685
▁Nok	-10686
▁flee	-10687
▁fond	-10688
▁unsu	-10689
icious	-10690
▁molec	-10691
▁cursor	-10692
▁habits	-10693
▁serves	-10694
▁urgent	-10695
▁Express	-10696
▁plastic	-10697
▁thereto	-10698
▁disputed	-10699
▁enjoined	-10700
▁fraction	-10701
▁unlawful	-10702
▁comprises	-10703
▁judiciary	-10704
▁enthusiasm	-10705
▁Cooperation	-10706
▁transmitted	-10707
▁worshipping	-10708
PM	-10709
▁*.	-10710
imet	-10711
▁Bay	-10712
▁Hus	-10713
▁tum	-10714
uliar	-10715
▁pipe	-10716
▁Roman	-10717
▁Vijay	-10718
▁Unseen	-10719
▁agents	-10720
▁losses	-10721
▁specim	-10722
▁vulner	-10723
▁Shankar	-10724
▁beliefs	-10725
▁linkages	-10726
▁railways	-10727
▁Appellate	-10728
▁electrical	-10729
▁,	-10730
▁Ut	-10731
▁Suf	-10732
▁wet	-10733
enary	-10734
▁Junk	-10735
▁Mich	-10736
▁Sort	-10737
▁tomb	-10738
▁cryst	-10739
▁honey	-10740
▁slain	-10741
▁meanings	-10742
▁peculiar	-10743
▁Community	-10744
▁compliance	-10745
09	-10746
also	-10747
mand	-10748
uran	-10749
▁Apply	-10750
▁legit	-10751
▁Multip	-10752
▁bearer	-10753
▁copper	-10754
▁Benefit	-10755
▁trusted	-10756
▁birthday	-10757
▁generous	-10758
▁afflicted	-10759
▁passengers	-10760
▁productive	-10761
▁Radhakrishnan	-10762
CL	-10763
ald	-10764
ilee	-10765
▁Jinn	-10766
▁mini	-10767
▁shot	-10768
▁Samaj	-10769
▁tempt	-10770
▁weigh	-10771
▁capture	-10772
▁checked	-10773
▁typical	-10774
▁infidels	-10775
▁studying	-10776
▁guardians	-10777
▁mandatory	-10778
▁relatively	-10779
▁Governorate	-10780
▁administrator	-10781
Us	-10782
▁54	-10783
▁tap	-10784
Shall	-10785
▁rope	-10786
▁Radio	-10787
▁labou	-10788
aranasi	-10789
▁Arabia	-10790
▁Father	-10791
▁Sultan	-10792
▁levied	-10793
▁thirst	-10794
November	-10795
▁execute	-10796
▁lending	-10797
▁managing	-10798
▁receives	-10799
▁Corporate	-10800
▁confusion	-10801
▁depreciation	-10802
Mus	-10803
iph	-10804
▁UP	-10805
five	-10806
▁INA	-10807
▁Pub	-10808
mates	-10809
▁1980	-10810
▁Death	-10811
▁Nicob	-10812
▁paths	-10813
▁Mahade	-10814
▁Odisha	-10815
▁Brasero	-10816
▁forming	-10817
▁Sciences	-10818
▁complain	-10819
▁Establish	-10820
▁occurrence	-10821
▁regulation	-10822
▁suggestion	-10823
TO	-10824
lam	-10825
mind	-10826
▁Haj	-10827
▁Obs	-10828
▁Rai	-10829
owers	-10830
▁Acts	-10831
▁Deep	-10832
▁Laws	-10833
▁glac	-10834
▁Bring	-10835
▁paddy	-10836
▁scroll	-10837
▁accepts	-10838
▁enforcement	-10839
▁particulars	-10840
RU	-10841
▁Six	-10842
▁nigh	-10843
theless	-10844
▁Amount	-10845
▁awaken	-10846
▁barren	-10847
▁pixels	-10848
ologists	-10849
▁coconut	-10850
▁leather	-10851
▁Chhattis	-10852
▁demanded	-10853
▁discount	-10854
▁interval	-10855
▁residents	-10856
▁designated	-10857
▁previously	-10858
▁prosperous	-10859
▁restricted	-10860
kin	-10861
▁ul	-10862
▁”.	-10863
▁Dan	-10864
ctive	-10865
▁tone	-10866
▁Jaipur	-10867
▁framed	-10868
▁Upanish	-10869
▁balanced	-10870
▁medicines	-10871
▁incomplete	-10872
▁prosecution	-10873
Un	-10874
.),	-10875
aza	-10876
▁51	-10877
▁Age	-10878
▁cha	-10879
▁sar	-10880
apore	-10881
▁clin	-10882
▁cogn	-10883
▁dumb	-10884
igence	-10885
▁Entry	-10886
▁burst	-10887
▁flows	-10888
▁deeper	-10889
▁jointly	-10890
▁licence	-10891
▁rituals	-10892
▁toolbar	-10893
▁Partners	-10894
▁Vertical	-10895
▁pandemic	-10896
▁Judgement	-10897
▁searching	-10898
▁complement	-10899
HO	-10900
sar	-10901
udh	-10902
▁Ca	-10903
vati	-10904
▁Fig	-10905
▁Mys	-10906
▁gov	-10907
▁Crit	-10908
teenth	-10909
▁Queen	-10910
▁crack	-10911
▁advent	-10912
▁emails	-10913
▁talked	-10914
▁Perform	-10915
▁elephants	-10916
▁intensity	-10917
▁processed	-10918
▁Monitoring	-10919
▁affliction	-10920
▁terrorists	-10921
▁experiments	-10922
25	-10923
CI	-10924
bum	-10925
obi	-10926
▁56	-10927
▁9,	-10928
▁MW	-10929
▁Pot	-10930
▁Squ	-10931
TIONS	-10932
▁loud	-10933
▁zoom	-10934
▁bride	-10935
tlement	-10936
▁edited	-10937
▁eleven	-10938
▁Emperor	-10939
▁Programm	-10940
▁prisoners	-10941
▁modification	-10942
▁85	-10943
gged	-10944
ohan	-10945
▁bid	-10946
riers	-10947
rious	-10948
urbed	-10949
urrent	-10950
▁abdom	-10951
▁angle	-10952
arkhand	-10953
▁pestic	-10954
▁ADDRESS	-10955
▁Kannada	-10956
▁obviously	-10957
▁functional	-10958
▁Accordingly	-10959
▁discrimination	-10960
PL	-10961
isk	-10962
▁BI	-10963
pany	-10964
▁bon	-10965
▁Conv	-10966
▁Fold	-10967
▁Rang	-10968
▁jump	-10969
▁unus	-10970
▁wond	-10971
isting	-10972
utical	-10973
▁afore	-10974
▁Version	-10975
▁affects	-10976
▁Abdullah	-10977
▁Guardian	-10978
▁Religion	-10979
▁sessions	-10980
▁sympathy	-10981
▁Ahmedabad	-10982
▁afternoon	-10983
▁Revolution	-10984
▁Administrative	-10985
rik	-10986
▁Emb	-10987
named	-10988
ordan	-10989
▁Ayat	-10990
▁Week	-10991
▁epis	-10992
▁Along	-10993
▁Nodal	-10994
aterial	-10995
imental	-10996
▁Prepar	-10997
▁Rajput	-10998
▁Sharma	-10999
▁Persons	-11000
▁earning	-11001
▁headers	-11002
▁Gracious	-11003
▁assessed	-11004
▁coloured	-11005
▁verified	-11006
▁Whosoever	-11007
▁locations	-11008
▁Securities	-11009
▁threatened	-11010
▁determining	-11011
▁involvement	-11012
col	-11013
▁64	-11014
▁Jo	-11015
▁cm	-11016
▁pa	-11017
emen	-11018
▁Occ	-11019
neath	-11020
scape	-11021
▁Gate	-11022
▁Icon	-11023
▁Lock	-11024
▁Pall	-11025
limate	-11026
▁reven	-11027
▁relate	-11028
▁helpful	-11029
▁utterly	-11030
▁Aurobind	-11031
▁monetary	-11032
▁libraries	-11033
▁compulsory	-11034
▁substitute	-11035
▁disobedience	-11036
▁participated	-11037
▁concentration	-11038
▁professionals	-11039
▁Authentication	-11040
OD	-11041
osc	-11042
▁Ki	-11043
▁13.	-11044
▁Gal	-11045
▁Sit	-11046
rowse	-11047
▁mango	-11048
wellery	-11049
▁Golden	-11050
▁Kanpur	-11051
▁absent	-11052
▁conspir	-11053
▁liberty	-11054
▁Straight	-11055
▁Varanasi	-11056
▁artistic	-11057
▁reception	-11058
▁Regulation	-11059
▁incentives	-11060
▁separation	-11061
saf	-11062
▁13,	-11063
ifting	-11064
itated	-11065
▁Youth	-11066
▁query	-11067
▁digest	-11068
▁enters	-11069
▁Primary	-11070
▁endowed	-11071
▁concrete	-11072
▁respects	-11073
▁referring	-11074
▁absolutely	-11075
▁generating	-11076
▁Compassionate	-11077
:'	-11078
▁Hem	-11079
▁Rat	-11080
▁Poet	-11081
▁Wait	-11082
▁germ	-11083
▁rows	-11084
▁supr	-11085
▁tiny	-11086
▁grade	-11087
uminous	-11088
▁disable	-11089
▁relates	-11090
▁candidate	-11091
pus	-11092
▁47	-11093
hers	-11094
▁Sou	-11095
▁(200	-11096
▁coin	-11097
▁push	-11098
▁quad	-11099
akings	-11100
usalem	-11101
▁Month	-11102
▁flame	-11103
▁solemn	-11104
▁tenant	-11105
▁Changes	-11106
▁Singles	-11107
▁symbols	-11108
▁vitamin	-11109
▁borrower	-11110
▁chemicals	-11111
▁constitut	-11112
▁auspicious	-11113
▁invitation	-11114
▁Chhattisgarh	-11115
▁Tat	-11116
▁fer	-11117
ivest	-11118
▁Swed	-11119
▁Paris	-11120
▁Photo	-11121
▁Prize	-11122
▁Active	-11123
▁Senior	-11124
▁quoted	-11125
▁airports	-11126
▁intimate	-11127
▁mutually	-11128
▁rainfall	-11129
▁footsteps	-11130
▁initially	-11131
▁personally	-11132
▁imperialism	-11133
▁architectural	-11134
rix	-11135
▁Sn	-11136
▁COV	-11137
▁mit	-11138
alled	-11139
▁Hast	-11140
▁Mong	-11141
▁doct	-11142
▁fors	-11143
▁nest	-11144
▁seiz	-11145
ulator	-11146
▁Pract	-11147
▁Reset	-11148
▁surve	-11149
cribers	-11150
▁allies	-11151
▁goodly	-11152
▁honest	-11153
▁upload	-11154
▁funding	-11155
▁lecture	-11156
▁matches	-11157
▁seventy	-11158
▁prevention	-11159
API	-11160
mad	-11161
uis	-11162
▁2:	-11163
▁49	-11164
▁CR	-11165
▁Hum	-11166
▁aqu	-11167
pered	-11168
▁HTTP	-11169
▁Host	-11170
▁swit	-11171
▁irres	-11172
▁lists	-11173
▁curric	-11174
▁Acharya	-11175
roduction	-11176
▁interpre	-11177
▁concluded	-11178
▁discourse	-11179
▁perception	-11180
▁travelling	-11181
▁philosophical	-11182
HI	-11183
hin	-11184
amar	-11185
▁50,	-11186
▁Tun	-11187
▁ray	-11188
▁nice	-11189
▁tact	-11190
ubilee	-11191
▁Nokia	-11192
▁Works	-11193
▁slope	-11194
▁Jordan	-11195
▁Seeing	-11196
▁Within	-11197
▁anyway	-11198
▁ruined	-11199
▁timely	-11200
▁retired	-11201
▁minority	-11202
▁pleasant	-11203
▁Aurobindo	-11204
▁rebellion	-11205
tw	-11206
iac	-11207
▁Ro	-11208
born	-11209
even	-11210
oult	-11211
▁Vari	-11212
▁Moosa	-11213
▁rests	-11214
▁Mysore	-11215
▁affirm	-11216
▁picked	-11217
▁Village	-11218
▁rewarded	-11219
▁Available	-11220
▁paragraph	-11221
ROM	-11222
pal	-11223
cons	-11224
▁Cut	-11225
▁Tre	-11226
▁1991	-11227
▁outs	-11228
▁rejo	-11229
▁admir	-11230
▁maxim	-11231
▁penis	-11232
▁betray	-11233
▁abandon	-11234
▁anybody	-11235
▁retreat	-11236
▁humility	-11237
▁inferior	-11238
▁manpower	-11239
▁rendering	-11240
▁withdrawn	-11241
▁Dwarkanath	-11242
map	-11243
ocy	-11244
isco	-11245
yles	-11246
▁1997	-11247
▁Very	-11248
▁lots	-11249
▁scan	-11250
▁trig	-11251
▁Nobel	-11252
▁crude	-11253
▁endure	-11254
▁plural	-11255
▁weapon	-11256
▁Consult	-11257
▁Despite	-11258
▁Schemes	-11259
▁pursuit	-11260
▁immortal	-11261
▁proceeds	-11262
▁tributes	-11263
▁elaborate	-11264
▁capability	-11265
▁perspective	-11266
TA	-11267
pi	-11268
▁1'	-11269
ania	-11270
onia	-11271
▁wax	-11272
Bring	-11273
▁bent	-11274
acular	-11275
▁palms	-11276
▁enjoin	-11277
▁extrem	-11278
▁intend	-11279
▁mature	-11280
▁adorned	-11281
▁discard	-11282
aceutical	-11283
▁captured	-11284
▁immovable	-11285
▁simultaneously	-11286
An	-11287
Com	-11288
itr	-11289
▁rat	-11290
▁dupl	-11291
▁hole	-11292
▁semin	-11293
cessors	-11294
▁Govind	-11295
▁Manual	-11296
▁Toggle	-11297
▁dollar	-11298
▁lesser	-11299
▁Finally	-11300
▁Mizoram	-11301
▁obedience	-11302
▁recovered	-11303
DM	-11304
rak	-11305
unto	-11306
isans	-11307
itted	-11308
thren	-11309
urable	-11310
▁fount	-11311
▁numer	-11312
▁Econom	-11313
▁makers	-11314
▁nights	-11315
▁passes	-11316
▁Writing	-11317
▁chamber	-11318
▁muscles	-11319
▁secured	-11320
▁survive	-11321
▁tissues	-11322
▁declined	-11323
▁heedless	-11324
▁expanding	-11325
▁safeguard	-11326
!'	-11327
.2017	-11328
agari	-11329
feren	-11330
▁Quit	-11331
▁agro	-11332
▁beet	-11333
▁junk	-11334
▁ster	-11335
roller	-11336
▁coins	-11337
▁Memory	-11338
▁desist	-11339
▁bounties	-11340
▁romantic	-11341
▁Arunachal	-11342
▁Jerusalem	-11343
▁phenomenon	-11344
▁inheritance	-11345
▁Environmental	-11346
bab	-11347
iah	-11348
uma	-11349
▁Ku	-11350
▁16,	-11351
▁Sul	-11352
ceans	-11353
ieval	-11354
▁1993	-11355
▁rand	-11356
▁void	-11357
▁Large	-11358
▁rename	-11359
▁anticip	-11360
▁extends	-11361
▁checking	-11362
▁retrieve	-11363
▁endeavours	-11364
bo	-11365
cho	-11366
win	-11367
▁Ho	-11368
▁sq	-11369
rapy	-11370
▁hub	-11371
cence	-11372
▁Alif	-11373
▁Bagh	-11374
itably	-11375
▁PRANAB	-11376
▁weaken	-11377
▁Banking	-11378
▁revised	-11379
▁Original	-11380
▁wretched	-11381
▁Petroleum	-11382
▁prevalent	-11383
▁indirectly	-11384
▁possibilities	-11385
ROW	-11386
▁Decl	-11387
▁Moon	-11388
▁fled	-11389
▁hosted	-11390
▁mouths	-11391
economic	-11392
▁untouch	-11393
▁contempt	-11394
▁controls	-11395
▁welcomed	-11396
▁extending	-11397
▁narrative	-11398
▁liberation	-11399
▁rebellious	-11400
SC	-11401
kha	-11402
▁66	-11403
uate	-11404
▁Chh	-11405
anger	-11406
▁Film	-11407
▁Glory	-11408
▁remun	-11409
▁vigil	-11410
▁Shakti	-11411
▁blocks	-11412
▁Payment	-11413
▁concess	-11414
▁contrad	-11415
▁fingers	-11416
▁coverage	-11417
▁unjustly	-11418
▁Highlight	-11419
▁underneath	-11420
▁scholarship	-11421
ky	-11422
py	-11423
ERN	-11424
ael	-11425
isa	-11426
oqu	-11427
ori	-11428
▁AL	-11429
▁UK	-11430
acle	-11431
akat	-11432
etus	-11433
phal	-11434
quet	-11435
▁16.	-11436
▁XML	-11437
▁bew	-11438
▁que	-11439
▁Shar	-11440
iative	-11441
person	-11442
▁laying	-11443
▁abiding	-11444
▁avoided	-11445
▁secrets	-11446
▁concepts	-11447
▁criteria	-11448
▁evaluation	-11449
▁fertilizers	-11450
aga	-11451
▁AC	-11452
ball	-11453
▁183	-11454
▁Moz	-11455
anned	-11456
▁Body	-11457
▁Ital	-11458
▁Memo	-11459
holder	-11460
ickets	-11461
illing	-11462
ressal	-11463
▁Audit	-11464
▁lofty	-11465
▁ordin	-11466
▁upset	-11467
▁Applic	-11468
ivestock	-11469
▁Systems	-11470
▁Particip	-11471
▁vouchsaf	-11472
▁Extension	-11473
▁criminals	-11474
▁definitely	-11475
awan	-11476
▁WIT	-11477
▁WOR	-11478
▁hol	-11479
itime	-11480
▁Sand	-11481
▁Veda	-11482
▁mamm	-11483
reshold	-11484
▁Worlds	-11485
▁riches	-11486
▁stores	-11487
▁Sahitya	-11488
▁explore	-11489
▁mailbox	-11490
▁whereon	-11491
▁receipts	-11492
▁assistant	-11493
▁favourite	-11494
▁comparison	-11495
▁sanitation	-11496
▁Electronics	-11497
▁possessions	-11498
▁accomplished	-11499
anc	-11500
▁',	-11501
amba	-11502
fers	-11503
oints	-11504
ridge	-11505
▁Mall	-11506
▁Stock	-11507
▁ambit	-11508
▁ought	-11509
▁meters	-11510
▁random	-11511
curement	-11512
iciaries	-11513
▁columns	-11514
▁logical	-11515
▁serpent	-11516
▁upgrade	-11517
▁Question	-11518
▁deprived	-11519
▁magnetic	-11520
▁measured	-11521
▁moderate	-11522
▁suggests	-11523
NR	-11524
▁46	-11525
oshi	-11526
▁Naw	-11527
apati	-11528
ursed	-11529
▁inqu	-11530
▁Grace	-11531
▁Legal	-11532
▁Menon	-11533
▁Paste	-11534
▁hears	-11535
▁nucle	-11536
▁warri	-11537
▁explos	-11538
▁Tripura	-11539
▁dollars	-11540
▁monsoon	-11541
▁neglected	-11542
▁classified	-11543
▁liabilities	-11544
isive	-11545
▁rooms	-11546
▁Output	-11547
▁Saving	-11548
▁Following	-11549
▁Secondary	-11550
▁confirmed	-11551
▁greatness	-11552
ki	-11553
pex	-11554
▁ii	-11555
uild	-11556
▁(6)	-11557
▁aug	-11558
▁cad	-11559
▁bits	-11560
▁chol	-11561
▁creed	-11562
▁greed	-11563
emption	-11564
▁Medium	-11565
▁averse	-11566
▁calamity	-11567
▁comprehe	-11568
▁Reference	-11569
▁collecting	-11570
▁disobedient	-11571
▁entertainment	-11572
LIC	-11573
eda	-11574
some	-11575
▁50%	-11576
▁Hyd	-11577
▁Dhar	-11578
▁Feed	-11579
▁Puri	-11580
▁flav	-11581
icable	-11582
▁Cross	-11583
▁Front	-11584
▁Shait	-11585
▁accru	-11586
itaries	-11587
▁decent	-11588
▁voting	-11589
▁Mauritius	-11590
▁Palestine	-11591
▁engineers	-11592
▁factories	-11593
▁lightning	-11594
▁charitable	-11595
▁convenient	-11596
▁Enterprises	-11597
18	-11598
AA	-11599
OUR	-11600
ket	-11601
▁Tu	-11602
▁Vin	-11603
iscal	-11604
▁disb	-11605
▁Medic	-11606
▁Estate	-11607
▁excuse	-11608
hibition	-11609
▁Andaman	-11610
▁Revenue	-11611
▁existed	-11612
▁brethren	-11613
▁Territory	-11614
▁condemned	-11615
▁Horizontal	-11616
▁Partnership	-11617
▁transformed	-11618
08	-11619
ias	-11620
ibh	-11621
▁Uz	-11622
nders	-11623
▁Fran	-11624
▁indec	-11625
▁mobil	-11626
▁ninet	-11627
ternally	-11628
▁Farmers	-11629
▁clothing	-11630
▁goodwill	-11631
▁satellite	-11632
▁households	-11633
▁transition	-11634
▁Automatically	-11635
▁significantly	-11636
aki	-11637
cca	-11638
mas	-11639
only	-11640
▁Lay	-11641
▁MIN	-11642
verted	-11643
▁stern	-11644
▁armies	-11645
▁purely	-11646
▁sensit	-11647
▁Nagaland	-11648
▁predomin	-11649
▁synchron	-11650
▁Allowance	-11651
▁Terrorism	-11652
▁scientist	-11653
▁Ambassador	-11654
▁coordinate	-11655
▁disability	-11656
▁mechanical	-11657
▁nationalism	-11658
OST	-11659
▁Op	-11660
thal	-11661
▁Lin	-11662
▁Base	-11663
▁Decc	-11664
onents	-11665
▁Kalam	-11666
▁repro	-11667
▁Bhagav	-11668
▁Client	-11669
▁Reform	-11670
▁rescue	-11671
▁vested	-11672
▁anxious	-11673
▁befalls	-11674
▁compact	-11675
▁deserve	-11676
▁prolong	-11677
▁tongues	-11678
▁Portugues	-11679
▁divisions	-11680
▁intercourse	-11681
23	-11682
lis	-11683
tar	-11684
▁gh	-11685
Will	-11686
usha	-11687
▁sul	-11688
riend	-11689
▁Gran	-11690
▁Compl	-11691
▁brand	-11692
▁cheap	-11693
▁irrit	-11694
▁minim	-11695
▁tiger	-11696
▁tempor	-11697
▁Recovery	-11698
▁exposure	-11699
▁purified	-11700
▁Statement	-11701
▁abandoned	-11702
▁honourable	-11703
▁observation	-11704
▁supramental	-11705
BB	-11706
eta	-11707
held	-11708
mity	-11709
omas	-11710
ptic	-11711
wari	-11712
▁Hit	-11713
▁fur	-11714
ograp	-11715
▁Nand	-11716
▁Bless	-11717
▁INAUG	-11718
▁coffee	-11719
▁retail	-11720
Amendment	-11721
▁confused	-11722
▁differed	-11723
▁disclose	-11724
▁shortcut	-11725
▁Copyright	-11726
▁brilliant	-11727
▁nominated	-11728
gon	-11729
hal	-11730
arus	-11731
▁apt	-11732
▁ard	-11733
▁lux	-11734
▁Vall	-11735
▁enqu	-11736
▁kids	-11737
▁tang	-11738
▁Based	-11739
▁Gopal	-11740
▁Tasks	-11741
▁Tilak	-11742
▁Trash	-11743
▁chick	-11744
fortune	-11745
▁deaths	-11746
▁enrich	-11747
▁lights	-11748
remember	-11749
▁Hanuman	-11750
▁membrane	-11751
▁accepting	-11752
▁frequency	-11753
▁Production	-11754
▁undoubtedly	-11755
▁Palestinians	-11756
ajan	-11757
anim	-11758
▁Cro	-11759
▁sho	-11760
acles	-11761
▁1986	-11762
▁Desh	-11763
▁Thir	-11764
▁misd	-11765
▁stub	-11766
Script	-11767
▁clock	-11768
▁disqu	-11769
▁hyper	-11770
▁whoso	-11771
▁forged	-11772
▁loving	-11773
▁subtle	-11774
▁alleged	-11775
▁inmates	-11776
▁subtract	-11777
▁Jharkhand	-11778
▁inflation	-11779
▁renewable	-11780
▁misfortune	-11781
▁reputation	-11782
▁translator	-11783
▁vegetation	-11784
▁headquarters	-11785
▁intercession	-11786
FS	-11787
arse	-11788
ieth	-11789
andum	-11790
itter	-11791
▁Virt	-11792
▁lays	-11793
istrar	-11794
▁Oriya	-11795
▁Staff	-11796
▁Couldn	-11797
▁marble	-11798
▁Hamachi	-11799
▁similit	-11800
▁minerals	-11801
▁accompany	-11802
▁formulated	-11803
▁repository	-11804
RC	-11805
▁1)	-11806
▁Ep	-11807
▁Ya	-11808
▁ov	-11809
Your	-11810
link	-11811
gence	-11812
▁Mean	-11813
▁merc	-11814
▁poster	-11815
▁Penalty	-11816
▁orthodox	-11817
▁promoted	-11818
▁gratitude	-11819
▁horizontal	-11820
▁prevailing	-11821
▁accumulated	-11822
▁Box	-11823
▁Den	-11824
▁cows	-11825
▁Cause	-11826
▁Sikhs	-11827
▁tired	-11828
October	-11829
▁Chaluk	-11830
▁INDIAN	-11831
▁fortun	-11832
▁powder	-11833
▁Indones	-11834
▁beloved	-11835
▁conform	-11836
▁Standing	-11837
▁compound	-11838
▁earnings	-11839
▁miracles	-11840
▁mistakes	-11841
▁tendency	-11842
▁Relations	-11843
▁disregard	-11844
▁worldwide	-11845
▁mechanisms	-11846
05	-11847
EST	-11848
happ	-11849
rama	-11850
zzle	-11851
state	-11852
▁Kitt	-11853
ivided	-11854
▁Cancel	-11855
▁filing	-11856
▁harass	-11857
▁weaker	-11858
▁Copying	-11859
▁Nicobar	-11860
▁Strateg	-11861
▁buttons	-11862
▁guiding	-11863
▁inquiry	-11864
▁vibrant	-11865
▁Hospital	-11866
▁everyday	-11867
▁frequent	-11868
▁sciences	-11869
▁stressed	-11870
▁equitable	-11871
▁objection	-11872
▁reporting	-11873
▁consistent	-11874
▁acknowledge	-11875
▁humiliating	-11876
agu	-11877
▁DR	-11878
▁GT	-11879
plus	-11880
▁23.	-11881
▁AIR	-11882
▁obe	-11883
matic	-11884
▁Input	-11885
▁scrut	-11886
▁Adjust	-11887
▁coastal	-11888
unciation	-11889
▁crossing	-11890
▁justified	-11891
▁vouchsafed	-11892
▁confirmation	-11893
MOR	-11894
leep	-11895
▁Vas	-11896
▁lin	-11897
seless	-11898
▁rupee	-11899
▁buffer	-11900
▁compos	-11901
▁exempt	-11902
▁conject	-11903
▁ranging	-11904
▁monuments	-11905
▁originated	-11906
▁privileges	-11907
▁expressions	-11908
▁considerably	-11909
draw	-11910
loom	-11911
mist	-11912
otee	-11913
▁lag	-11914
▁thr	-11915
▁cher	-11916
▁ride	-11917
advant	-11918
▁spark	-11919
▁trace	-11920
▁Height	-11921
▁chains	-11922
▁sealed	-11923
▁ensured	-11924
connected	-11925
▁Creating	-11926
▁Universe	-11927
▁cautious	-11928
▁forehead	-11929
▁inherent	-11930
▁ministry	-11931
▁presently	-11932
▁wherefore	-11933
▁successors	-11934
▁neighbouring	-11935
Dep	-11936
Ver	-11937
▁Beg	-11938
▁DNA	-11939
▁Dur	-11940
▁NIT	-11941
▁glob	-11942
▁jute	-11943
▁swim	-11944
▁uter	-11945
▁wast	-11946
inding	-11947
▁Funds	-11948
▁Khand	-11949
▁capac	-11950
▁gifts	-11951
▁rains	-11952
▁widow	-11953
▁Hearer	-11954
▁enmity	-11955
▁saints	-11956
▁Manilal	-11957
▁parable	-11958
▁praises	-11959
▁reveals	-11960
▁Chancell	-11961
▁Circular	-11962
▁reconcil	-11963
▁medicinal	-11964
▁provinces	-11965
▁Portuguese	-11966
▁advantages	-11967
▁subordinate	-11968
▁preservation	-11969
fig	-11970
▁ki	-11971
▁SOC	-11972
▁SRI	-11973
▁nic	-11974
▁Dhan	-11975
▁Swit	-11976
ropical	-11977
▁argued	-11978
▁buying	-11979
▁excite	-11980
▁auction	-11981
▁driving	-11982
▁edition	-11983
▁allowing	-11984
▁governed	-11985
▁lectures	-11986
▁striking	-11987
▁wrongdoing	-11988
▁negotiations	-11989
▁beneficiaries	-11990
▁characterized	-11991
▁notifications	-11992
Tube	-11993
▁245	-11994
▁Low	-11995
agger	-11996
throp	-11997
▁fare	-11998
proofs	-11999
▁Impro	-12000
▁James	-12001
Pharaoh	-12002
▁ascend	-12003
▁hereby	-12004
▁Climate	-12005
▁deceive	-12006
▁diabetes	-12007
▁Institutes	-12008
▁affordable	-12009
▁businesses	-12010
▁fulfilment	-12011
▁substances	-12012
▁intelligent	-12013
▁limitations	-12014
1%	-12015
ec	-12016
}.	-12017
ppe	-12018
▁63	-12019
inea	-12020
oves	-12021
▁(18	-12022
reens	-12023
▁Used	-12024
▁heir	-12025
▁stir	-12026
▁vice	-12027
oultry	-12028
▁dense	-12029
▁modes	-12030
▁moist	-12031
▁Church	-12032
▁Sarasw	-12033
▁Asutosh	-12034
▁traders	-12035
▁Europeans	-12036
▁basically	-12037
▁Chandigarh	-12038
▁Democratic	-12039
▁Constituent	-12040
▁Nas	-12041
▁Ten	-12042
inety	-12043
▁Baba	-12044
▁Pars	-12045
▁cure	-12046
inions	-12047
orship	-12048
▁Empty	-12049
angular	-12050
▁Aurang	-12051
▁Higher	-12052
▁amidst	-12053
▁minded	-12054
▁Earlier	-12055
▁joining	-12056
▁revival	-12057
▁shrines	-12058
▁dominant	-12059
▁inclusion	-12060
▁surprised	-12061
▁deficiency	-12062
EB	-12063
uj	-12064
zil	-12065
▁AP	-12066
▁EN	-12067
▁GDP	-12068
▁vel	-12069
▁8859	-12070
▁COVID	-12071
▁batch	-12072
▁overs	-12073
▁rises	-12074
▁Launch	-12075
▁marine	-12076
▁Various	-12077
▁Weather	-12078
▁instant	-12079
▁scenario	-12080
▁empowered	-12081
▁exhibition	-12082
▁quantities	-12083
▁participating	-12084
:—	-12085
god	-12086
▁72	-12087
uced	-12088
▁Lol	-12089
▁Sha	-12090
atics	-12091
ersed	-12092
henna	-12093
▁1995	-12094
▁Abhi	-12095
▁brah	-12096
▁soph	-12097
▁Music	-12098
▁burnt	-12099
▁devils	-12100
▁graves	-12101
▁mirror	-12102
▁Specify	-12103
▁crossed	-12104
▁Singapore	-12105
▁meaningful	-12106
▁Conservation	-12107
raj	-12108
itage	-12109
▁curt	-12110
▁gran	-12111
▁Draft	-12112
▁Final	-12113
▁VISIT	-12114
▁Write	-12115
▁hindi	-12116
▁manip	-12117
▁rarely	-12118
▁alcohol	-12119
▁earnest	-12120
▁magazine	-12121
▁reliable	-12122
▁conceived	-12123
▁exercised	-12124
▁hospitals	-12125
▁jewellery	-12126
▁qualified	-12127
▁somewhere	-12128
▁boundaries	-12129
▁prohibited	-12130
▁controlling	-12131
▁distinguish	-12132
▁intervention	-12133
▁translations	-12134
Con	-12135
dens	-12136
▁(23	-12137
▁CVS	-12138
▁Norm	-12139
▁Sach	-12140
▁Upon	-12141
intend	-12142
▁oceans	-12143
▁topics	-12144
▁shifted	-12145
▁governing	-12146
▁Federation	-12147
▁statistics	-12148
DL	-12149
RD	-12150
poly	-12151
rage	-12152
▁(10	-12153
▁Hel	-12154
aimed	-12155
▁1970	-12156
▁Gall	-12157
▁sung	-12158
▁Latin	-12159
▁Might	-12160
▁cruel	-12161
▁Castes	-12162
▁breach	-12163
▁propri	-12164
December	-12165
▁Success	-12166
▁harness	-12167
▁hostile	-12168
▁stretch	-12169
▁Chemical	-12170
▁encoding	-12171
▁reflects	-12172
▁intensive	-12173
▁proceeded	-12174
▁repayment	-12175
▁Collection	-12176
▁discretion	-12177
▁publishing	-12178
▁subscriber	-12179
▁Cooperative	-12180
▁Territories	-12181
▁acknowledged	-12182
'%	-12183
due	-12184
▁1%	-12185
rose	-12186
vity	-12187
▁184	-12188
▁Loc	-12189
▁cel	-12190
▁'{0}	-12191
▁2018	-12192
▁Venk	-12193
▁worn	-12194
ancies	-12195
eshwar	-12196
▁Issue	-12197
▁Owner	-12198
▁likes	-12199
▁nutri	-12200
▁Recent	-12201
▁scales	-12202
▁steady	-12203
▁Freedom	-12204
▁Summary	-12205
▁custody	-12206
▁reverse	-12207
▁emotions	-12208
▁Commercial	-12209
▁thoroughly	-12210
WA	-12211
wah	-12212
asse	-12213
olve	-12214
osph	-12215
rise	-12216
▁Lut	-12217
▁awe	-12218
▁mol	-12219
▁tit	-12220
ercul	-12221
▁Room	-12222
▁Symb	-12223
▁torn	-12224
▁Hamas	-12225
▁Words	-12226
▁parse	-12227
▁relax	-12228
▁tract	-12229
▁Deccan	-12230
▁Lolita	-12231
▁cavity	-12232
▁pillar	-12233
▁corners	-12234
▁critics	-12235
▁foolish	-12236
▁Wildlife	-12237
▁removing	-12238
▁spectrum	-12239
▁approached	-12240
▁biological	-12241
▁describing	-12242
▁dignitaries	-12243
▁recommendation	-12244
imp	-12245
▁92	-12246
▁Oly	-12247
▁Ren	-12248
ropri	-12249
▁Mahe	-12250
▁Sust	-12251
▁zeal	-12252
ortion	-12253
▁owing	-12254
▁smell	-12255
pported	-12256
regular	-12257
▁Almast	-12258
▁homage	-12259
▁traged	-12260
▁walked	-12261
▁Gehenna	-12262
▁burdens	-12263
▁leaflet	-12264
▁clusters	-12265
▁enduring	-12266
▁departure	-12267
▁systematic	-12268
sis	-12269
▁99	-12270
▁KB	-12271
▁PL	-12272
▁Yah	-12273
▁adds	-12274
aduate	-12275
cience	-12276
▁Graph	-12277
▁Label	-12278
▁jihad	-12279
▁necks	-12280
▁shops	-12281
▁backup	-12282
▁cabinet	-12283
▁mortgage	-12284
▁Marketing	-12285
▁continent	-12286
“%	-12287
anz	-12288
hem	-12289
uda	-12290
▁Kat	-12291
▁Mrs	-12292
▁umb	-12293
anchi	-12294
rates	-12295
▁"{0}	-12296
▁sail	-12297
▁stip	-12298
usions	-12299
▁Chrom	-12300
▁Mexic	-12301
▁embry	-12302
▁fancy	-12303
▁renow	-12304
ictions	-12305
istical	-12306
▁Believe	-12307
▁Website	-12308
▁YouTube	-12309
▁delicate	-12310
▁credential	-12311
▁devotional	-12312
▁Commonwealth	-12313
VAN	-12314
esa	-12315
fly	-12316
Hind	-12317
juna	-12318
▁Bug	-12319
▁Yog	-12320
orest	-12321
▁Cave	-12322
▁FROM	-12323
▁idle	-12324
▁neut	-12325
▁peas	-12326
rupted	-12327
▁Sanct	-12328
▁abuse	-12329
▁blast	-12330
ruption	-12331
▁infant	-12332
▁ranges	-12333
▁statue	-12334
▁illiter	-12335
▁miracle	-12336
▁Advisory	-12337
▁Heritage	-12338
▁decrease	-12339
▁supplies	-12340
▁Scientific	-12341
▁underlying	-12342
▁orientation	-12343
▁associations	-12344
':	-12345
'?	-12346
orph	-12347
▁HIV	-12348
▁Kaz	-12349
▁Pil	-12350
▁raj	-12351
▁ram	-12352
iency	-12353
▁Calc	-12354
erated	-12355
▁Saint	-12356
▁annum	-12357
▁globe	-12358
▁tends	-12359
▁cement	-12360
▁dances	-12361
▁gender	-12362
▁impose	-12363
▁tranqu	-12364
▁verify	-12365
▁Shaitan	-12366
▁asunder	-12367
▁mislead	-12368
▁Continue	-12369
▁Function	-12370
▁Memorial	-12371
▁medieval	-12372
▁Documents	-12373
▁directors	-12374
▁regulatory	-12375
▁nationalist	-12376
▁Distribution	-12377
▁manufactured	-12378
Ms	-12379
▁OK	-12380
▁800	-12381
▁FDI	-12382
▁Gop	-12383
▁Ice	-12384
▁tob	-12385
essed	-12386
▁sect	-12387
▁Italy	-12388
▁decre	-12389
▁score	-12390
osystem	-12391
▁Kittur	-12392
▁inward	-12393
▁spaces	-12394
▁throat	-12395
▁Empathy	-12396
▁clauses	-12397
▁founder	-12398
▁disadvant	-12399
▁introduce	-12400
▁literally	-12401
▁particles	-12402
▁treasures	-12403
▁autonomous	-12404
▁Communication	-12405
EA	-12406
▁Ta	-12407
▁eg	-12408
▁Abu	-12409
▁Van	-12410
adequ	-12411
roots	-12412
▁MAPI	-12413
▁Maul	-12414
▁conj	-12415
▁lips	-12416
ioxide	-12417
▁Armed	-12418
▁crash	-12419
▁wombs	-12420
icating	-12421
▁confer	-12422
▁hollow	-12423
▁Witness	-12424
izational	-12425
▁absorbed	-12426
▁foremost	-12427
▁conception	-12428
";	-12429
200	-12430
achh	-12431
ourn	-12432
rium	-12433
▁22.	-12434
▁Sep	-12435
▁Tea	-12436
riday	-12437
▁Coll	-12438
▁Srin	-12439
▁deer	-12440
ananda	-12441
▁Coast	-12442
▁accur	-12443
▁drain	-12444
Abraham	-12445
▁Corona	-12446
▁breaks	-12447
▁patent	-12448
▁Burning	-12449
▁Country	-12450
▁Cricket	-12451
▁Deposit	-12452
▁staying	-12453
▁worried	-12454
▁boundary	-12455
▁template	-12456
▁disobeyed	-12457
▁envisaged	-12458
▁slaughter	-12459
▁uncertain	-12460
▁amendments	-12461
▁dictionary	-12462
▁dimensions	-12463
▁27,	-12464
▁Pul	-12465
ierce	-12466
▁Fear	-12467
▁cant	-12468
▁Games	-12469
▁Imper	-12470
▁alert	-12471
▁haven	-12472
▁nodal	-12473
▁smile	-12474
▁modest	-12475
▁sphere	-12476
▁condemn	-12477
▁ideology	-12478
▁offences	-12479
▁Political	-12480
▁ancestors	-12481
▁conflicts	-12482
▁grievance	-12483
▁shoulders	-12484
▁determines	-12485
▁popularity	-12486
▁Examination	-12487
By	-12488
cus	-12489
arct	-12490
▁17,	-12491
▁Shu	-12492
▁upl	-12493
eline	-12494
liant	-12495
▁1974	-12496
▁tort	-12497
▁2000.	-12498
▁exempl	-12499
▁sender	-12500
▁devotee	-12501
▁envelop	-12502
▁nursing	-12503
▁Internal	-12504
▁accorded	-12505
▁Panchayat	-12506
▁expensive	-12507
▁strategies	-12508
▁arbitration	-12509
▁collections	-12510
▁Introduction	-12511
▁psychological	-12512
▁relationships	-12513
EX	-12514
abs	-12515
him	-12516
▁iv	-12517
abil	-12518
adhy	-12519
thood	-12520
those	-12521
▁Alph	-12522
▁wash	-12523
▁debts	-12524
▁decay	-12525
▁steep	-12526
▁Thomas	-12527
aternity	-12528
▁updates	-12529
omination	-12530
▁Provision	-12531
▁subsidiary	-12532
▁Unbelievers	-12533
▁resurrection	-12534
▁rehabilitation	-12535
iety	-12536
such	-12537
▁INS	-12538
▁1957	-12539
▁brid	-12540
▁nour	-12541
Verily	-12542
▁arrow	-12543
▁craft	-12544
▁pests	-12545
▁postp	-12546
▁federal	-12547
▁provider	-12548
▁sickness	-12549
▁Inspector	-12550
▁sponsored	-12551
▁suspended	-12552
▁impressive	-12553
▁controversy	-12554
24	-12555
▁1:	-12556
▁MB	-12557
asim	-12558
▁Bij	-12559
▁Ell	-12560
anmar	-12561
doers	-12562
▁Taur	-12563
▁chap	-12564
▁gene	-12565
▁grid	-12566
▁ware	-12567
idding	-12568
▁Emerg	-12569
▁Mahav	-12570
▁Maybe	-12571
▁Saroj	-12572
▁Valid	-12573
▁climb	-12574
▁shirt	-12575
▁trains	-12576
▁undergo	-12577
idespread	-12578
▁abstract	-12579
▁retained	-12580
▁delighted	-12581
▁undivided	-12582
▁attraction	-12583
▁compromise	-12584
▁coordination	-12585
▁inflammation	-12586
▁substantially	-12587
3)	-12588
awn	-12589
ito	-12590
▁BS	-12591
▁Mc	-12592
▁23,	-12593
▁bod	-12594
▁Infl	-12595
▁hang	-12596
▁jung	-12597
▁slip	-12598
▁caves	-12599
▁deput	-12600
▁Little	-12601
▁oppose	-12602
▁dancing	-12603
fortunate	-12604
▁wildlife	-12605
▁transcend	-12606
▁sentiments	-12607
▁manuscripts	-12608
▁researchers	-12609
INK	-12610
awa	-12611
kay	-12612
▁07	-12613
▁CE	-12614
▁Eat	-12615
atable	-12616
▁Gandh	-12617
▁liked	-12618
▁Attend	-12619
▁casual	-12620
▁speedy	-12621
▁tobacco	-12622
ferencing	-12623
▁Everyone	-12624
▁pressing	-12625
▁shortage	-12626
▁transmit	-12627
▁breathing	-12628
▁certainty	-12629
▁clearance	-12630
▁attributes	-12631
▁hospitality	-12632
rot	-12633
▁Hen	-12634
▁eco	-12635
TINGS	-12636
heast	-12637
resent	-12638
▁Surya	-12639
▁fract	-12640
▁plead	-12641
▁prede	-12642
▁sects	-12643
▁Notice	-12644
▁senses	-12645
isheries	-12646
▁painted	-12647
▁surgical	-12648
▁Encryption	-12649
May	-12650
uts	-12651
ints	-12652
urna	-12653
▁Alt	-12654
▁Ran	-12655
unath	-12656
▁Amit	-12657
▁Capt	-12658
▁Near	-12659
▁erad	-12660
asaheb	-12661
▁Kisan	-12662
▁dying	-12663
▁emigr	-12664
▁incap	-12665
▁popup	-12666
▁preca	-12667
▁sperm	-12668
▁Series	-12669
▁Sports	-12670
▁beware	-12671
▁infect	-12672
▁judged	-12673
▁heavily	-12674
▁ongoing	-12675
▁canceled	-12676
▁commemor	-12677
▁expelled	-12678
▁husbands	-12679
▁inclined	-12680
▁producer	-12681
▁impressed	-12682
▁nutrition	-12683
▁magnificent	-12684
▁laboratories	-12685
GR	-12686
ORT	-12687
bat	-12688
nat	-12689
acts	-12690
atta	-12691
▁250	-12692
▁Fav	-12693
▁NIOS	-12694
inence	-12695
▁meets	-12696
▁skins	-12697
▁Compet	-12698
▁revive	-12699
▁Myanmar	-12700
▁ceiling	-12701
▁surplus	-12702
▁sleeping	-12703
▁utilization	-12704
aba	-12705
▁AR	-12706
▁OS	-12707
▁ow	-12708
aunt	-12709
riel	-12710
▁Imm	-12711
▁RTI	-12712
▁Rub	-12713
llers	-12714
▁disl	-12715
pensed	-12716
ployed	-12717
▁guest	-12718
▁locked	-12719
▁trends	-12720
▁grammar	-12721
▁Database	-12722
▁graduate	-12723
▁isolated	-12724
▁journals	-12725
▁Character	-12726
▁considers	-12727
▁respected	-12728
▁responded	-12729
▁Programmes	-12730
▁capacities	-12731
▁telecommun	-12732
▁comfortable	-12733
▁recompensed	-12734
PR	-12735
adha	-12736
▁18.	-12737
▁Navy	-12738
▁lean	-12739
▁mask	-12740
▁unav	-12741
▁Range	-12742
▁champ	-12743
▁Reload	-12744
▁Yamuna	-12745
▁astron	-12746
▁viable	-12747
▁Printer	-12748
▁conserv	-12749
▁fasting	-12750
▁strikes	-12751
▁obstruct	-12752
▁taxation	-12753
▁contracts	-12754
▁disappear	-12755
▁practised	-12756
▁committees	-12757
▁laboratory	-12758
▁vulnerable	-12759
▁reservation	-12760
iro	-12761
vag	-12762
oria	-12763
rass	-12764
▁18,	-12765
▁Fax	-12766
adhan	-12767
▁Alex	-12768
▁Labor	-12769
▁boast	-12770
▁exalt	-12771
▁harsh	-12772
▁liver	-12773
▁quote	-12774
▁Result	-12775
▁Volume	-12776
▁ninety	-12777
▁obeyed	-12778
▁portra	-12779
▁Michael	-12780
▁Atlantic	-12781
▁Philosop	-12782
▁alphabet	-12783
▁equipped	-12784
▁Signature	-12785
▁affecting	-12786
▁Entreprene	-12787
▁advancement	-12788
%)	-12789
02	-12790
_0	-12791
emon	-12792
itic	-12793
▁Fif	-12794
opard	-12795
payee	-12796
ringe	-12797
▁Scan	-12798
utable	-12799
▁AWARD	-12800
▁Salat	-12801
▁brack	-12802
▁lover	-12803
▁tyran	-12804
▁1-4-19	-12805
▁beasts	-12806
▁Folders	-12807
▁assault	-12808
▁gallery	-12809
▁kitchen	-12810
▁conclude	-12811
▁labourers	-12812
▁neighbours	-12813
Wh	-12814
uds	-12815
▁09	-12816
alim	-12817
oded	-12818
▁Nuh	-12819
▁SEL	-12820
ardly	-12821
▁gang	-12822
▁Grant	-12823
▁Sound	-12824
▁bench	-12825
fearing	-12826
▁Bhopal	-12827
▁marvel	-12828
▁robust	-12829
▁tracks	-12830
▁Opening	-12831
▁bellies	-12832
▁confront	-12833
▁Currently	-12834
▁prejudice	-12835
▁compliment	-12836
▁reflection	-12837
▁unfortunate	-12838
▁classification	-12839
▁24,	-12840
▁Bat	-12841
▁Jat	-12842
▁hem	-12843
▁rum	-12844
▁tie	-12845
▁Arts	-12846
▁ours	-12847
▁turm	-12848
▁conse	-12849
▁Belarus	-12850
▁availed	-12851
▁Assamese	-12852
▁disposed	-12853
▁touching	-12854
▁Hindustani	-12855
▁cultivated	-12856
▁Everlasting	-12857
▁denominator	-12858
▁legislature	-12859
GN	-12860
▁Mi	-12861
adra	-12862
ayat	-12863
wait	-12864
▁17.	-12865
▁28,	-12866
words	-12867
▁fart	-12868
drawal	-12869
▁Wealth	-12870
▁Extract	-12871
▁density	-12872
▁sanctum	-12873
▁superst	-12874
▁tragedy	-12875
erculosis	-12876
▁Brahmins	-12877
▁Rajendra	-12878
cellaneous	-12879
▁Telephone	-12880
▁compelled	-12881
▁desirable	-12882
▁passenger	-12883
▁Addressing	-12884
▁Dictionary	-12885
▁widespread	-12886
▁notwithstanding	-12887
26	-12888
▁53	-12889
▁VA	-12890
▁Hom	-12891
▁Jal	-12892
▁bot	-12893
▁100%	-12894
▁1989	-12895
▁Dise	-12896
▁asks	-12897
▁lend	-12898
▁Areas	-12899
▁edges	-12900
▁laden	-12901
▁spots	-12902
▁stiff	-12903
▁unpre	-12904
▁2016).	-12905
▁Letter	-12906
▁devour	-12907
▁ticket	-12908
▁consume	-12909
▁Egyptian	-12910
▁Southern	-12911
▁Starting	-12912
▁ornament	-12913
▁Important	-12914
▁Vaishnava	-12915
▁exemption	-12916
▁livestock	-12917
▁diplomatic	-12918
▁structural	-12919
▁everlasting	-12920
Tax	-12921
haz	-12922
▁Dial	-12923
▁Bhatt	-12924
▁Ghosh	-12925
▁Padma	-12926
▁Using	-12927
▁verte	-12928
▁floral	-12929
▁scenes	-12930
itations	-12931
▁Restore	-12932
▁centers	-12933
▁filling	-12934
▁Vajpayee	-12935
▁forgives	-12936
▁Champions	-12937
▁Socialist	-12938
▁emergence	-12939
▁Panchayats	-12940
▁linguistic	-12941
▁-%	-12942
berg	-12943
etch	-12944
mael	-12945
▁Sus	-12946
▁auto	-12947
▁Early	-12948
▁Still	-12949
▁Style	-12950
▁icons	-12951
▁phrase	-12952
ndranath	-12953
▁Gandhar	-12954
▁inadequ	-12955
▁issuing	-12956
▁applying	-12957
▁username	-12958
▁Premchand	-12959
▁furniture	-12960
▁hostility	-12961
▁authorized	-12962
▁variations	-12963
▁Convocation	-12964
▁Unfortunately	-12965
FIC	-12966
ASHT	-12967
▁21,	-12968
▁gal	-12969
▁fame	-12970
▁sync	-12971
others	-12972
▁Rober	-12973
▁naked	-12974
▁urine	-12975
▁reserv	-12976
cedented	-12977
▁Between	-12978
▁cluster	-12979
▁dioxide	-12980
▁expects	-12981
▁permits	-12982
▁Bookmark	-12983
▁Himalaya	-12984
▁Sarojini	-12985
▁professor	-12986
▁recruitment	-12987
▁correspondence	-12988
eg	-12989
okh	-12990
▁95	-12991
▁BE	-12992
idas	-12993
rics	-12994
uven	-12995
▁Nal	-12996
▁Wal	-12997
▁jun	-12998
ECTED	-12999
▁Forb	-13000
▁Step	-13001
▁Wood	-13002
▁hier	-13003
▁lift	-13004
▁yoga	-13005
ailing	-13006
rapped	-13007
▁autoc	-13008
▁eaten	-13009
▁shore	-13010
▁Others	-13011
▁binary	-13012
▁portal	-13013
▁solved	-13014
▁valued	-13015
missible	-13016
▁counted	-13017
▁warming	-13018
▁winners	-13019
▁adjustment	-13020
▁expectations	-13021
ART	-13022
IDS	-13023
▁Vr	-13024
▁ol	-13025
alih	-13026
arts	-13027
yers	-13028
▁cyl	-13029
avati	-13030
indra	-13031
▁Mass	-13032
▁NGOs	-13033
▁Pain	-13034
▁dairy	-13035
▁embod	-13036
▁Ganesh	-13037
▁Jinnah	-13038
▁rhythm	-13039
▁Arabian	-13040
▁textile	-13041
▁detected	-13042
▁landlord	-13043
▁Pollution	-13044
▁encrypted	-13045
▁measurement	-13046
▁supervision	-13047
▁irrespective	-13048
▁reconstruction	-13049
45	-13050
apu	-13051
lah	-13052
▁Ga	-13053
arna	-13054
aryn	-13055
lings	-13056
▁Prak	-13057
▁barg	-13058
▁inex	-13059
ifully	-13060
inates	-13061
▁acres	-13062
▁canal	-13063
▁spare	-13064
▁toile	-13065
▁walks	-13066
▁Poresh	-13067
▁deceit	-13068
▁finest	-13069
▁viewed	-13070
▁voices	-13071
National	-13072
▁pressed	-13073
▁unbelief	-13074
▁oppressed	-13075
▁meditation	-13076
▁implications	-13077
9)	-13078
Had	-13079
adas	-13080
ilst	-13081
lves	-13082
▁09.	-13083
▁1976	-13084
▁Ball	-13085
▁aston	-13086
▁embed	-13087
▁grasp	-13088
▁spont	-13089
▁terra	-13090
▁Answer	-13091
▁Intell	-13092
▁hungry	-13093
ursement	-13094
▁Channel	-13095
▁Lakshmi	-13096
▁expired	-13097
▁varying	-13098
▁preceded	-13099
▁reviewed	-13100
▁writable	-13101
▁Registrar	-13102
▁attempted	-13103
▁publicity	-13104
polytheists	-13105
▁challenged	-13106
▁encryption	-13107
▁Educational	-13108
▁manufacturers	-13109
mm	-13110
sm	-13111
▁PC	-13112
babu	-13113
keys	-13114
▁Dog	-13115
▁GOV	-13116
▁Tub	-13117
ocity	-13118
▁bowl	-13119
▁wasn	-13120
......	-13121
asagar	-13122
▁Phase	-13123
▁knees	-13124
▁trunk	-13125
entures	-13126
uctions	-13127
▁Origin	-13128
▁camels	-13129
▁intens	-13130
▁kidney	-13131
▁lawyer	-13132
▁strait	-13133
ventions	-13134
▁airport	-13135
▁intends	-13136
▁Register	-13137
▁borrowed	-13138
▁assurance	-13139
▁producers	-13140
▁circulation	-13141
BM	-13142
aws	-13143
rons	-13144
▁SID	-13145
▁fol	-13146
igate	-13147
▁Pant	-13148
▁grey	-13149
▁pars	-13150
▁wars	-13151
ilated	-13152
▁Ahmad	-13153
▁Brows	-13154
▁Units	-13155
casting	-13156
▁Krishn	-13157
▁bureau	-13158
▁indian	-13159
▁unfair	-13160
▁INAUGUR	-13161
▁Italian	-13162
▁emperor	-13163
▁holders	-13164
▁hunting	-13165
▁survival	-13166
▁Bookmarks	-13167
▁favourable	-13168
▁imperative	-13169
06	-13170
PCL	-13171
Reg	-13172
spe	-13173
▁0,	-13174
▁52	-13175
pled	-13176
reth	-13177
▁Fun	-13178
▁Row	-13179
▁Wis	-13180
▁ups	-13181
acent	-13182
faces	-13183
inees	-13184
▁(2),	-13185
▁Tree	-13186
▁coat	-13187
▁laud	-13188
▁lump	-13189
lisher	-13190
▁Preet	-13191
▁annoy	-13192
▁veter	-13193
▁votes	-13194
▁Living	-13195
▁Package	-13196
▁Seminar	-13197
▁Welcome	-13198
▁discont	-13199
▁hearted	-13200
▁swallow	-13201
▁Comments	-13202
▁rotation	-13203
▁providers	-13204
▁relevance	-13205
▁successor	-13206
▁Withdrawal	-13207
▁successive	-13208
▁electronics	-13209
,.	-13210
vii	-13211
Wise	-13212
roid	-13213
▁nit	-13214
▁1960	-13215
▁Amar	-13216
▁cycl	-13217
estone	-13218
ivable	-13219
▁Recom	-13220
▁revol	-13221
▁Method	-13222
▁Single	-13223
▁cosmic	-13224
▁define	-13225
▁eighth	-13226
▁reiter	-13227
▁appeals	-13228
eneration	-13229
▁Absolute	-13230
▁Highness	-13231
▁refugees	-13232
▁Operation	-13233
▁wandering	-13234
▁surprising	-13235
▁Appointment	-13236
▁Du	-13237
brid	-13238
oths	-13239
▁Jab	-13240
▁PDF	-13241
utter	-13242
▁1988	-13243
▁GREE	-13244
▁Pict	-13245
▁fron	-13246
▁gram	-13247
illary	-13248
ometry	-13249
raisal	-13250
▁Claim	-13251
▁Given	-13252
▁Leban	-13253
▁Verma	-13254
▁pitch	-13255
▁waist	-13256
▁unwill	-13257
▁Sending	-13258
▁onwards	-13259
▁strayed	-13260
fficiency	-13261
▁Creation	-13262
▁advocate	-13263
▁favoured	-13264
▁fourteen	-13265
▁incoming	-13266
▁Architect	-13267
▁measuring	-13268
▁passwords	-13269
▁sanctuary	-13270
▁Settlement	-13271
▁committing	-13272
▁limitation	-13273
▁administered	-13274
▁announcement	-13275
▁facilitating	-13276
▁documentation	-13277
erk	-13278
▁SW	-13279
gian	-13280
iser	-13281
▁28.	-13282
▁Niz	-13283
▁Sex	-13284
▁imb	-13285
▁oct	-13286
erson	-13287
iatic	-13288
▁boot	-13289
MORROW	-13290
▁rival	-13291
▁sorry	-13292
▁tenth	-13293
▁Guinea	-13294
▁Instru	-13295
▁Prompt	-13296
▁Target	-13297
▁admire	-13298
▁pollut	-13299
▁uncons	-13300
▁unhapp	-13301
▁guarded	-13302
▁servers	-13303
▁suicide	-13304
▁TOMORROW	-13305
▁misdeeds	-13306
▁Saraswati	-13307
▁conspiracy	-13308
▁fabricated	-13309
▁pronounced	-13310
▁disbelieving	-13311
")	-13312
04	-13313
olly	-13314
quer	-13315
▁22,	-13316
▁Ult	-13317
erver	-13318
hered	-13319
range	-13320
▁Dutt	-13321
▁Grow	-13322
▁Hold	-13323
▁Sale	-13324
▁lone	-13325
▁webs	-13326
▁MSMEs	-13327
▁finish	-13328
▁Ancient	-13329
▁Virtual	-13330
▁chronic	-13331
▁portray	-13332
▁praised	-13333
▁suppose	-13334
▁unusual	-13335
▁Amritsar	-13336
▁Imperial	-13337
▁interven	-13338
▁versions	-13339
▁Meghalaya	-13340
▁proclaimed	-13341
▁surrendered	-13342
▁constructive	-13343
SH	-13344
cane	-13345
iban	-13346
▁Bez	-13347
▁Sor	-13348
▁Ange	-13349
▁Drug	-13350
▁Sent	-13351
Surely	-13352
▁Quick	-13353
▁Spain	-13354
▁Syria	-13355
▁cough	-13356
▁teams	-13357
▁vocal	-13358
▁Player	-13359
▁babies	-13360
▁eighty	-13361
▁weekly	-13362
jections	-13363
▁Antarct	-13364
▁crooked	-13365
▁oneness	-13366
September	-13367
▁strictly	-13368
▁adversity	-13369
▁ecosystem	-13370
▁pursuance	-13371
▁grassroots	-13372
▁indicating	-13373
▁condolences	-13374
▁resurrected	-13375
▁unprecedented	-13376
eor	-13377
jid	-13378
wad	-13379
Appe	-13380
case	-13381
outs	-13382
pace	-13383
▁Rul	-13384
print	-13385
▁Break	-13386
▁evils	-13387
▁shoes	-13388
▁spray	-13389
ilitary	-13390
ipation	-13391
▁Excise	-13392
▁ethnic	-13393
▁herein	-13394
▁Nanalal	-13395
▁discipl	-13396
▁rewards	-13397
▁Keyboard	-13398
▁Resident	-13399
▁kilogram	-13400
▁segments	-13401
▁agitation	-13402
▁configure	-13403
▁electoral	-13404
▁identical	-13405
▁aggression	-13406
▁practically	-13407
▁disabilities	-13408
07	-13409
URE	-13410
▁79	-13411
▁IV	-13412
▁MD	-13413
▁NS	-13414
▁na	-13415
▁26,	-13416
▁ven	-13417
arman	-13418
break	-13419
odhya	-13420
▁Anti	-13421
▁Deleg	-13422
▁penit	-13423
▁rites	-13424
▁County	-13425
▁actors	-13426
▁revolt	-13427
▁safely	-13428
▁wholes	-13429
▁signals	-13430
▁watched	-13431
▁deducted	-13432
▁turnover	-13433
▁recipient	-13434
▁priorities	-13435
▁foundations	-13436
▁satisfactory	-13437
vy	-13438
fix	-13439
gic	-13440
ocus	-13441
▁Mel	-13442
▁Rom	-13443
▁spo	-13444
▁Atal	-13445
▁Case	-13446
▁Fast	-13447
▁atom	-13448
▁tent	-13449
▁Price	-13450
▁avert	-13451
▁Sunday	-13452
▁sevent	-13453
▁styles	-13454
umerable	-13455
▁Century	-13456
▁Collect	-13457
▁Customs	-13458
▁battery	-13459
▁constra	-13460
▁dreadful	-13461
▁recalled	-13462
▁Democracy	-13463
▁Generally	-13464
▁Meanwhile	-13465
▁acquiring	-13466
▁adornment	-13467
▁adventure	-13468
▁instances	-13469
▁secretary	-13470
▁attainment	-13471
▁distressed	-13472
▁legitimate	-13473
▁neighbourhood	-13474
IAL	-13475
occ	-13476
opl	-13477
when	-13478
▁27.	-13479
▁ANN	-13480
▁odd	-13481
▁tin	-13482
aksha	-13483
arium	-13484
class	-13485
ropol	-13486
▁hate	-13487
▁knot	-13488
▁veil	-13489
▁Joshi	-13490
▁curve	-13491
▁enfor	-13492
▁nemat	-13493
atching	-13494
ighters	-13495
▁faults	-13496
▁pagans	-13497
▁tenure	-13498
▁Profile	-13499
▁storing	-13500
▁whereby	-13501
▁Citizens	-13502
▁flexible	-13503
▁prestige	-13504
▁disturbed	-13505
▁inherited	-13506
▁sentiment	-13507
▁workshops	-13508
▁accomplish	-13509
▁configured	-13510
▁economically	-13511
DS	-13512
dar	-13513
▁VI	-13514
bert	-13515
gone	-13516
leys	-13517
▁19,	-13518
▁Gaza	-13519
▁rehe	-13520
ASHTRA	-13521
umbent	-13522
ussion	-13523
▁Manik	-13524
▁heirs	-13525
▁paste	-13526
▁larvae	-13527
▁mystic	-13528
▁sample	-13529
alendars	-13530
▁Masters	-13531
▁couches	-13532
▁deniers	-13533
▁generic	-13534
▁greeted	-13535
▁seventh	-13536
▁Physical	-13537
▁assisted	-13538
▁similarly	-13539
▁Sufficient	-13540
▁amalgamation	-13541
▁improvements	-13542
75	-13543
Tr	-13544
Res	-13545
▁""	-13546
▁68	-13547
good	-13548
▁20.	-13549
opter	-13550
▁epid	-13551
▁slot	-13552
▁Items	-13553
▁array	-13554
▁artic	-13555
▁cable	-13556
▁fibre	-13557
▁roles	-13558
▁Ravana	-13559
▁breeds	-13560
▁misery	-13561
▁Product	-13562
▁Reading	-13563
▁Respons	-13564
▁dismissed	-13565
▁irregular	-13566
▁perfectly	-13567
▁rejection	-13568
▁dissolution	-13569
NS	-13570
-200	-13571
cery	-13572
▁kms	-13573
rator	-13574
ursor	-13575
▁COMM	-13576
▁Rand	-13577
before	-13578
terior	-13579
▁Devan	-13580
▁Varma	-13581
▁desce	-13582
▁inequ	-13583
▁sever	-13584
▁sulph	-13585
▁2015).	-13586
▁Celebr	-13587
▁Simple	-13588
▁losing	-13589
▁repaid	-13590
▁riding	-13591
▁remarks	-13592
▁shining	-13593
▁somehow	-13594
▁bookmark	-13595
▁destined	-13596
▁militant	-13597
▁socialism	-13598
▁apparently	-13599
▁upgradation	-13600
▁compositions	-13601
▁interference	-13602
▁transgression	-13603
po	-13604
TIC	-13605
ahi	-13606
▁PS	-13607
ATED	-13608
Come	-13609
▁26.	-13610
▁Gul	-13611
▁Nil	-13612
▁tip	-13613
▁yes	-13614
ertil	-13615
▁Acqu	-13616
▁Deal	-13617
▁Sens	-13618
▁amen	-13619
▁beds	-13620
▁begg	-13621
▁garb	-13622
▁heap	-13623
▁prox	-13624
▁recl	-13625
rating	-13626
▁BIHAR	-13627
▁Tools	-13628
▁dried	-13629
▁enric	-13630
▁monop	-13631
▁panch	-13632
riminal	-13633
▁Altern	-13634
▁Perman	-13635
▁Tender	-13636
▁Verses	-13637
▁fiscal	-13638
▁Jubilee	-13639
▁embrace	-13640
▁Learning	-13641
▁Terminal	-13642
▁greeting	-13643
▁listened	-13644
▁maternal	-13645
▁momentum	-13646
▁victorious	-13647
▁pharmaceutical	-13648
bi	-13649
dh	-13650
ORE	-13651
UNT	-13652
▁41	-13653
▁58	-13654
▁Es	-13655
▁GU	-13656
aser	-13657
▁Fit	-13658
▁Neg	-13659
▁ink	-13660
Satan	-13661
cular	-13662
▁1994	-13663
▁Jack	-13664
▁Magn	-13665
▁anch	-13666
rolled	-13667
▁Module	-13668
▁Python	-13669
▁ceased	-13670
▁Machine	-13671
▁Prakrit	-13672
▁ascetic	-13673
▁carrier	-13674
▁denying	-13675
▁scatter	-13676
▁tension	-13677
▁globally	-13678
▁Different	-13679
▁godfearing	-13680
▁influences	-13681
▁computation	-13682
▁enlightened	-13683
PN	-13684
bhar	-13685
cede	-13686
igue	-13687
▁700	-13688
odder	-13689
orage	-13690
▁Cash	-13691
▁Milk	-13692
▁Pray	-13693
▁Repe	-13694
▁pond	-13695
eneral	-13696
iketan	-13697
rified	-13698
▁Korea	-13699
▁illum	-13700
▁Ananda	-13701
▁Boards	-13702
▁campus	-13703
▁cinema	-13704
▁pulses	-13705
▁remedy	-13706
▁verbal	-13707
▁ethical	-13708
▁mandate	-13709
▁smoking	-13710
▁Contents	-13711
▁municipal	-13712
▁Translation	-13713
▁exceptional	-13714
▁collectively	-13715
DC	-13716
▁74	-13717
asha	-13718
▁08.	-13719
▁Heb	-13720
areth	-13721
▁tale	-13722
▁tune	-13723
leness	-13724
rition	-13725
▁Theme	-13726
▁embar	-13727
▁lakes	-13728
▁shalt	-13729
▁shoot	-13730
▁sword	-13731
▁Brazil	-13732
▁Martin	-13733
▁asleep	-13734
▁contra	-13735
▁pearls	-13736
▁seller	-13737
▁storey	-13738
▁dialect	-13739
▁threats	-13740
penditure	-13741
▁infected	-13742
▁opinions	-13743
▁Provinces	-13744
▁copyright	-13745
▁occurring	-13746
▁petroleum	-13747
▁acquainted	-13748
IND	-13749
ayya	-13750
city	-13751
udal	-13752
▁nay	-13753
posed	-13754
stein	-13755
alinga	-13756
▁Goods	-13757
▁Iblis	-13758
▁lymph	-13759
▁thumb	-13760
▁treas	-13761
quisite	-13762
▁Backup	-13763
▁GOVERN	-13764
▁Prayer	-13765
▁varies	-13766
▁Archive	-13767
▁Finland	-13768
▁compens	-13769
▁dropped	-13770
▁sorcery	-13771
▁paradise	-13772
▁pleasing	-13773
▁swelling	-13774
▁vegetable	-13775
▁Magistrate	-13776
▁curriculum	-13777
▁instituted	-13778
▁kilometres	-13779
▁supporters	-13780
▁Anniversary	-13781
▁communicate	-13782
▁credentials	-13783
▁differently	-13784
▁disappeared	-13785
OG	-13786
AIN	-13787
hot	-13788
iat	-13789
▁ail	-13790
overe	-13791
▁Role	-13792
▁hymn	-13793
▁brass	-13794
▁pilot	-13795
▁Narmad	-13796
▁crimes	-13797
▁dishon	-13798
▁foster	-13799
▁progen	-13800
▁spices	-13801
▁uphold	-13802
▁excuses	-13803
▁handled	-13804
isticated	-13805
▁annually	-13806
▁formally	-13807
▁founding	-13808
▁monument	-13809
▁peripher	-13810
▁publicly	-13811
▁Indonesia	-13812
▁Prevention	-13813
▁administer	-13814
▁attributed	-13815
ups	-13816
File	-13817
▁Bod	-13818
▁Opp	-13819
▁Teh	-13820
ariah	-13821
▁Days	-13822
▁apex	-13823
arshan	-13824
opathy	-13825
▁Exper	-13826
▁rebel	-13827
▁sorce	-13828
▁uncon	-13829
▁Bhakti	-13830
▁Travel	-13831
▁checks	-13832
▁cooked	-13833
▁humour	-13834
▁instal	-13835
▁notify	-13836
▁rating	-13837
▁remitt	-13838
▁rooted	-13839
▁rubber	-13840
▁Reforms	-13841
▁Shastri	-13842
▁premier	-13843
▁spouses	-13844
▁touches	-13845
▁peasants	-13846
▁prevents	-13847
▁detection	-13848
▁eliminate	-13849
▁incorrect	-13850
▁prospects	-13851
▁innovators	-13852
▁convocation	-13853
▁encompasses	-13854
▁illustrious	-13855
▁politicians	-13856
▁demonstrated	-13857
FA	-13858
FR	-13859
GE	-13860
EAR	-13861
mah	-13862
yot	-13863
ype	-13864
Make	-13865
abul	-13866
▁07.	-13867
▁Ark	-13868
▁Jad	-13869
▁muc	-13870
▁vow	-13871
Islam	-13872
▁Kind	-13873
▁nick	-13874
▁rage	-13875
▁sums	-13876
istani	-13877
▁Naval	-13878
▁Purch	-13879
▁boxes	-13880
▁fatal	-13881
▁firms	-13882
▁prone	-13883
▁tower	-13884
▁Recogn	-13885
▁Serial	-13886
▁lovely	-13887
▁ponder	-13888
▁selves	-13889
▁tarried	-13890
▁Priority	-13891
▁doctrine	-13892
▁concealed	-13893
▁disclosed	-13894
▁termination	-13895
▁manifestation	-13896
▁accountability	-13897
22	-13898
untu	-13899
▁120	-13900
▁Gib	-13901
▁pel	-13902
▁sem	-13903
.2012	-13904
arama	-13905
illic	-13906
▁Info	-13907
▁club	-13908
ameter	-13909
▁https	-13910
▁parad	-13911
▁prize	-13912
▁vivid	-13913
▁Brahmo	-13914
▁Double	-13915
▁Palace	-13916
▁dealer	-13917
▁devout	-13918
chandise	-13919
▁Federal	-13920
▁depicts	-13921
▁restart	-13922
▁quarters	-13923
▁Employees	-13924
▁GREETINGS	-13925
▁allotment	-13926
▁Attachment	-13927
▁indication	-13928
▁mathematics	-13929
▁procurement	-13930
▁unconscious	-13931
▁remuneration	-13932
OLD	-13933
TIT	-13934
arb	-13935
cha	-13936
pre	-13937
rup	-13938
▁Dy	-13939
▁spl	-13940
▁wit	-13941
etime	-13942
▁COND	-13943
▁Priy	-13944
▁acre	-13945
▁disd	-13946
▁trip	-13947
itious	-13948
▁2000,	-13949
▁Sangh	-13950
▁Study	-13951
▁exult	-13952
▁zones	-13953
▁drinks	-13954
▁metaph	-13955
▁puppet	-13956
▁Missing	-13957
▁Sankara	-13958
▁seizure	-13959
▁wedding	-13960
▁Vaishnav	-13961
▁overtook	-13962
▁Profession	-13963
▁physically	-13964
▁sacrifices	-13965
▁multiplication	-13966
ulc	-13967
via	-13968
inee	-13969
kara	-13970
opia	-13971
pire	-13972
▁Bag	-13973
▁Cyr	-13974
▁Map	-13975
▁nas	-13976
Enter	-13977
based	-13978
urday	-13979
▁Mont	-13980
▁cock	-13981
▁echo	-13982
▁Eleph	-13983
▁indis	-13984
▁loyal	-13985
▁Wisdom	-13986
▁preach	-13987
▁pulled	-13988
▁Balance	-13989
▁impetus	-13990
▁peasant	-13991
▁Consolid	-13992
▁dissemin	-13993
▁embedded	-13994
▁excluded	-13995
▁Wherefore	-13996
▁socialist	-13997
▁valuation	-13998
▁Subversion	-13999
▁celebration	-14000
▁contributing	-14001
▁traditionally	-14002
sl	-14003
bek	-14004
▁5%	-14005
rels	-14006
▁19.	-14007
▁Dak	-14008
▁Fall	-14009
▁Kish	-14010
▁Kumb	-14011
▁Team	-14012
▁prey	-14013
▁tens	-14014
▁wary	-14015
▁Burma	-14016
▁Pipes	-14017
▁cheer	-14018
▁Taurat	-14019
▁Unless	-14020
▁denies	-14021
▁ingred	-14022
▁relent	-14023
▁spouse	-14024
▁suspic	-14025
▁Ayodhya	-14026
▁Worship	-14027
▁freight	-14028
▁mosques	-14029
▁clearing	-14030
▁compiled	-14031
▁divinity	-14032
▁immunity	-14033
▁operated	-14034
▁realization	-14035
▁underground	-14036
▁utilisation	-14037
Bs	-14038
OI	-14039
ogl	-14040
she	-14041
ulu	-14042
upa	-14043
abar	-14044
aine	-14045
▁Pap	-14046
▁ate	-14047
Taste	-14048
▁summ	-14049
▁wool	-14050
atible	-14051
▁Panel	-14052
▁Tibet	-14053
▁gases	-14054
lements	-14055
▁Gospel	-14056
▁behave	-14057
▁justly	-14058
▁layers	-14059
▁lifest	-14060
▁lovers	-14061
▁Sustain	-14062
▁amazing	-14063
▁artisans	-14064
▁contempl	-14065
▁maritime	-14066
▁performs	-14067
▁renowned	-14068
▁restraint	-14069
▁sovereign	-14070
▁Electricity	-14071
▁attachments	-14072
▁multilateral	-14073
03	-14074
▁("	-14075
azed	-14076
ipse	-14077
oric	-14078
umni	-14079
▁DAC	-14080
▁SEC	-14081
uster	-14082
uture	-14083
▁Diff	-14084
▁Half	-14085
▁prol	-14086
▁slew	-14087
▁Meher	-14088
▁arose	-14089
▁Sovere	-14090
▁devoid	-14091
▁mandap	-14092
▁titled	-14093
▁youths	-14094
▁decides	-14095
▁holiday	-14096
▁priests	-14097
▁Councils	-14098
▁graphics	-14099
▁imagined	-14100
▁insisted	-14101
▁investor	-14102
▁pursuing	-14103
▁ridicule	-14104
▁indecency	-14105
▁launching	-14106
▁pesticides	-14107
▁highlighted	-14108
▁Intelligence	-14109
}%	-14110
bhai	-14111
illy	-14112
pora	-14113
▁Gab	-14114
actor	-14115
inous	-14116
ourge	-14117
▁1987	-14118
▁aunt	-14119
▁guru	-14120
necess	-14121
▁Salih	-14122
▁Smart	-14123
▁compe	-14124
▁flash	-14125
Appeals	-14126
tically	-14127
▁Border	-14128
▁aright	-14129
▁buried	-14130
▁fisher	-14131
▁incarn	-14132
▁strain	-14133
▁whilst	-14134
▁clients	-14135
▁constru	-14136
▁supplic	-14137
▁warfare	-14138
▁appearing	-14139
▁cancelled	-14140
▁magicians	-14141
▁oppression	-14142
▁calculation	-14143
▁spontaneous	-14144
zes	-14145
▁".	-14146
▁03.	-14147
isers	-14148
▁Fair	-14149
▁Town	-14150
▁bron	-14151
▁dual	-14152
▁sear	-14153
ergies	-14154
iating	-14155
orical	-14156
▁Cisco	-14157
▁catal	-14158
▁enlar	-14159
▁steam	-14160
parable	-14161
▁Undert	-14162
▁Minutes	-14163
▁devised	-14164
▁masters	-14165
▁SELECTED	-14166
▁inviting	-14167
▁luminous	-14168
▁websites	-14169
▁aesthetic	-14170
▁magnitude	-14171
▁selecting	-14172
▁violation	-14173
▁procession	-14174
▁humiliation	-14175
▁comparatively	-14176
/-	-14177
AV	-14178
hee	-14179
▁86	-14180
eros	-14181
▁ATAL	-14182
▁Prin	-14183
▁Talk	-14184
▁Model	-14185
▁shake	-14186
limited	-14187
▁essays	-14188
▁mocked	-14189
▁poured	-14190
▁scarce	-14191
iability	-14192
▁chooses	-14193
▁posting	-14194
▁Students	-14195
▁develops	-14196
▁hectares	-14197
▁rightful	-14198
▁Gandharva	-14199
▁alignment	-14200
▁intervals	-14201
▁intestine	-14202
▁perceived	-14203
▁patriotism	-14204
▁Expenditure	-14205
▁challenging	-14206
▁convenience	-14207
Ar	-14208
ITI	-14209
oea	-14210
rao	-14211
rea	-14212
▁25.	-14213
▁31,	-14214
▁BJP	-14215
▁iii	-14216
heres	-14217
ullah	-14218
▁Gulf	-14219
▁Ragh	-14220
▁Thak	-14221
headed	-14222
raints	-14223
rishna	-14224
unning	-14225
▁Khadi	-14226
▁Round	-14227
▁delta	-14228
▁expel	-14229
▁impug	-14230
▁Browse	-14231
▁Fellow	-14232
▁Parent	-14233
▁burned	-14234
▁panels	-14235
▁wicket	-14236
ithmetic	-14237
▁solving	-14238
▁speaker	-14239
▁depicted	-14240
▁portions	-14241
▁aforetime	-14242
▁variation	-14243
▁willingly	-14244
▁creativity	-14245
▁ordinarily	-14246
▁periodical	-14247
▁similitude	-14248
▁Traditional	-14249
▁concessions	-14250
▁civilisation	-14251
▁deliberately	-14252
ui	-14253
ATH	-14254
▁77	-14255
neys	-14256
▁Opt	-14257
▁RES	-14258
▁SER	-14259
▁sen	-14260
adeva	-14261
apsed	-14262
▁Gamb	-14263
▁Kesh	-14264
▁Less	-14265
▁Mald	-14266
▁Song	-14267
▁Undo	-14268
▁angu	-14269
▁cruc	-14270
▁hint	-14271
▁para	-14272
▁turb	-14273
▁2007,	-14274
▁Plate	-14275
▁assim	-14276
▁brace	-14277
▁essay	-14278
▁Manage	-14279
▁comply	-14280
▁pocket	-14281
▁Receipt	-14282
▁microsc	-14283
itiveness	-14284
▁decisive	-14285
▁extravag	-14286
▁floating	-14287
▁embarrass	-14288
▁inscribed	-14289
▁landscape	-14290
▁threshold	-14291
▁Upanishads	-14292
▁depression	-14293
▁repeatedly	-14294
▁consecutive	-14295
▁observations	-14296
▁verification	-14297
di	-14298
Gov	-14299
nar	-14300
ends	-14301
nage	-14302
wala	-14303
▁Din	-14304
▁Ill	-14305
▁bee	-14306
akkah	-14307
▁AIDS	-14308
▁Prob	-14309
▁Ramm	-14310
▁Shik	-14311
▁cars	-14312
▁unin	-14313
Indian	-14314
hatkar	-14315
wahati	-14316
▁Zalim	-14317
▁bunch	-14318
▁forum	-14319
ulative	-14320
zerland	-14321
▁Compos	-14322
▁Groups	-14323
▁assure	-14324
▁harder	-14325
▁hiding	-14326
▁myster	-14327
▁phones	-14328
▁revert	-14329
▁wander	-14330
▁Charles	-14331
▁fearful	-14332
▁horizon	-14333
▁lighting	-14334
▁Protector	-14335
▁Provincial	-14336
▁equipments	-14337
▁resignation	-14338
▁appointments	-14339
21	-14340
Te	-14341
ASS	-14342
rey	-14343
▁Qa	-14344
neum	-14345
oven	-14346
ulla	-14347
worm	-14348
▁01.	-14349
▁Bol	-14350
▁Kur	-14351
▁Sak	-14352
▁pip	-14353
▁Coal	-14354
▁priest	-14355
▁revers	-14356
▁superf	-14357
▁tackle	-14358
▁vagina	-14359
liminary	-14360
▁Content	-14361
▁Guarant	-14362
▁Messiah	-14363
▁Prakash	-14364
▁Refresh	-14365
▁Zalimun	-14366
▁confron	-14367
▁editing	-14368
▁mastery	-14369
▁poultry	-14370
▁screens	-14371
igibility	-14372
▁Complete	-14373
▁Criminal	-14374
▁emission	-14375
▁treacher	-14376
▁borrowing	-14377
▁employers	-14378
▁mentality	-14379
▁prolonged	-14380
▁Satyagraha	-14381
▁chromosomes	-14382
▁modifications	-14383
CR	-14384
Pre	-14385
▁57	-14386
▁73	-14387
ayam	-14388
lims	-14389
miki	-14390
ashes	-14391
luent	-14392
▁Sure	-14393
▁plun	-14394
uclear	-14395
▁2001,	-14396
▁Farid	-14397
▁Lower	-14398
▁Split	-14399
▁draws	-14400
▁tough	-14401
▁Daniel	-14402
▁Maryam	-14403
▁Nagpur	-14404
▁shapes	-14405
▁Multiple	-14406
▁Teachers	-14407
▁consumed	-14408
ordination	-14409
▁enlighten	-14410
▁exclusion	-14411
▁miserable	-14412
▁Jagannatha	-14413
▁Resolution	-14414
▁plantation	-14415
.]	-14416
2}	-14417
▁03	-14418
▁Sr	-14419
AYEE	-14420
pher	-14421
▁Dip	-14422
ocate	-14423
▁bags	-14424
▁nigg	-14425
odhpur	-14426
▁Speed	-14427
▁Vrind	-14428
▁ample	-14429
▁hydro	-14430
▁monks	-14431
▁penal	-14432
▁Option	-14433
▁hazard	-14434
▁superv	-14435
ructural	-14436
▁dislike	-14437
▁doubled	-14438
▁readily	-14439
▁Checking	-14440
▁dividing	-14441
▁overlook	-14442
▁Bharatiya	-14443
▁Assessment	-14444
▁specialized	-14445
▁governmental	-14446
▁demonstration	-14447
aval	-14448
iana	-14449
uits	-14450
▁HIS	-14451
▁Ras	-14452
▁dub	-14453
March	-14454
▁VAJP	-14455
▁bite	-14456
▁slog	-14457
mother	-14458
whether	-14459
▁snakes	-14460
▁Records	-14461
ifference	-14462
▁VAJPAYEE	-14463
▁feedback	-14464
▁magician	-14465
▁shipping	-14466
▁Sanctuary	-14467
▁Universal	-14468
▁Presidency	-14469
▁organizing	-14470
▁merchandise	-14471
ns	-14472
cow	-14473
▁AB	-14474
▁TB	-14475
▁05.	-14476
▁Cry	-14477
▁Ess	-14478
▁UTs	-14479
▁rib	-14480
arter	-14481
astro	-14482
izard	-14483
▁Cant	-14484
▁Saha	-14485
▁gamb	-14486
▁kins	-14487
amount	-14488
insula	-14489
recogn	-14490
▁Iraqi	-14491
▁meter	-14492
▁Diwali	-14493
▁Friday	-14494
▁evolve	-14495
▁pushed	-14496
ertained	-14497
▁Setting	-14498
▁submiss	-14499
▁Guwahati	-14500
▁offerings	-14501
▁projected	-14502
▁elementary	-14503
▁Entrepreneur	-14504
▁occasionally	-14505
▁dissemination	-14506
AF	-14507
GC	-14508
ugg	-14509
burg	-14510
folk	-14511
opes	-14512
▁hal	-14513
giene	-14514
▁Pill	-14515
August	-14516
abhuti	-14517
ometer	-14518
▁Blood	-14519
▁Griev	-14520
▁Mathe	-14521
▁Relie	-14522
▁brick	-14523
▁saith	-14524
▁AWARDS	-14525
▁Animal	-14526
▁Korean	-14527
▁Robert	-14528
▁Safety	-14529
▁basket	-14530
▁mantra	-14531
▁racial	-14532
▁Purusha	-14533
▁Regular	-14534
▁circles	-14535
▁mindful	-14536
▁washing	-14537
▁SPEECHES	-14538
▁instinct	-14539
PRODUCTNAME	-14540
▁conjecture	-14541
▁displaying	-14542
▁fertilizer	-14543
▁exploration	-14544
▁Championship	-14545
CII	-14546
EAN	-14547
FER	-14548
iece	-14549
seud	-14550
umar	-14551
▁10%	-14552
▁Ple	-14553
▁Iron	-14554
▁Sast	-14555
▁Snow	-14556
▁Tata	-14557
▁hook	-14558
▁tabs	-14559
istent	-14560
▁2015.	-14561
▁Skill	-14562
▁horiz	-14563
General	-14564
▁Hebrew	-14565
▁Retrie	-14566
▁Supply	-14567
▁fierce	-14568
▁invari	-14569
▁exagger	-14570
▁guideth	-14571
▁legends	-14572
▁revenge	-14573
▁whisper	-14574
▁Recently	-14575
▁operator	-14576
▁pilgrims	-14577
▁validity	-14578
▁ambitious	-14579
▁arrogance	-14580
▁dominated	-14581
▁exploited	-14582
▁fashioned	-14583
▁regulated	-14584
▁congratulations	-14585
igm	-14586
olu	-14587
appa	-14588
bone	-14589
▁(7)	-14590
▁Mil	-14591
▁sik	-14592
▁une	-14593
▁ved	-14594
buntu	-14595
ensed	-14596
orney	-14597
▁Gods	-14598
▁Wing	-14599
▁budd	-14600
▁thri	-14601
icking	-14602
▁Above	-14603
▁coinc	-14604
▁feeds	-14605
▁Ashram	-14606
▁Harish	-14607
▁analys	-14608
▁occupy	-14609
▁solely	-14610
▁cleared	-14611
▁restaur	-14612
▁illusion	-14613
▁migrated	-14614
▁requisite	-14615
▁completing	-14616
▁transplant	-14617
▁counterpart	-14618
▁horticulture	-14619
oi	-14620
nis	-14621
ESCO	-14622
esis	-14623
▁29,	-14624
▁FIR	-14625
▁NHS	-14626
▁cub	-14627
rolog	-14628
▁Much	-14629
▁ensh	-14630
▁feas	-14631
▁jeal	-14632
▁mant	-14633
▁thir	-14634
▁Heavy	-14635
▁Hills	-14636
▁Watch	-14637
▁codes	-14638
▁Demand	-14639
▁assent	-14640
▁Complex	-14641
▁Pradhan	-14642
▁Vallabh	-14643
▁escaped	-14644
▁spirits	-14645
▁Guidance	-14646
▁Printing	-14647
▁likewise	-14648
▁textiles	-14649
▁Kolhatkar	-14650
▁Thereupon	-14651
▁sincerely	-14652
▁translate	-14653
▁Devanagari	-14654
▁conscience	-14655
▁minorities	-14656
▁cleanliness	-14657
▁unemployment	-14658
LD	-14659
Sw	-14660
cot	-14661
uan	-14662
▁FL	-14663
▁Hud	-14664
▁dos	-14665
erald	-14666
ostic	-14667
▁1971	-14668
▁Sadd	-14669
▁deem	-14670
▁scal	-14671
▁verd	-14672
▁Croat	-14673
▁Kabul	-14674
▁flora	-14675
▁overr	-14676
▁toxic	-14677
athetic	-14678
▁Judges	-14679
▁Portal	-14680
▁uterus	-14681
▁Confirm	-14682
▁Ishmael	-14683
▁approve	-14684
▁elderly	-14685
▁percept	-14686
▁physics	-14687
▁signing	-14688
▁sunrise	-14689
▁barriers	-14690
▁disciple	-14691
▁imposing	-14692
▁matching	-14693
obiography	-14694
▁impartial	-14695
▁deliberate	-14696
▁emphasized	-14697
▁propaganda	-14698
tk	-14699
Now	-14700
Par	-14701
esc	-14702
sen	-14703
yar	-14704
▁SV	-14705
PATI	-14706
▁kap	-14707
▁pin	-14708
▁urg	-14709
comes	-14710
venth	-14711
▁1949	-14712
▁Grad	-14713
▁Kali	-14714
▁Poon	-14715
▁ferv	-14716
▁foss	-14717
aspora	-14718
erance	-14719
▁CALLS	-14720
▁Dutch	-14721
▁Proxy	-14722
▁Saheb	-14723
▁Stone	-14724
▁dozen	-14725
▁frank	-14726
▁BIHARI	-14727
▁Dharma	-14728
▁Scroll	-14729
▁Taking	-14730
▁Blessed	-14731
▁Spanish	-14732
▁contest	-14733
▁endorse	-14734
▁hanging	-14735
▁invoked	-14736
▁palaces	-14737
▁progeny	-14738
rehension	-14739
▁Articles	-14740
▁merchant	-14741
▁assembled	-14742
▁invention	-14743
▁salvation	-14744
.08	-14745
III	-14746
ahu	-14747
▁HE	-14748
aret	-14749
bral	-14750
▁30.	-14751
▁Hap	-14752
▁Pud	-14753
▁maj	-14754
▁1930	-14755
▁SMTP	-14756
▁Bench	-14757
▁Names	-14758
▁Puran	-14759
▁SIDBI	-14760
▁hoped	-14761
▁incub	-14762
▁loses	-14763
▁mines	-14764
▁portf	-14765
▁Almost	-14766
▁Bezbar	-14767
▁Layout	-14768
▁Purana	-14769
▁derive	-14770
▁floods	-14771
▁fodder	-14772
▁incons	-14773
▁lifted	-14774
▁Browser	-14775
▁incline	-14776
▁reduces	-14777
▁deterior	-14778
▁eighteen	-14779
▁fruitful	-14780
▁regulate	-14781
▁tropical	-14782
▁unnecess	-14783
▁GroupWise	-14784
▁Societies	-14785
▁alternate	-14786
▁estimates	-14787
▁possesses	-14788
▁remainder	-14789
▁requiring	-14790
▁allowances	-14791
▁inscription	-14792
▁instrumental	-14793
ATI	-14794
▁05	-14795
▁IR	-14796
avil	-14797
▁Bor	-14798
▁jew	-14799
▁rod	-14800
adium	-14801
anyan	-14802
▁Arth	-14803
▁Lect	-14804
▁clan	-14805
▁trap	-14806
▁twin	-14807
ulture	-14808
▁Minor	-14809
▁fetch	-14810
▁guards	-14811
▁notion	-14812
▁Convert	-14813
▁lawyers	-14814
▁texture	-14815
▁entities	-14816
▁economics	-14817
▁sugarcane	-14818
▁Vidyasagar	-14819
▁directories	-14820
▁distinctive	-14821
▁Publications	-14822
▁Establishment	-14823
Jan	-14824
▁Ud	-14825
card	-14826
olio	-14827
ribe	-14828
utor	-14829
▁29.	-14830
▁BHA	-14831
▁Mak	-14832
front	-14833
▁1973	-14834
▁1985	-14835
▁Blue	-14836
▁Rish	-14837
▁rays	-14838
luence	-14839
▁Memor	-14840
▁Penal	-14841
▁knock	-14842
▁scoff	-14843
▁Mantri	-14844
▁Mexico	-14845
▁Sudden	-14846
▁dinner	-14847
▁frames	-14848
▁Highway	-14849
▁arrives	-14850
▁fitting	-14851
▁mounted	-14852
▁cleaning	-14853
▁compiler	-14854
▁initiate	-14855
▁utilized	-14856
▁Everything	-14857
▁multiplied	-14858
▁worshipers	-14859
▁introducing	-14860
[...]
